#version: 0.2 - Trained by `huggingface/tokenizers`
Ġ d
o n
Ġ c
e r
Ġ s
Ġ p
Ġ a
r e
t o
i n
e n
t a
t i
l a
Ġd i
r i
e l
r a
l i
Ġ e
t e
l e
Ġ m
a n
u n
Ġ i
r o
z i
Ġ n
Ġ in
s i
Ġd el
h e
Ġ f
i a
o r
â Ģ
Ġ un
e s
on e
c a
Ġ v
l o
Ġc on
Ġp er
Ġ la
o s
o m
q u
Ġ g
Ġa l
Ġ t
Ġc he
c o
c i
Ġi l
a r
m en
a l
d i
Ġ qu
e t
zi one
âĢ Ļ
d o
m a
Ġ ri
s o
Ġ o
Ã ł
z a
n o
Ã ¨
Ġs u
Ġ C
i o
Ġ l
Ġ S
Ġ b
er e
Ġ Ã¨
i s
Ġd e
t u
v a
Ġ le
Ġp ro
s a
Ġd a
o l
Ġc om
m p
m o
g li
Ġs i
Ġ P
v i
Ġa n
on o
c h
b i
g g
t to
c e
t er
on i
d a
Ġs e
Ġm a
c he
t Ãł
Ġc a
p p
Ġdel la
Ġ A
Ġ M
Ġun a
t ra
s e
Ġ re
Ġ I
Ġn el
v o
Ġn on
Ġp re
Ġ L
n i
t ti
n a
v e
m i
Ġ h
Ġp i
d e
er a
f i
in a
Ġs o
men te
Ġf a
Ġ (
Ġp o
an o
on a
Ġ 1
s p
Ġ 2
Ġ D
u o
ra n
z za
c ia
t ro
t en
b b
Ġp a
Ġd al
er i
Ġv i
Ġs p
g a
men to
Ġt ra
Ġ R
Ġ G
t ta
s si
Ġt u
Ġs ta
Ġ T
v er
Ġqu es
u i
Ġc i
Ġ âĢ
Ġ u
zi oni
c on
Ġ B
Ġde i
Ã ¹
in i
t ri
p o
en ti
. .
Ġp ar
g i
Ġ F
Ġ te
Ġ lo
in e
s s
en te
ta n
Ġs ono
Ġ E
a li
Ġpi Ã¹
to ri
t re
r u
Ġh a
Ġd o
Ġ ra
en za
f f
Ġdel l
in o
Ġg i
c c
Ġ N
h i
m b
p a
g o
Ġm i
Ġal la
Ġcom e
Ġdel le
an i
Ġm o
Ġn e
Ġsu l
u l
Ġm e
ch i
Ġc os
s ti
Ġan che
Ġ V
a le
tu ra
m e
p i
d u
gg i
Ġp os
z z
er o
s so
Ġ2 0
an do
Ã ²
l u
Ġp u
Ġa d
ri o
et to
s ta
âĢ Ŀ
g u
Ġc o
Ġ li
Ġp ri
bi li
an no
Ġf or
ri a
Ġs c
Ġqu el
u to
Ġg li
ĠâĢ ľ
a re
v en
ta li
Ġcom p
Ġal l
Ġi mp
ta re
c u
bi le
Ġb a
en e
gg io
Ġa r
et ti
ĠL a
Ġa v
Ġf i
Ġin ter
es so
g na
Ġe ss
gli o
n e
Ġn o
Ġ -
Ġ U
Ġa pp
Ġpro p
c co
si one
Ġe d
Ġd u
zi a
0 0
a s
Ġques to
ĠI n
fi ca
zi ona
t te
Ġg ra
ia mo
ti co
p er
un i
d ere
men ti
Ġnel la
g ni
ta to
Ã ©
Ġ ti
in g
s c
el e
Ġa i
g no
Ġess ere
Ġ O
Ġc hi
Ġ20 1
ĠM a
u s
f or
ĠI l
gli a
Ġc ol
g ra
Ġ 3
Ġs a
Ġv a
Ġc or
Ġ ta
Ġc ui
Ġm ol
Ã ¬
Ġt er
s sa
t ru
an ti
zi o
Ġal le
Ġri c
Ġri s
et ta
Ġper s
Q u
f fi
Ġse mp
Ġpar te
re n
mp o
an a
Ġc re
ti ca
ci o
z e
.. .
Ġsu o
Ġpre s
Ġv ol
b o
Ġn uo
la re
Ġt ro
u m
Ġn os
Ġgi or
b a
bb li
ĠC a
Ġp or
c ca
es si
Ġa t
zz o
Ġ to
p e
d ia
er ca
Ġde gli
el lo
es ti
d er
to re
Ġ "
Ġv er
Ġdal la
Ġn a
Ġla vo
en do
en ta
ch Ã©
es e
an te
Ġv en
Ġv o
m ma
Ġb i
Ġso lo
Ġtu tti
g e
r on
Ġdi s
el la
Ġg io
ĠâĢ ĵ
u ro
Ġan ni
ĠC on
Ġs er
Ġpri ma
Ġh anno
en a
el li
ti va
ĠP a
i l
v ol
Ġlo ro
Ġ H
Ġdu e
bb e
Ġa cc
I l
u r
pp o
g ia
es s
u ra
a t
Ġg en
u ti
Ġ or
an to
ĠC om
) .
) ,
L a
ĠP er
m m
Ġqu al
Ġm on
ĠL e
Ġc h
Ġe s
Ġin di
Ġ 4
Ġv e
Ġs ia
c qu
Ġsemp re
Ġsu a
Ġs te
f a
di o
Ġques ta
Ġri sp
Ġmol to
ti vo
es sa
is ta
z zi
Ġ 5
Ġg ran
si d
i e
Ġ Qu
Ġsta to
Ġpos si
Ġtu tto
Ġm en
Ġpu Ã²
Ġ en
la n
Ġe sp
Ġdi sp
m an
s se
Ġdi re
Ġ ro
t in
c ch
p era
for ma
g n
r in
Ġun o
ĠA n
Ġa bb
li zza
ĠR e
t t
Ġm an
bili tÃł
Ġpu bbli
Ġsp e
Ġs enza
en to
et te
tan te
co ra
Ġh o
Ġf ar
Ġte mpo
ĠA l
Ġsul la
es ta
Ġpers ona
Ġ1 9
in di
Ġp un
u ta
c or
Ġo gni
ĠS i
m bi
Ġcon s
Ġfa re
Ġdi ver
in is
Ġu ti
Ġs ca
ĠS e
ra t
Ġli b
Ġv ia
ĠD i
Ġp en
os a
c cia
Ġg a
re s
Ġqu ali
Ġs tra
ff er
Ġf o
ri e
vi tÃł
Ġcon f
Ġc er
g hi
t tura
Ġfa tto
r Ãł
Ġpo i
Ġ W
Ġdo po
ta le
un e
Ġne i
el le
Ġc ar
qu e
v ano
Ġse con
s to
v ia
Ġa u
ziona le
Ġdal l
Ġser vi
ra re
ĠM i
Ġper chÃ©
tali a
is te
Ġnel l
Ġquel lo
z o
s t
Ġp ia
Ġ Â
Ġcon tro
Ġ era
an za
et Ãł
Ġa tti
a d
g ui
Ġal c
mp i
o lo
Ġ w
Ġdo ve
âĢ ¦
Ġqu ando
co lo
Ġs os
om e
m ina
Ġan cora
Ġal tri
gg ia
I n
Ġc en
Ġfor ma
ca to
Ġs tori
Ġs tu
l tre
Ġvi ta
va re
ta ti
s ci
Ġmo do
Ġb u
zi e
Ġgi u
ĠR i
Ġc an
Ġd on
Ġm ar
ali zza
Ġdo v
li tÃł
Ġso tto
Ġcos Ã¬
c chi
Ġprop rio
al mente
Ġf on
? ?
Ġpro g
en ze
Ġcon c
is ti
in ter
Ġin con
p ri
or d
si a
tu re
Ġch ia
Ġnel le
pp or
Ġ 6
om o
Ġs en
ra zione
Ġ os
ta mente
Ġpro f
ggi un
Ġtra tta
c k
Ġcomp le
Ġi tali
i t
Ġle gg
p re
Ġqu anto
ĠP ro
ar Ãł
Ġs co
el o
e d
v ere
Ġs al
om i
la zione
Ġg u
Ġa cqu
Ġ tan
ti vi
Ġlavo ro
Ġmon do
ĠG i
is to
Ġpro do
Ġques ti
an ta
ran te
Ġs in
ran no
os ta
es to
Ġci r
et t
Ġun i
om a
l mente
Ġc u
Ġ el
Ġpar ti
m er
o si
Ġso p
Ġt en
tu a
Ġpos s
Ġsp a
Ġ J
an e
mb re
Ġin f
Ġf un
cia le
Ġf u
ti ve
a mo
Ġin i
g ina
Ġs ol
Ġ K
Ġgi Ãł
Ġpo li
es a
Ġa ve
âĢĿ .
en i
Ġqu indi
Ġs tru
g ono
Ġte c
ra to
Ġca so
d enti
ĠV i
Ġmi glio
Ġsc ri
co l
ĠM ar
tu i
Ġgran de
u re
Ġn um
Ġquel la
Ġs arÃł
r si
un que
Ġca sa
l ine
Ġar ri
Ġcom uni
ta zione
os tra
Ġc al
Ġd om
gi one
Ġimp or
Ġl u
Ġ on
ul ti
b le
Ġf ino
2 0
Ġfo to
ter ia
ten za
g ani
li ca
Ġe uro
Ġ20 0
Ġe se
ssi mo
et ro
Ġda i
Ġca pi
Ġd es
lo re
Ġs iste
Ġ 7
Ġne c
c ina
si s
si oni
Ġt re
Ġf in
n un
el l
Ġb ene
Ġu l
os to
Â »
Ġvol ta
t ina
un o
Ġcos a
Ġcon os
ti ci
l la
Ġa ff
Ġ1 0
ĠN a
m on
Ġtu tte
d ente
Ġpa ssa
ch ia
Ġin forma
to r
Ġpri mo
f eri
en da
os o
ĠN on
Ġcon di
Ġs ti
Ġl un
Ġpi cco
Ġdal le
Ġtra s
Ġe ff
Ġpar tico
Ġpers one
va to
Ġri p
Ġ z
ci p
mp a
Ġqu ale
Ġm om
Ġsi to
Ġin c
tru zione
Ġnos tro
Ġf e
Ġal lo
u si
Ġm ani
da re
Ġa uto
Ġat tra
Ġsi cu
h o
ĠP o
ci tÃł
Ġc ri
Ġm is
Ġ ,
O N
ĠS a
Ġpro du
Ġo ggi
ar d
g is
li a
l lo
Â °
Ġo ltre
ta no
e i
p en
e di
c ci
Ġvi ene
Ġnuo vo
un a
ĠU n
Ġposs ono
Ġma ggio
ĠP i
Ġsta ta
v in
u sa
ti che
Ġf ra
ca re
Ġra ga
Ġri chi
ggi or
Ġste sso
Ġdel lo
tri b
Ġb en
Ġre alizza
Ġc li
Ġgior no
t ten
Ġ .
ver so
inis tra
Ġde ci
Ġt uo
gli e
s cia
h a
de o
o k
g re
âĢĿ ,
Ġsecon do
Ġcon tra
Ġ 8
Ġf ine
Ġma i
Ġo pera
Ġpossi bile
f o
Ġris ul
Ġto r
ĠÂ «
g ine
an d
c ere
ĠB a
qu i
la ri
Ġgior ni
Ġ ele
P er
g io
Ġc la
la no
Ġcon tin
ĠM o
fa tti
ĠI talia
Ġsu per
ĠF a
t r
Ġpro ble
ĠD a
ssi one
c ri
Ġo re
tori o
Ġfa mi
Ġci t
ta ta
ĠD e
Ġal tre
v al
el i
Ġuti lizza
ĠR a
ti on
Ġp rin
Ġ 9
ĠL o
Ġdi ven
lo gi
Ġda ti
d re
E R
ffi ci
Ġcit tÃł
Ġsu cc
si e
Ġp e
ver o
Ġmi li
Ġme di
ĠC or
tu tto
Ġpo tre
Ġvi si
la to
Ġsemp li
ĠC o
ĠS o
Ġno i
Ġo ra
mp io
ca zione
di ta
Ġs vi
gani zza
Ġre la
c ce
Ġric erca
Ġo ri
Ġna tura
eri e
Ġ er
ti s
Ġa gli
e b
ĠC i
Ġsiste ma
Ġg o
t on
u a
Ġqu a
tan za
Ġba mb
ĠS an
ĠA r
ci pa
Ġmom ento
ĠL i
i mp
Ġse gui
s er
mi ci
ar ti
en o
vo le
m is
ul tura
v enti
Ġa ssi
Ġre n
ve ce
Ġsu i
Ġcol le
Ġcon si
Ġlo ca
c con
Ġnum ero
Ġpun to
ter i
ĠM on
Ġgior na
Ġcon ten
io re
Ġdon ne
tto re
Ġal tro
ĠP re
Ġli v
Ġsuo i
b er
or ta
ma to
Ġf re
c en
pp res
Ġnos tra
Ġa sp
gu ar
or re
Ġdi ri
Ġgen era
ĠF i
tan do
Ġpo si
Ġ 0
es se
s mo
g he
u se
Ġmen o
Ġsvi lu
Ġsta ti
Ġnuo va
Ġper m
ri ca
Ġnec essa
Ġ k
Ġqual che
Ġcre a
Ġmen tre
f er
ar si
or t
Ġe di
! !
li o
Ġp es
Ġso li
Ġin vece
Ġstori a
ona le
c cio
re zza
v vero
cia li
Ġdi ce
Ã Ī
Ġba se
Ġsc el
Ġ r
ĠR oma
Ġabb iamo
Ġra ppres
Ġm io
di ca
tan ti
Ġav ere
u te
Ġan nun
Ġ1 5
Ġric or
fi ci
ssi ma
c om
Ġqu i
Ġatti vitÃł
lo ri
ven to
Ġrisp etto
Ġattra verso
Ġa mbi
e a
Ġfi l
Ġo ff
Ġgio v
Ġtu tta
Ġ1 8
Ġde ve
Ġul ti
is ce
ĠD o
Ġtec ni
an da
d ono
Ġvi deo
g h
Ġalc uni
f ini
er Ãł
pp a
Ġa sso
Ġg ru
gu a
c ono
zz e
Ġcon se
Ġti po
Ġsta n
Ġsul le
Ġma teria
men o
sc ri
Ġg esti
Ġa ss
la bo
b re
si tÃł
Ġi o
mb ra
Ġpro gra
Ġc erca
Ġa ver
Ġre go
Ġan no
Ġcos ti
ta ri
Ġspe ci
Ġin s
Ġn or
Ġter ri
Ġv al
Ġm in
sid era
Ġper Ã²
Ġca mb
g ere
Ġa g
Ġb o
es te
c os
Ġbi so
Ġcon ta
Ġm or
Ġpre sso
rat tutto
tu ale
ziona li
Ġpres enta
ten te
Ġin fatti
u zione
Ġcir ca
Ġm ia
Ġl in
d di
Ġe vi
Ġt ele
Ġdu rante
Ġmo d
an ni
co li
Ġcen tro
Ġpre zzi
S e
Ġs are
al l
sie me
ĠR o
Ġl ine
Ġqual c
Ġgra zie
Ġprodo tti
Ġservi zio
l l
d Ã¬
re bbe
bi to
Ġso ci
Ġi de
Ġm erca
to lo
et ri
Ġpro te
Ġ1 2
ĠN o
Ġmol ti
Ġf uo
Ġpor ta
A N
ghi e
Ġe si
sp on
Ġpre n
sa re
Ġ |
t ino
ĠF ran
Ġincon tri
a i
Ġle ga
cch ia
m ar
es co
T I
c ano
Ġa zi
cc u
Ġc ura
L e
t ter
et er
Ġver so
Ġsop rattutto
Ġa mm
Ġs enti
Ġen tra
da to
Ġtan to
Ġor ganizza
sti ca
Ġe con
ĠC hi
E N
os e
Ġf er
20 1
sid ente
Ġra ccon
gu e
en zi
Ġ Z
Ġv uo
Ġc ultura
Ġcon te
d enza
Ġquali tÃł
Ġprog etto
a pp
Ġave va
Ġcom pa
Ġl uo
Ġques te
Ġpartico lare
sti tu
u so
Ġo p
Ġservi zi
Ġdisp oni
or so
Ġp ra
Ġdisp osi
u t
po li
d ini
ĠT u
Ġca rat
us to
Ġs etti
Ġter m
Ġm usi
Ġi mma
Ġpo co
Ġme glio
Ġsp esso
Ġinforma zioni
Ġs vol
bb ero
ra ta
Ġcor so
r re
ĠG a
ĠC h
T A
ĠS u
Ġapp ro
Ġn as
m ana
Ġne gli
Ġsempli ce
Ġprof essi
Ġpa ro
er ra
ri co
Ġv eri
Ġper io
Ġb an
Ġfa ci
Ġun ghie
Ġese mpio
ppor to
ĠU ni
Ġsu e
T O
c ro
Ġcla ssi
ca r
pp ure
ĠT ra
Ġra ggiun
ran ti
Ġar ti
Ġsul l
ĠL u
00 0
Ġin te
Ġe cc
Ġqua si
Ġa ggiun
Ġ [
ett ere
e si
Ġci Ã²
po si
Ġv in
a m
gis tra
Ġliv ello
Ġs iamo
Ġin sieme
Ġri con
uo la
Ġpos to
f ia
v ono
ch io
Ġquel li
Ġvol te
Ġt ri
Ġse mbra
Ġ rin
ten zione
âĢ ľ
ten ti
Ġla scia
la r
Ġo tten
Ġg ui
Ġo tti
Ġl ui
C on
s tra
Ġe sc
Ġs or
Ġinter na
Ġgran di
ĠM e
Ġtro va
c ente
va mente
Ġ1 4
Ġprogra mma
ĠC ar
Ġsi tua
ĠP ar
tico lo
m in
Ġs erie
Ġa bi
er ia
gli ere
R I
Ġuti li
Ġs con
cor so
ven i
g ini
Ġs ci
ga re
tta mente
ĠB i
Ġg ia
v esti
etto re
Ġde fini
Ġfon da
Ġtra di
cch io
er ci
L I
Ġnos tri
ter o
Ġprop ria
Ġan d
Ġini zia
Ġquel le
Ġ X
b e
Ġri ce
Ġcamb ia
Ġvi c
es t
Ġv os
or to
io ri
ga to
ta rio
gni fica
Ġf os
Ġi m
Ġa ffi
3 0
Ġa m
Ġprop ri
Ġa per
Ġecon omi
Ġ #
on da
Ġfil m
un ta
Ġdiver si
Ġpi ano
Ġper f
- -
Ġ201 7
Ġ ÃĪ
a ri
ch Ã¨
Ġconf er
Ġpro c
Ġmo di
Ġparte cipa
" .
Ġpa ra
Ġbamb ini
Ġcos e
tri ce
Ġsoci etÃł
Ġt ran
inter no
ĠN e
Ġpossi bilitÃł
Ġw eb
om ini
e de
Ġlegg e
al tro
Ġ ru
tu ali
d ine
Ġs f
Ġimpor tante
Ġf ina
ta r
va ti
Ġ1 6
ĠT i
Ġv elo
ul la
Ġmerca to
Ġ3 0
Ġci tta
Ġtu a
Ġste ssa
Ġtro vare
Ġli mi
Ġsop ra
Ġgru ppo
g en
ĠMi lano
di ce
Ġpre v
ter na
ĠU na
g le
Ġa mici
Ġon line
Ġqu o
ĠG ra
p u
Ġannun ci
eri enza
U n
Ġlavo ra
a cqu
Ġsecon da
t el
Ġd en
Ġfor ni
Ġre al
an zia
Ġin ten
Ġmusi ca
Ġproble ma
Ġgra tui
Ġan i
Ġ1 1
Ġgra do
ĠE uro
us ci
Ġpo po
Ġprodo tto
ĠN el
Ġpre ce
o o
Ġva ri
Ġpres ente
Ġra cco
Ġn ess
Ġn u
Ġsi gnifica
sa to
fi co
Ġsa ranno
Ġv isto
Ġ ...
en de
A n
Ġcor re
Ġv ista
Ġcon sidera
is si
" ,
N on
lo gia
Ġca p
os te
sti co
R E
ra ti
Ġcol labo
Ġs ette
ĠG io
Ġca pa
Ġ201 8
Ġfuo ri
Ġdi ffer
Ġme dia
tan to
Ġdon na
va ta
Ġse gna
l li
ver no
Ġan ti
mo re
Ġpubbli co
t ere
s te
Ġn ome
Ġreal tÃł
Ġb ra
Ġsegui to
s tri
al le
S i
ĠF or
Ġnuo vi
ĠS p
Ġme si
re a
M a
bi etti
Ġs era
Ġter ra
Ġsp ie
Ġnor ma
Ġprin cip
ta te
r oni
t h
R A
v io
Ġe sa
ord ina
sp i
Ġca usa
n er
en tra
Ġre gi
Ġpotre bbe
Ġri feri
Ġfami glia
Ġve dere
a cc
Ġb lo
Ġlib ro
Ġd etto
ma re
Ġri guar
Ġsen so
k e
Ġ1 7
1 0
Ġm ano
Ġimp re
Ġperio do
o pera
Â» .
gg etti
Ġdiver se
w w
g on
ĠâĢ ĺ
men tare
Ġpo te
Ġstra da
Ġven gono
Ġv ero
Ġ1 3
Ġcon trib
te zza
Ġm ostra
ĠT a
Ġterri torio
Ġde si
Ġs esso
Ġrappres enta
ver sa
sia si
al tra
tto ri
Ġfa vo
Ġda vvero
ĠE x
Ġcom unque
Ġca m
Ġc uo
Ġu omo
Ġ201 6
ĠC as
Ġgra tis
a tti
fi che
a u
Ġn i
c endo
A l
Ġlun go
Ġsare bbe
ri re
me dia
Ġimp e
Ġc in
Ġtan ti
g er
Ġ :
ĠCom e
c ra
d endo
uo i
Ġpro ce
Ġda to
qu ad
spon sa
Ġricon os
Ġm ese
Ġ2 5
Ġesc lu
Ġpre pa
Ġalc une
Ġ Y
zza zione
Ġs an
Ġo tto
ccu pa
Ġr uo
Ġs ettore
mi co
Ġf ron
Ġa pri
no va
d ina
s u
Ġstru ttura
ri to
ma i
co la
Ġd eter
Ġm ini
Ġcor po
Ġeff et
Ġapp lica
ssi mi
Ġse i
Ġqual siasi
Ġbi an
Ġse gu
Ġa li
Ġdo cu
os ti
Ġf is
Ġcom pi
I N
ra mente
Ġsu bito
Ġcom mer
ĠT e
Ġta le
Ġsucc essi
ĠQu esto
Ġre sponsa
1 9
I talia
Ġb ar
Ġnuo ve
Ġre gistra
Ġer ano
Ġz ona
Ġgio co
t y
pp i
om pa
n et
Ġconf ron
ĠH o
Ġ2 4
ter Ãł
man e
pp ia
Ġsa p
f t
Ġmiglio ri
Ġgiov ani
Ġi s
Ġitali ano
Ġv era
p ro
si on
Ġf ini
Ġmili oni
at tro
mi ca
Ġpubbli ca
r ono
Ġmo da
Ġtec no
Ġal meno
Ġdi chia
Ġstu dio
Ġric os
Ġca mpo
fica zione
Ġpre zzo
Ġpersona le
Ġda re
Ġri vol
Ġd etta
Ġnecessa rio
Ġtro ppo
Ġpun ti
ra le
Ġsicu rezza
Ġri f
ta l
Ġpo ter
Ġen er
Ġs tre
Ġini zi
ĠS er
a mbi
Ġda gli
Ġos pi
al la
Ġfun ziona
Ġ /
Ġtra sp
Ġeuro pe
Ġscel ta
Ġc io
f on
Ġgui da
ona to
Ġco lo
Ġpi u
sci ta
c re
Ġdi f
Ġ '
ĠD on
es p
ol tre
Ġluo go
tor no
Ġno ve
Ġapp ar
Ġp ron
Ġtratta mento
Ġda ta
du zione
ĠS al
Ġpa re
ĠP u
Ġdi a
b bi
Ġqualc osa
pp e
ĠB o
Ġfor se
l ina
Ġu ffi
Ġcons u
E L
ro i
.. ..
l le
Ġo ffer
cca sione
Ġu omini
c in
un to
m ia
I A
m os
or do
Ġpro vin
a v
Ġsos ten
gg etto
ar te
l en
b ri
Ġ2 1
Ġeff etti
Ġani ma
Ġsi ano
Ġindi vi
Ġno ti
Ġva lore
tri mon
Ġfi si
Ġd ol
Ġpre ci
s ce
Ġsvilu ppo
Ġfor te
c enza
m ano
Ġcontin ua
bb iamo
Ġch at
es sione
Ġg e
Ġm essa
bi lmente
v is
ĠE n
Ġe x
Ġpoli tica
Ġdel i
ĠS ono
Ġte ma
tu r
se gna
Ġspa zio
Ġprodu zione
Ġri usci
ten do
1 1
tr ui
Ġcom une
vo li
Ġs ce
tt ere
Ġ201 5
Ġpes o
Ġmin uti
Ġ1 00
ĠV er
ĠB er
bo ok
Ġv io
c ando
Ġparo le
Ġgiu gno
Ġins eri
la ta
a zione
Ġfoto gra
ĠN i
Ġindi ca
Ġin vi
Ġcu cina
I S
b u
Ġsp i
Ġpres enza
Ġven dita
Ġbiso gno
mi te
Ġca mpi
Ġa s
ver sitÃł
Ġf anno
Ġin oltre
Ġpres enti
Ġco in
Ġinte gra
Ġsette mbre
c er
ĠT or
Ġper chÃ¨
Ġfin anzia
c che
Ġo ppure
tu ro
Ġsucc esso
Ġvuo le
or k
g ne
du stri
Ġri so
Ġa cco
Ġb re
Ġques t
d en
Ġa da
cia to
5 0
Ġs ele
ĠT o
Ġcondi zioni
Ġte sta
Ġle i
g an
Ġproble mi
os si
ĠC ol
Ġsin go
ddi s
Ġprop rie
te go
R O
d ino
Ġsc uola
Ġori gina
a to
Ġdiri tto
Ġcomp ren
Ġcen tra
Ġmani f
g ente
p ia
Ġel et
Ġ19 9
Ġs quad
om ma
b ra
ĠG li
Ġti pi
Ġpri mi
a uto
Ġan dare
Ġgenera le
Ġ Q
Ġme zzo
Ġc ro
Ġa tte
Ġpar la
Ġau tori
ga mento
Ġtor na
w s
Ġdi ff
Ġgesti one
Ġf ru
Ġqu attro
Ġacqu a
Ġ5 0
Ġsen si
Ġc e
Ġha i
Ġin vesti
Ġsi ti
Ġpu r
Ġdi m
p ar
ggior na
Z I
Ġ â
zi on
Ġ ero
ĠA d
isti che
di mento
Ġpra tica
mis sione
m or
Ġcarat ter
an ze
Ġfos se
m oni
Ġracco l
L E
Ġconc lu
sso cia
Ġgiorna ta
ta ria
Ġav vi
u omo
Ġav uto
Ġna zionale
ĠV al
tori a
Ġfor za
bb ra
m u
tta re
Ġline a
Ġallo ra
ch er
A r
Ġm eri
i de
N el
Ġsta te
ona li
Ġgu ar
vi mento
Ġra pporto
Ġpres en
Ġcer to
Ġamm inistra
Ġre te
Ġricos truzione
Ġp ol
ma ti
Ġitali ana
1 2
Ġcon to
Ġti tolo
Ġa do
om ia
di tÃł
Ġterm ine
Ġbu on
Ġp la
di ci
zza re
Ġsetti mana
Ġper corso
or se
Ġde dica
T E
v anti
fica re
Ġvo i
Ġdi e
sis te
m io
ĠD io
ĠCom une
Ġv is
Ġper i
Ġmis ura
I C
Ġpre sidente
an n
c enti
Ġc ia
U ni
Ġtra mite
enta le
Ġdi ffici
Ġpo chi
ta gon
Ġle tto
ma ta
Ġgio ca
Ġma ggior
la mento
men tazione
Ġmol te
Ġmiglio re
Ġlegg ere
ba to
Ġulti mi
Ġsp etta
ga zione
Ġriferi mento
ta mento
cu ra
Ġte mp
is mo
ĠP ri
Ġu r
Ġpre sta
Ĥ ¬
Ġdi men
Ġotto bre
Ġimp i
Ġdi pen
Ġso ciale
t ture
Ġnove mbre
gu ra
Ġpa gina
ĠF o
ca le
ca l
Ġforma zione
Ġ201 4
un ale
Ġpor no
Ġn ulla
Ġpia ce
Ġma re
Ġ x
u me
Ġca si
Ġpa ese
Ġqu anti
Ġparti re
Ġp elle
zi enda
Ġvia ggio
di to
Ġsos ti
Ġor mai
er to
Ġle tter
Ġne go
Ġdi sa
Ġo f
Ġpro v
Ġfron te
Ġci vi
u ri
Ġre sta
mb o
ĠD I
Ġa cca
Ġma la
gg e
Ġbu ona
Ġo v
Ġma s
Ġlu ce
Ġf ran
gi ca
Ġcuo re
Ġte mpi
na io
Ġpre ve
d iamo
er va
e ti
Ġmo der
eni ca
ppor t
Ġdim ostra
ĠV ia
Ġimp a
om ina
Ġrichi esta
ulti mo
Ġpicco lo
cia re
L A
Ġdisposi zione
Ġgen ere
a ss
Ġma cch
Ġsti le
Ġloca li
Ġcoin vol
Ġcontro llo
Ġil lu
Ġdeter mina
D o
Ġman ten
Ġfonda men
Ġasso lu
Ġposi zione
li e
Ġsta gione
Ġde vono
u ale
Ġse de
Ġdes tina
Ġfon do
Ġte sti
f e
f fica
Ġ2 2
ĠB ar
ĠCon si
Ġvos tro
Ġimpor tanti
Ġotten ere
ĠCor si
Ġindivi du
Ġi d
bietti vo
Ġin sta
Ġlin gua
Ġcomp re
Ġproc esso
Ġitali ani
ing le
Ġcondi vi
ĠG u
fica to
I I
Ġme to
Ġfar ma
Ġga ranti
Ġcre are
Ġrisul tati
Ġsitua zione
Ġb elle
Ġpersona li
Ġi stitu
ĠC os
m mo
Ġc m
Ġpen si
o ra
uni tÃł
Ġraga zzi
g om
re e
Ġcos to
Ġa tto
Ġdice mbre
Ġt he
Ġacc esso
Ġdi sc
Ġazi ende
Ġpro tagon
Ġcomp et
tta n
Ġes erci
Ġp si
Ġinter ess
v era
Ġco lore
ĠGi u
Ġf anta
ar t
Ġci glia
Ġazi enda
Ġdire ttamente
Ġri ca
2 00
c le
Ġpubbli ci
Ġimma gini
Ġla n
Ġcapa citÃł
O R
m ani
is cono
Ġlu glio
Ġpa ri
Ġva lori
g ano
Ġpos sa
Ġca tego
Ġso ddis
Ġi scri
Ġtele f
ti di
U na
Ġmar zo
Ġ2 3
an na
m mi
Ġqu ad
col tÃł
cia l
Ġs to
Ġvisi ta
ĠA pp
i r
c t
Ġen tro
Ġfre qu
acqu a
Ġconse gu
os tante
ĠT er
cos truzione
Ġe ven
Ġapp ena
Ġcapi re
Ġtu ri
Ġco per
ca ti
ĠC en
Ġpos t
Ġma le
p h
tra n
Ġperm ette
Ġoff re
E S
Ġvo glia
Ġdes cri
Ġriguar da
Ġgiorna li
Ġacc ompa
ten sion
Ġat ten
w are
ssocia zione
Ġcons ul
d es
el lu
bbra io
ĠC he
Ġpro ba
zza to
t elli
Ġa ffer
ta zioni
Ġsp or
Ġpassa to
ĠO r
er ti
Ġruo lo
Ġcomuni cazione
Ġc ine
Ġe venti
Ġri le
ter a
ĠRi costruzione
Ġs fi
Ġdi gi
Ġmaggio re
Ġlib era
ten zi
tu to
Ġsta bili
gi co
ran do
ĠS tato
Ġl on
g enza
ga ri
ĠEx tension
Ġcollabo razione
Ġma tt
r lo
logi e
Ġesclu si
Ġcer ti
ĠFran c
sis tenza
ver si
chi te
Ġde di
Ġnos tre
Ġincon tra
Ġfu turo
ĠM an
ĠGio v
ĠH a
Ġca po
te si
Ġcom in
ĠB u
Ġaff ron
ĠC ri
Ġinter essa
Ġan zi
la ti
Ġval uta
Ġb ella
da ta
du to
ĠD u
Ġnel lo
et tare
Ġav ven
Ġal ta
ï ¿
Ġfina le
en so
Ġgen naio
Ġfa ccia
ZI ON
bbli ca
Ġnec essi
Ġinterna zionale
Ġdom anda
Ġpro m
Ġris chio
tu almente
D i
Ġra pi
M A
ï¿ ½
ar di
Ġme ta
Ġpro fi
Ġcos trui
Ġmod ello
t elle
r ere
ta na
Ġasso cia
Ġal to
Ġlavo ri
Ġ201 3
Ġabb ia
da ti
Ġa de
ĠI tali
ra no
Ġrisp on
trimon io
zz ando
Ġs et
Ġcor ri
Ġesp re
ĠIn ter
Ġste ssi
R i
ĠD is
Ġta l
Ġcli enti
ĠG o
Ġesp erienza
Ġrif le
Ġrappres en
Ġvo le
ĠG ia
u tare
Ġsta mpa
Ġter re
Ġfa tti
Ġloca le
Ġcitta dini
Ġga ra
Ġgo verno
Ġca ra
S A
an g
Ġp uoi
a ssi
dia le
Ġfa se
va te
Ġpu li
C ome
ĠAn che
do tto
Ġco lori
Ġmanif esta
Ġsi mi
Ġfi le
Ġri la
Ġb e
Ġvol on
Ġpa zi
gna to
Ġa ggiorna
Ġsc ena
lo go
. ,
or sa
lan do
da mento
Ġes ter
la te
Ġfaci le
1 5
Ġsca r
Ġcontin u
Ġsc orso
c anza
Ġsin da
vo lo
ĠS ta
Ġver sione
Ġb elli
Ġchi e
Ġutilizza re
c ine
Ġu tenti
Ġm ettere
Ġmoda litÃł
Ġar re
Ġop ere
Ġrisul tato
Ġcon n
ra te
ci ta
ma il
Ġo cchi
Ġma ssimo
Ġse gre
Ġcre scita
Ġ4 0
Ġcosti tu
Ġi denti
Ġdisponi bile
Ġi mm
ĠT ri
Ġdov rebbe
Ġpicco li
on te
Ġconos cere
Ġdesi gn
d os
co lare
ĠG ran
g enti
Ġfi r
Ġto tale
Ġriconos ci
1 8
u zioni
Ġfe bbraio
Ġcar ta
ce book
Ġva rie
or no
il la
Ġf al
tri ci
m etri
Ġ j
Ġacqu is
Ġar tico
Ġti to
Ġa sse
no ltre
Ġav rebbe
Ġletter a
Ġu sci
a zienda
Ġa mp
ali si
Ġin ca
ĠDo po
Ġta r
Ġcio Ã¨
k i
Ġprincip ali
ven do
ĠI N
Ġri tro
Ġso la
C A
Ġo bbli
Ġapri le
Ġprovin cia
T u
t s
gi oni
Ġprece dente
Ġsquad ra
Ġa ma
Ġtras forma
Ġprog etti
Ġnatura le
ĠS pa
e e
so la
ĠA le
Ġinc lu
Ġcomp orta
Ġdis cu
Ġspe cia
Ġgen i
Ġquo tidi
an che
l in
Ġsol uzione
y o
ĠR u
are n
ren te
v ista
P ro
Ġga ran
ca ta
Ġm etri
Ġno tte
via mente
Ġan n
lar mente
Ġva ria
Ġsu gg
Ġin gre
Ġpo t
Ġ &
Ġmala tti
pri re
Ġper dere
Ġstru menti
Ġscri tto
Ġgiu di
k et
Ġre ga
bb ia
ggia re
Ġ2 8
Ġav re
Ġstra te
Ġdi ffi
Ġgiov ane
Ġe mo
Ġc ele
c y
mm inistra
) ;
Ġpar lare
Ġmani era
Ġmor te
ĠC al
Ġrisp osta
u p
Ġte sto
ĠV ene
ali tÃł
Ġpren dere
Ġsap ere
Ġre lazione
Ġsal ute
Ġconte mpo
Ġcarat teri
g enze
on d
ca mente
vi so
p ren
Ġri es
Ġlib er
Ġ201 2
Ġstori co
Ġincon tro
Ġraga zze
Ġpa ss
Ġe ffica
es o
Ġvi vere
M i
Ġd unque
Ġca s
Ġcaratter istiche
ĠâĢ ¦
Ġfa cendo
Ġri du
sa mente
Ġlib ri
an de
Ġpro va
d ing
Ġeffet tua
e o
Ġm al
Ġv anta
ĠMa ria
Ġfun zione
ma tica
Ġu sa
Ġo vvero
Ġin via
l y
Ġu so
Ġdiffici le
ri zzo
Ġpa ssi
n on
ulti ma
e x
Ġre p
l ini
b ar
on do
Ġ +
cipa le
sti che
li ci
Ġsuper iore
s on
Ġos ser
Ġe qui
et ter
olo gna
Ġele menti
Ġcol lo
ĠP ia
era zione
Ġg ente
Ġma ssa
Ġme mo
Ġsco per
lo ra
ĠG en
Ġ2 6
Ġo ccasione
ssi me
D a
Ġtuo i
Ġso le
ĠNa poli
Ġcin que
ĠSer vi
Ġpen sa
Ġcomple tamente
Ġin se
atti vitÃł
C a
Ġb io
Ġvic ino
an ca
Qu esto
Ġdis trib
Ġri man
mi che
ide a
m one
Ġ2 7
con do
g ri
vi sione
ĠS te
ini zio
ĠConsi glio
ra i
are a
Ġv ali
Ġs ingle
Ġo ccupa
Ġm er
Ġve de
Ġpot rÃł
Ġca mpa
O S
Ġba sta
Ġno te
in te
is tica
Ġinf er
Ġa tta
Ġpi edi
Ġmateria le
r y
Ġbre ve
Ġris to
L o
Ġpossi amo
Ġb ru
Ġgu erra
Ġpo tenzi
Ġdisponi bili
Ġn Ã©
ff a
ĠM as
t ella
Ġvio l
Ġqualc uno
-- --
ĠÂ ·
Ġuni co
Ġsicu ramente
ca li
vi si
Ġb al
s h
Ġni ente
Ġtemp era
Ġcom o
ĠS tati
1 6
Ġat tenzione
ĠQu esta
t ini
ĠS tu
A R
Ġspa zi
uti li
Ġrealizza zione
ga ti
Ġd eri
ona ti
va zione
Ġri ve
o p
Ġsce gliere
men ta
Ġstu di
m ere
Ġv ostra
Ġmi ei
Ġfi lo
Ġfe mm
fi cio
ĠT he
ĠV a
k a
c ana
Ġe mer
t one
Ġs che
Ġvo ce
k er
u mi
ar ci
et ra
Ġtu r
Ġimpre se
ĠPo li
Ġre cu
mor roi
Ġcli ente
Ġdeci so
Ġso ggetti
Ġav anti
Ġo pport
Ġte ss
mo bili
Ġ tante
si mo
or ti
con tro
Ġpro mo
Ġness uno
Ġai uta
Ġs chi
Ġcomp on
Ġinter pre
s co
ga ta
Ġcon vin
Ġra ff
Ġfi gli
t ing
ĠS c
Ġcon cor
ar ticolo
Ġbian co
Ġse zione
Ġs ani
Ġar ticolo
Ġes tre
Ġas col
Ġvelo ce
ett roni
t una
ter iore
Ġstu denti
2 4
Ġre sid
Ġin tro
gi e
C I
Ġconten uti
li b
Ġven i
Ġre li
Ġperf etta
s tenza
la zioni
der si
Ġedi zione
ess ere
Ġprofessi on
Ġm ino
esp erienza
Ġcon d
ĠC la
H o
Ġin nova
Ġconos ci
Ġpicco la
Ġsp ia
Ġag osto
Ġstan no
Ġmateria li
ĠRe gione
S ono
uo le
Ġri fi
Ġel i
di re
Ġasp etta
Ġp al
Ġda vanti
du ta
Ġpor tare
amo re
Ġba sso
Ġa more
pu bblica
Ġpropri etÃł
m era
cca to
Ġfavo re
Ġpar t
Ġp om
Ġconsi gli
Ġpri me
men t
i si
Ġabb as
la zzo
Ġma ssima
Ġtro v
Ġg ro
O M
Ġcomple ssi
Ġsu pera
Ġevi tare
Ġarri va
1 4
b ina
Ġraggiun gere
mb e
Ġcon ti
v ra
tu ri
Ġmo tivo
sti ci
Ġci c
Ġk m
Ġpro ssimo
Ġsp er
Ġca se
Ġdom enica
Ġpo e
da te
tti va
Ġpen sare
Ġesi genze
Ġam eri
Ġgiu sti
Ġprin cipale
tti vo
Ġpa gamento
?? ?
V A
Ġg ri
8 0
ren ze
Ġver rÃł
gh t
na le
ci lia
Ġpa sso
Ġdi p
enzi ale
Ġm os
es tra
d ri
Ġa gg
o ri
Ġdov re
6 0
Ġdiri tti
ĠQu ando
Ġdiffi coltÃł
Ġde mo
Ġluo ghi
Ġim media
Ġri ma
Ġblo g
ĠTor ino
Ġel ettroni
lizza zione
Ġri ten
Ġbiso gna
Ġm ette
ĠC an
ran ea
ĠPre sidente
tto sto
Ġso ciali
tori ale
Ġterm ini
Ġ ?
Ġf eli
Ġcomuni tÃł
Ġgi usto
Ġs m
Ġs ba
Ġba t
inis tro
a der
Ġ2 9
ĠMon te
et tato
Ġman u
Ġin gle
la y
Ġgia r
Ġfi glio
ĠDi re
Ġcri si
Ġdedi cato
Ġsol uzioni
Ġsiste mi
Ġdiven ta
Ġcom ma
Ġcam era
Ġc ellu
Ġin dustri
ĠC u
nun ci
ĠFranc esco
con tri
Ġpre feri
an ia
vi d
Ġ om
Ġcentra le
m eri
sa pe
2 5
ĠG er
Ġproce du
S I
Ġra gione
Ġcla sse
Ġpreve de
N A
Ġpa esi
en ne
in f
Ġmacch ina
oo gle
tiva mente
ar lo
Ġin ci
ma zione
Ġinter venti
der Ãł
Ġpu re
Ġba gno
Ġcol pi
/ /
Ġre cente
ĠJ o
Ġbamb ino
ĠChi esa
Ġuti le
i d
Ġal b
Ġrego la
ĠC li
Ġmon ta
Ġspe ciali
uni ca
p s
Ġn ero
Ġpartecipa zione
Ġro man
Ġinter no
Ġris orse
Ġ3 1
Ġnecessi tÃł
l d
co le
Ġs inistra
Ġf ur
Ġmo vimento
Ġ201 1
Do po
Ġmeto do
Ġpro veni
esti val
u di
Ġdov rÃł
Ġsco po
Ġma gari
tan ze
Ġt ren
Ġfa tta
s ca
Ġre sto
glia to
Ġregi onale
zz ano
Ġno ta
Ġm etÃł
tru ttura
r one
Ġquesti one
Ġsuper fici
ft ware
Ġte a
c ella
Ġor dina
A L
Ġi eri
Ġg as
morroi di
ĠR is
Ġtro vato
Ġgi ro
Ġpia cere
Ġasp etti
1 3
Ġsp ort
Ġv orre
mar t
ren ti
c ino
Ġsvilu ppa
Ġcre sc
Ġden tro
tro ppo
Ġm esso
ĠGiov anni
Ġprev isto
Ġ tali
ĠPa ese
Ġsol tanto
g ro
Ġtecni che
: //
Ġren dere
g ante
Ġarri vare
Ġâ Ĥ¬
lan d
Ġpia zza
ĠD el
ĠCa sa
Ġnon ostante
er anno
Ġle gno
Ġconos cenza
ghe zza
Ġpiu ttosto
Ġrice v
Ġse colo
Ġprov ve
Ġstru mento
Ġsci enti
ĠEuro pa
Ġimpi anti
Ġpo tere
1 7
Ġper dita
men tari
Ġm ulti
esso re
G li
Ġcons enti
âĢ¦ ]
eri co
Ġper cor
Â «
di zione
ĠGi or
Ġ =
Ġa ree
w n
Ġcontra tto
Ġcan di
Ġfami glie
ZION E
Ġcolo ro
Ġre ali
Ġlun ga
Ġcos truzione
E uro
tri a
en sa
Ġelet tri
Ġconsi glio
Ġs ale
ar do
ber to
Ġinter net
da le
Ġpos ti
Ġdiffer enza
Ġe morroidi
Ġna vi
Ġpubbli cato
a p
Ġstan d
Ġvi r
Ġapp unta
Ġv anno
Ġpa dre
Ġcatego ria
Ġtecni ca
er si
Ġparo la
Ġeconomi co
Ġg lo
O L
d on
i mma
Ġdi menti
T ra
Ġb ri
Ġparte cip
is co
Ġese gui
Ġcultura le
cre to
Ġo ggetti
Ġpro se
Ġi r
Ġla r
Ġdiven tare
Ġgeni tori
Ġter zo
ĠI noltre
Ġinc re
Ġsc om
tti ma
Ġsegui re
Ġtradi zione
Ġcap elli
ia le
ĠAn ton
cca re
ĠCen tro
Ġprote zione
ĠG es
Ġsc or
Ġinter esse
Ġcon for
ambi to
Ġs ess
Ġre ale
ĠG oogle
ĠFa cebook
b io
Ġs cher
Ġdi etro
Ġspe ciale
Ġstra ordina
Ġm era
ĠV o
an zi
Ġcosti tui
Ġvelo citÃł
Ġrealizza to
Ġme cc
Ġpos so
Ġu sare
ven zione
Ġgio chi
l lare
p ol
zza ta
Ġad ulti
Ġrip or
Ġma dre
Ġpor tato
tto ria
Ġcos tante
Ġdis tin
Ġconse gna
Ġman gia
Ġmatt ina
Ġdov uto
Ġresponsa bilitÃł
ri s
en dere
E T
es tre
Ġdis tanza
Ġesp eri
ffici ente
u ter
ĠP e
ppor ti
cia mo
mb a
Ġbi lan
d in
Ġad di
d do
ren di
issi mo
gg ere
ĠAn dre
Ġ6 0
Ġfa m
Ġconfron ti
Ġric etta
Ġmod elli
Ġcomp osto
Ġparti ta
Ġz u
en t
ĠPa olo
Ġso cial
Ġfi gura
Ġfondamen tale
C i
Ġsegu enti
Ġs Ã©
Ġdimen sioni
. âĢľ
Ġf en
Ġme mb
utili zzo
al to
Ġca rico
Ġgu a
Ġspeci e
R e
Ġrealizza re
lu b
Ġsele ziona
Ġal terna
Ġconta tto
gli or
ran za
Ġren de
Ġaccompa gna
Ġm ente
Ġriso l
Ġso ggior
Ġperi colo
Ġad esso
is s
Ġcons ente
Ġcia sc
y a
Ġraga zza
ambi ente
A S
Ġuffi ciale
bo ra
un d
ĠC ro
ĠG re
Ġcre do
Ġassi cu
ĠS car
ĠB e
ĠRe pubblica
Ġin tra
ona re
Ġave te
s ter
ran d
Ġs ali
Ġoffer te
d etto
r ci
Ġcon du
go lo
Ġrisp ar
an co
Ġri ti
Ġsu pporto
mi la
lan te
Ġe cco
Ġm u
Ġin torno
Ġpi eno
Ġsp ese
a ria
Ġtra sc
ui re
ĠE di
Ġo ggetto
Ġsicu ro
ĠS esso
mp e
Ġsotto line
gra fia
use o
Ġqu ei
ĠR os
Ġorigina le
ĠN uo
Ġvera mente
ĠNa zionale
Ġm us
ĠI o
in to
Ġb us
ĠP as
Ġb el
ĠT re
Ġpartico lari
Ġeffet tu
Ġanima li
2 2
Ġide e
Ġtran qu
lizza to
V I
Ġmi cro
Ġsa bato
Ġmon diale
Ġcerca re
ĠP al
Ġpart ner
ra zioni
Ġprofessi onale
Ġacquis tare
P i
ĠB ologna
Ġraccol ta
Ġf rat
) :
Ġe tÃł
in s
ter iori
Ġpia tta
Ġdes tra
D I
Ġs om
Ġdal lo
us ura
r ina
ĠMar co
Ġor gani
Ġ[ âĢ¦]
mina re
m ini
Ġsemplice mente
V i
va mo
gi mento
in da
ĠÂ »
P re
ĠC er
tran no
Ġpre so
Ġlib ero
Ġdi v
Ġdi se
Ġfor me
Ġsoddis fa
Ġabbas tanza
Ġspie ga
mministra zione
li s
er mo
Ġsu b
Ġtu te
Ġener gia
Ġl Ã¬
Ġfor tuna
Ġ201 0
Ġban ca
Ġcon sape
Ġmodi fica
Ġcampa gna
a ti
Ġpi ena
Ġchi u
Ġfen om
Ġingle se
Ġa cce
Ġso ftware
Ġtras feri
Ġimp ie
Ġrip ro
Ġt enta
Ġsa la
ĠJ a
4 0
Ġsoli to
Ġver de
Ġp an
re ssi
Ġco ppia
etta zione
Ġchia ma
ui to
mon ia
Ġprop osta
er dÃ¬
Ġtecni co
g in
ord ine
m me
Ġu s
Ġco dice
P o
u ma
Ġappro fon
Ġmo du
Ġno vitÃł
Ġsf ru
Ġnon chÃ©
Ġ19 8
Ġov viamente
g s
Ġsp eri
ĠN ella
Ġpassa re
Ġambi ente
Ġconc re
Ġcor si
ĠGes Ã¹
ĠD EL
ĠE cco
Ġi spi
!! !
posi to
Ġm uo
Ġliv elli
Ġdis cip
Ġf ed
Ġris er
Ġpo tranno
_ _
Ġf res
ĠT ea
po ca
Ġpa gine
Ġprop one
qui si
un cia
Ġes tra
Ġide ale
Ġf ri
Ġg usto
Ġliber tÃł
om in
inis tero
Ġave vano
Ġpres to
Ġs ho
gn ia
ket ing
Ġcon ce
Ġpi ani
e vento
Ġconc entra
Ġitali ane
Ġaper to
Ġur b
Ġpartico larmente
Ġdedica ta
Ġsc uole
ro ri
u alizza
vo ro
Ġe t
Ġinter a
ffi cio
Ġdire tta
N o
Ġchia ro
Ġfemm ini
ar to
Ġquanti tÃł
Ġlavo rare
Ġb ello
Ġmaggio ri
ĠA u
Ġapp are
Ġpassa ggio
ĠC re
Ġd anno
di te
Ġtecno logia
vol ta
Ġt era
ĠPo i
Ġmera vi
Ġe pi
Ġstu dia
Ġcrea zione
tta to
Ġw ww
Ġin da
Ġga y
mina zione
Ġca mm
p le
Â Ĵ
tin ua
ĠGra zie
ĠL ui
imp or
Ġener ge
li are
Ġs Ã¬
ro v
ĠAn nunci
Ġimpe gna
ma mente
Ġacc or
Ġgru ppi
Ġmeri to
l er
ss and
Ġesp ri
t ello
Ġnatura li
Ġalc un
veni re
Ġvaluta zione
va le
Ġmo to
Ġpoli tiche
w ork
Ġla to
d ano
Ġpro vo
Ġpresenta zione
Ġpre ssione
Ġri torno
ĠI s
ĠS co
ĠS anta
Ġre gione
7 0
mb le
un ti
Ġpa ssione
Ġstra ni
Ġcorri spon
Ġsu d
Ġstru tture
Ġse pa
Ġdis co
Ġim mobili
Ġpo tenza
Ġdo lore
Ġne ga
Ġle ttura
Ġcal cio
r la
Ġpicco le
e te
Ġca ta
Ġdu rata
en si
vi ta
ra ggio
Ġcom ba
Ġprotagon ista
Ġeven tuali
Ġdire zione
sp etti
Ġe siste
Ġan tici
ĠV en
l ino
Ġpre no
Ġor dine
Ġsco prire
f ra
Ġa b
Ġsu gli
ĠO n
Ġproba bilmente
9 0
b al
mb io
ci pi
con omia
Ġfar lo
ĠFi renze
Ġsetti mane
Ġnumero si
ĠEuro pe
c la
p ero
ĠM edi
Ġgaranti re
d y
ett ono
Ġpre sti
Ġpa ura
pre sa
Ġpote te
C O
Ġro sso
Ġmi la
Ġrela tivi
Ġfran c
Ġau ton
Ġca ri
ria mo
Ġappar ten
Ġcivi le
Ġsoggior no
ĠT ro
Ġsos te
Ġsco la
Ġartico li
ĠAl l
Ġsol di
Ġd anni
Ġforma to
Ġconten uto
m meno
Ġe du
Ġbelle zza
Ġc ul
Ġdiver so
Ġv ino
Ġsta re
Ġfor n
Ġdom ande
Ġutilizza to
zza ti
Ġmemo ria
Ġsuperfici e
ĠB ra
Ġsera ta
ing ra
ĠPro vin
Ġmo bili
Ġveri tÃł
o biettivo
Ġpersona ggi
Ġlavora tori
es tro
Ġpre o
Ġa bbi
Ġf esta
Ġb or
Ġpre fer
ver ti
Ġclassi fica
Ġade gua
Ġmiglio rare
en d
ĠR om
Ġpotre bbero
Ġa ssa
fi l
Ġcol la
Ġd ra
v eri
Ġa p
Ġvo gli
Uni versitÃł
man ia
Ġveri fica
Ġpresta zioni
po re
Ġmini mo
Ġa zioni
ĠI I
Ġrisul ta
Ġde vo
ĠM ol
ĠG ro
ĠF ed
bo li
Ġtras m
Ġi po
Ġlin k
sa zione
Ġpom eri
Ġtu e
ĠLi b
Ġri mane
len di
ano ra
Ġfaci lmente
Ġpri vati
Ġri e
Ġcom unale
vi e
f ano
Ġindi pen
ĠUni ti
c lu
Ġn ar
Ġcine ma
bb io
ĠV ol
Ġdetta gli
c ento
Ġmo glie
Ġes te
vo la
Ġt ru
Ġmili ardi
ca te
ssi oni
Ġassolu tamente
Ġar chite
Ġtempera tura
Ġnecessa ria
Ġe cce
Ġmedi co
Ġpoli tico
Ġcri sti
Ġada tta
} .
Ġe vento
Ġpa d
ĠF in
Ġnas ce
Ġnum eri
Ġmom enti
A M
ĠI mp
ĠD al
c ome
u sione
Ġco ok
Ġten ere
Â» ,
f are
C om
ĠNe w
Ġspetta colo
Ġpresen tato
re sso
do tta
Ġresponsa bile
oni ca
Ġmi glior
ĠE mi
Ġme zzi
ĠDon ne
ph one
ĠW eb
en zia
Ġcos tru
Ġregistra zione
ri ttura
Ġg re
st ono
Ġdesi der
Ġgiar dino
c tion
Ġf ol
Ġdire tto
gen zia
Ġcomple to
Ġdol ce
Ġar gom
posi zione
Ġeconomi ca
Ġra pporti
Ġn omina
ĠS pe
Ġb ol
Ġin ti
ganizza zione
ĠAndre a
tu zione
ĠA t
Ġabb and
Ġdie ci
ĠPri ma
Ġav rÃł
Ġle ader
Ġdire ttore
stitu to
Ġnego zio
o ro
Ġme dio
Euro pa
Ġeff etto
ssi a
c ani
Ġe ssi
Ġcomple ta
in ta
zi ale
di bile
da mente
mi tÃł
Ġne mmeno
m s
Ġries ce
for t
o ccasione
Ġcambia re
Ġvuo i
Ġco ordina
Ġo cc
Ġness un
Ġc ento
ĠO ra
t ine
Ġv esti
Ġinter vento
Qu esta
Ġpensi ero
ti vitÃł
ani ma
Ġgratui to
ĠS ci
Ġeffica ce
Ġtro vano
sis tente
Ġpa sse
Ġinteress ante
logi co
Ġfun zioni
Ġave vo
Ġte st
Ġcomp eti
ð Ł
guar do
Ġcam ere
Ġat tre
c one
Ġmedi ante
a per
da zione
Ġve i
lizza ta
in ess
Ġs mart
ver na
Ġscel to
va li
Ġci bo
Ġli sta
Ġacqu isi
Ġgua da
bietti vi
Ġmalatti a
Ġsoste gno
so li
Ġo ro
gu ard
Ġfranc ese
Ġcon qu
ch iamo
C H
Ġcontrib uto
Ġp io
Ġv enti
da li
Ġz one
Ġf iori
Ġpar tenza
Ġar t
r l
Ġser ve
x y
Ġv ale
un g
tu s
era le
Ġcapi tale
Ġprom uo
ina re
ĠIn contri
Ġtutta via
Ġsp lendi
Ġaffron tare
I L
Ġconte sto
Ġfor mu
Ġ19 6
Ġapp assi
Ġf este
Ġtrasp orto
Ġ200 9
ĠDon na
Ġquo ta
Ġmi glia
Ġdiver ti
D A
Ġcara ttere
Ġ19 7
ĠF er
Ġpa ce
Ġvi e
Ġc ur
Ġospi ti
Ġu mani
Ġsvilu pp
Ġin n
O r
Ġpo che
ĠMi ch
Ġmessa ggio
k o
imma gine
Ġaddi rittura
u tente
st ere
ĠJ u
Ġscri vere
Ġgratui ti
Ġsan gue
Ġs on
Ġan alisi
lie vo
en n
Ġcon fi
ĠA v
Ġ yo
ĠC ON
ma tico
Ġu cci
Ġ200 8
Ġide a
Ġassi cura
Ġe sso
tu dine
Ġte o
ĠVene zia
Ġfuo co
r ti
Ġe ssa
pp io
Ġla bora
Ġre cen
Ġrego le
in contro
Ġinse gn
Ġpa le
ĠW in
Ġrichi este
Ġv et
Ġtelef ono
Ġi so
Ġli qui
ĠScar pe
Ġvi ve
Ġinf ine
Ġpos ta
w a
Qu ando
use ppe
Ġs for
cu zione
Ġno to
ar da
Ġri pa
Ġini zio
Ġcapi to
Ġforni re
Ġsempli ci
An che
s ero
Ġri co
Ġma rito
ga te
Ġchi ede
Ġinf lu
Ġtran s
P a
Ġp anora
ĠFran cia
N O
a sp
r Ã²
u e
Ġso ff
Ġpartecipa re
g et
ru ppo
Ġchia ve
ĠQ ui
ĠV illa
Ġentra re
u ali
Ġgio care
lia ri
l lazione
Ġb ro
Ġmo tivi
Ġpopo lazione
Ġprofession isti
Ġfer ro
is a
Ġav anza
Ġstori e
ra s
Ġso vra
Ġvol uto
ĠCar lo
ro re
si vo
ĠB or
Ġla sci
Ġapp rezza
gno re
Ġinterna zionali
Ġd ina
ri era
ĠPer chÃ©
Ġel etto
Ġdigi tale
Ġ )
* *
ĠG e
Ġmanifesta zione
Ġpro vare
Ġste sse
Ġeurope a
Ġesperi enze
d ro
si li
Ġmi e
Ġdemo cra
S O
m ando
Ġ3 5
4 5
Ġsti mo
Ġm ono
3 9
men tato
it h
ww w
Ġm m
Ġca rica
Ġ200 7
Ġraccon ta
Ġcommer ciale
Ġfarma ci
un zione
ĠG ui
Ġcomp uter
A pp
Ġchi lo
Ġprece denti
Ġdie ta
Ġm q
âĢ ĵ
Ġpe ggio
Ġal ti
Ġapp unto
Ġ >
Ġfi du
Ġeffettu are
Ġpor tata
Ġoff rire
c anze
Ġra dio
Ġva canza
qu a
Ġh tt
ĠF onda
Ġmo tore
Ġnoti zie
Ġde sidera
Ġs ve
al lo
Ġquel l
ĠNa tale
Ġraga zzo
ĠSo ci
ĠCol le
Ġstand ard
an t
Ġqu arti
ĠC it
Ġvi sione
ccia io
Ġmanten ere
Ġinfer iore
do va
une dÃ¬
Ġacqu isto
Ġfin almente
ĠW i
Ġconfer ma
li ce
tori ali
Ġri guard
Ġpossi bili
Ġcer cando
Ġ7 0
ĠCh at
si ma
Ġvo glio
Ġperf etto
b lio
ĠS ca
Ġprop oste
Ġchie dere
Ġf an
Ġmiglio ra
P P
ĠS tra
Ġse mi
pp ie
Ġvi lla
ĠO ggi
Ġuni tÃł
on s
s cio
Ġcar ne
Ġgiu sta
Ġsosten i
Ġde creto
Ġte am
Ġfor ti
ppo si
cchi e
Ġzu cch
Ġpomeri ggio
er s
era to
ĠD om
Ġpren de
di menti
et work
ĠSu per
Ġvis ualizza
ffer ta
ĠAle ssand
Ġconsape vole
en co
Ġpo tuto
ĠAnton io
imp re
Ġpsi colo
Ġle ggi
ia o
Ġricor do
Ġpre mi
fi e
Ġinter essi
Ġnum er
E G
b y
ĠP or
Ġess endo
ere mo
2 3
Ġ Ã©
Ġpazi enti
Ġma mma
Ġpi e
ĠTu tti
ĠAl la
Ġrela tive
Ġasp etto
Ġotti mo
ra li
Ġcre dito
do tti
et tendo
Ġapp osi
Ġesp erti
Ġaff a
Ġconsi glia
Ġentra mbi
Ġin segna
ĠV e
Ġulti me
Ġtesti moni
ĠPia zza
Ġa gi
f era
i co
Ġde f
Ġcondi zione
C he
ĠLu ca
tta via
Ġlascia re
Ġutili zzo
Ġtorna re
Ġpa esa
Ġte mi
Ġatte sa
ci ano
ĠGi useppe
c ni
enzi ali
ente mente
ĠCom missione
Ġm oni
gn ano
Ġinizia tive
Ġsinda co
di sp
sta re
â Ĥ¬
Ġb lu
Ġca ff
Ġutilizza ti
Ġpoi chÃ©
sp e
Ġcen tri
Ġparti to
Ġre g
Ġsp esa
Ġinsta lla
Ġre s
Ġdiscip lina
ĠCri sto
ĠU omo
Ġutili zzando
Ġillu stra
r mi
Ġcons erva
Ġecc ell
Ġriguar do
Ġcompon enti
Ġma trimonio
Ġfisi ca
Ġcrea to
Ġvogli ono
Ġcom m
oni co
Ġterre no
. "
di e
Ġav via
Ġri m
Ġris chi
Ġt h
ĠVi deo
ul l
Ġconfron to
Ġvos tri
omi ci
Ġb eni
N ella
da tti
Ġu mano
Ġchi esa
Ġmis ure
for me
Ġo biettivi
ĠM etro
Ġsenti re
Ġconsu ma
Ġsele zione
Ġtito li
Ġglo b
Ġpro ssimi
ĠCom uni
Ġcol on
ĠS il
Ġtra ccia
mina to
Ġfa ce
Ġvi ttoria
Ġpen sato
Ġsosti tui
ar ri
Ġde cora
Ġso ggetto
Ġu sato
Ġdif esa
i sola
Ġcan z
Ġcompa gnia
c ante
Ġper ce
ci Ã²
Ġo gn
ĠO gni
Ġnego zi
I O
Ġchi usura
A d
k y
Ġsi ete
Ġa mico
Ġv as
tori e
Ġambi to
I o
ĠC olo
ĠPa lazzo
Ġd Ãł
Ġpia tto
ĠE le
Ġuni ca
vi le
ani tÃł
sta te
vol uzione
Ġesclusi vamente
ĠIn terna
Ġopera zioni
Ġcomple sso
ĠRa ga
Ġvolon tÃł
U N
ĠCa pi
Ġcontempo ranea
d etti
ren do
Ġcir cos
Ġri uni
Ġtecni ci
Ġpote va
Ġindi rizzo
ĠAn g
ĠPro f
Ġba sa
Ġarti sti
c an
la b
Ġr ingra
Ġraccon ti
C hi
Ġcon corso
ĠC ha
Ġpi an
Ġcomp rare
s hi
ter no
Ġvol ume
9 9
lu s
Ġcor sa
Ġconsegu enza
r ne
or me
sci u
Ġnas cita
Ġcommer ciali
Ġquad ro
acqu isto
acc ordo
h ia
es ca
Ġcons er
Ġde vi
Ġle gis
Ġse gno
Ġnoti zia
ĠCos Ã¬
Ġsimi le
u li
gli are
ĠE d
uni co
Ġprofi lo
2 6
A ssociazione
Ġchi esto
Ġho tel
Ġdocu menti
Ġlu ci
ccu p
vis a
Ġpartecip anti
e poca
Ġotti ma
Ġori gine
G i
Ġe labo
vi menti
Ġbi gli
Ġven erdÃ¬
S u
ĠAn d
G ra
va cy
Ġcamb io
Ġnu tri
2 8
Ġdeci sione
Ġfe de
auto re
Ġ enti
I M
te o
Ġla ure
Ġcultura li
ĠTu tto
ĠY o
ĠSc uola
Ġlo tta
zz ur
Ġsitua zioni
opera zione
ĠB lu
c ini
e ff
ran zo
sta to
Ġcal do
Ġaper ta
ĠP D
Ġimma gina
te ca
tta mento
Ġna zionali
Ġdiver sa
Ġo lio
Ġga mma
ĠB ene
Ġe sti
Ġre so
ina to
Ġline e
Ġmas chi
Ġfidu cia
Ġpa io
ĠP ER
Ġdu bbio
Ġdocu mento
Ġp is
Ġcic lo
Ġver ranno
ĠSe condo
ĠGer mania
Ġli e
sc ono
Ġna to
Ġ Ð
ta rie
men tale
Ġfor ze
at tenzione
Ġdimen sione
m ella
Ġal tra
Ġcontra rio
b ur
Ġsol le
ĠL in
ti le
Ġi mb
âĢĻ ,
Ġprogra mmi
Ġappar tamento
Ġobbli ga
gi ci
Ġmar keting
Ġscel te
ĠF estival
Ġver sa
Ġfilo so
r li
ru r
S a
zi oso
ren za
Ġscri ve
ffici enza
% .
Ġf ia
Ġpre mio
ona litÃł
esta te
2 7
Ġau mento
Ġci elo
Ġmi lle
Ġrela zioni
r no
ĠE l
Ġvia gra
Ġroman zo
di ti
Ġinizia to
Ġlon tano
r ona
Ġsca ri
logi ca
Ġl Ãł
Ġacca de
v ando
Ġdi min
Ġpri vato
lica zione
Ġvis s
ĠCor te
A T
Ġfemmini le
ĠC e
ten sione
Ġopera tori
Ġtecno logie
Ġspi rito
Ġsimi li
Ġopport unitÃł
g endo
ro ga
Ġdov ranno
Ġaggiun gere
Ġa rea
Ġrisp oste
Ġingre sso
u tato
Ġproc essi
Ġtra tto
Ġ9 0
ve dÃ¬
era re
Ġg ol
Ġpre sa
Ġdo bbiamo
mis sioni
Ġs el
is tico
ĠM er
Ġconc etto
v ello
Ġposs ano
la ck
Ġf lu
di enti
Ġsu cce
Ġcom bina
ta ni
Ġtri b
Ġrice vere
F i
pp one
Ġsotto p
Ġridu rre
ĠS ar
g ento
le s
Ġauto re
Ġpia tti
ĠPi etro
Ġtute la
2 1
Ġsingo lo
ĠSi cilia
Ġacco gli
Ġau mentare
Ġevi dente
Ġpro ssima
ni tÃł
Ġfar si
Ġris truttura
Ġricor da
Ġulti mo
Ġcompet enze
z ano
mp re
Ġan a
ĠA L
Ġsos p
Ġfa bb
ĠT h
ĠA i
Ġm etter
ĠN ord
Ġgiu ri
Ġspia ggia
go re
Ġnor me
Ġall ena
sia mo
Ġrichi ede
t Ã²
Ġin ser
ĠF e
Ġo li
ĠA cqu
Ġtradi zionale
Ġpiatta forma
lo g
Ġ8 0
Ġorganizza to
Ġpopo lo
C E
Ġmor bi
Ġfaci li
Ġsmart phone
tra i
Ġsp osa
f re
Ġme de
ĠV in
Ġcontro lla
Ġcan cella
Ġben essere
Ġsuccessi vo
Ġaccesso ri
s tro
ĠA cc
Ġcampi onato
ĠB ri
Ġotti mi
oo d
Ġmiglia ia
Ġnumer ose
" :
ĠP os
ĠLe ga
Ġca val
Ġfa i
Ġpa sta
Ġm one
Ġstra de
Ġappunta mento
ĠPal ermo
Ġa mpio
ar la
Ġness una
v ante
Ġter za
do ws
na ta
Ġmo bile
ing e
b ia
Ġesp lo
li ano
si o
Ġassi stenza
Ġspeci fica
Ġinizi are
ĠL A
Ġ ..
Ġeurope o
Ġproveni enti
2 9
Ġpar co
Ġat trib
Ġdom ani
c s
Ġpa gare
eri mento
vi ene
Ġre ddi
ran eo
Ġclassi co
Ġtrasp aren
Ġpromo zione
ĠS vi
3 3
ĠâĢ ¢
Ġca st
Ġprof onda
Ġimpe gno
i m
ta lmente
ĠM en
tti ve
Ġcos tre
ver Ãł
ff e
ĠCon s
Ġrela tiva
Ġbo cca
Ġcook ie
Ġprop on
n do
or ganizzazione
ar ma
Ġra cc
t ron
Ġten uto
Ġul teriori
U S
t ch
ĠMo d
Ġspeci fiche
Ġnorma le
v an
ĠQu indi
Ġdipen denti
Ġbilan cio
ĠF erra
Ġprotagon isti
Ġprocedu ra
Ġb os
Ġpre venti
Ġsegu ente
Ġso gno
Ġm ina
an di
Ġper so
ĠC A
ĠT os
ini zia
Ġar chi
gna re
Ġve cchio
o d
v el
Ġd an
Ġso ffer
ffi co
Ġpa trimonio
Ġpor te
Ġrisp etti
Ġd ena
Ġpre val
ĠPa esi
ĠRe go
Ġpe zzi
Ġspeci fico
ĠStu di
ĠTea tro
v vi
Ġal coli
Ġu mana
Ġ4 5
Ġvo ci
ĠInter net
lizza ti
ggia to
Ġvanta ggio
Ġpun ta
Ġprin cipi
Ġvin ci
Ġsul lo
pi e
Ġpen so
Ġpre scri
Ġcomuni ca
Ġ za
Ġfunziona mento
ĠM inistero
gra zione
Ġrin no
Ġcostrui re
gi che
Ġgesti re
Ġimpi anto
Ġtea tro
for m
Ġvo to
Ġsin to
ĠCh ia
Ġpur troppo
gu re
f ine
Ġgen er
Ġlimi ti
Ġricev uto
e gli
Ġnu cle
m ine
om bar
Ġpen s
dustri a
er gia
Ġn ord
Ġcontrib u
du ti
d enze
o t
ri etÃł
ĠT erra
Ġprof on
Ġpresen tare
Ġd ar
Ġgaran zia
sti tui
Ġedi fici
Ġfis sa
Ġpron to
Ġmemb ri
Ġre spi
na li
... ]
to la
Ġimp rendi
meri ca
Ġmangia re
d or
Ġdu ra
Ġscoper ta
Ġn omi
Ġt v
Ġprog ettazione
mo ri
Ġpar che
Ġar te
Ġmedi cina
ten a
gra fica
Ġalc una
Ġv ene
Ġri tor
. [
inter a
osi zione
ĠSu d
Ġarti gi
e conomia
Ġfa ccio
o fferta
le sc
cia ta
Ġman canza
Ġchia mato
Ġprincip io
i mento
Ġdisposi tivo
n ia
ĠD ani
Ġmanu tenzione
M I
ĠP orno
Ġtra tti
Ġba tta
E C
v iamo
Ġdo ver
lan ti
os ci
Ġatto rno
Ġsfi da
Ġconti ene
Ġindi ri
7 5
r vi
Ġvi vo
3 5
Ġai utare
Ġdis tru
ggia ta
Ġgioca tori
Ġri sa
Ġpoli zia
Ġfenom eno
Ġri mb
Ġincontra re
Ġpersona ggio
Ġmar chio
Ġcli ma
i tato
Ġp ul
Ġgu ard
Ã ¡
Ġcor te
Ġinseri re
g ene
Ġimp edi
Ġw ith
Ġcon i
un t
Ġfotogra fia
Ġspi ri
a ssociazione
or mi
Ġta glia
Ġacqu ista
Ġconsidera zione
s tre
en tali
sis tenti
Ġqual unque
Ġsen tenza
Ġper tanto
Ġperm esso
Ġrispon dere
Ġf le
ĠG eno
ĠCa mp
Ġ5 00
Ġviol enza
Ġp ena
in t
Ġo biettivo
Ġsu ppor
Ġcos ta
roi d
Ġamp ia
d etta
Ġco sid
ĠCa mera
Ġu mi
Ġcan ale
mp ia
ĠM useo
ĠFonda zione
Ġv ini
ĠB r
Ġrila scia
a ff
f r
Ġs orta
in forma
si va
Ġdisponi bilitÃł
Ġcambia mento
Ġaffer ma
Ġai uto
Ġcar riera
Ġa zione
Ġprepa razione
Ġex tra
P A
Ġmaggio ranza
Ġdefini zione
Ġcontinu are
Ġindipen dente
F a
on g
ĠC ina
Ġta volo
ĠLe ggi
C o
Ġsa pe
Ġvisi tare
. )
B I
Ġcor rente
Ġsor ri
. âĢĿ
Ġto ur
Ġven ne
Ġrecu pero
Ġtor n
Ġambi entale
Ġdichia rato
T i
ĠF u
ĠSp ort
Ġinteress anti
si le
ĠFo to
Ġcolle zione
inizia tiva
Ġdi datti
ĠProvin cia
an alisi
Ġl um
as sa
ĠCom p
Ġimmedia tamente
Ġc ena
Ġsu fficiente
Ġse qu
Ġristo rante
Ġau men
ti amo
tali tÃł
ĠK a
quisi ti
Ġd et
ĠG ri
Ġc lini
co in
Ġri cco
era ta
eri re
il l
Ġcaff Ã¨
Ġ *
Ġ ðŁ
Ġtra ffico
ss ero
Ġguar dare
zza te
ĠT V
Ġconsu mo
Ġcond anna
ero p
Ġcir con
Ġcompa gni
Ġguar da
ĠItali ana
Ġn etwork
Ġpar lato
Ġgra ve
gui re
Ġ200 6
Ġdesider io
Ġla tte
Ġpro spetti
ona ta
mb ia
Ġester no
ĠSpa gna
Ġin dos
Ġris erva
ossi bile
ĠP ie
Ġat tuale
Ġat tualmente
lo ad
Ġb ordo
ĠA uto
Ġba ssa
um ere
Ġconsi der
Ġs ino
Ġric ord
Ġraccon to
Ġconsidera to
Ġepi so
Ġe mail
ĠS h
ĠB anca
as se
Ġassocia zioni
Ġri entra
Ġs telle
ed ono
Ġcri tica
Ġin e
lib rio
Ġla va
Ġsca la
Ġcapa ce
Ġc ru
Ġper se
mon te
Ġistitu zioni
b ella
Ġacc etta
Ġfur ono
Ġacce dere
Ġdena ro
E D
Ġdetta glio
tti vitÃł
Ġsta r
ĠO ltre
Ġdis tur
Ġfon di
Ġlimi te
Ġs chia
Ġs fo
Ġo cca
Ġcos ci
p arti
ee k
Ġper man
ĠGi an
acc esso
es erci
Ġri duzione
Ġpubbli cazione
Ġinten de
Ġfru tto
Ġpreo ccupa
Ġotten uto
ro m
Ġca lo
Ġmo tiva
Ġma il
Ġca mp
Ġcal da
Ġricor dare
Ġperfetta mente
pi to
Ġva canze
ap os
glia mento
Ġscar pe
Ġir ri
e zione
Ġ Ã
Ġfon te
Ġaggiun ge
Ġchilo metri
b in
u d
Ġcom un
Ġgenera zione
Ġpoli tici
ĠCli ente
b us
ĠM A
Ġrip ren
Z A
ĠC ultura
Ġris cal
um u
Ġaffi da
Ġele mento
k ing
ĠM usi
for man
Ġven to
ĠCon tinua
inis ce
cri zione
Ġlascia to
Ġdel e
Ġl unedÃ¬
Ġtranqu il
w er
ta menti
al ti
fica ta
Ġmoni to
Ġsp os
Ġu scita
ĠPa ri
Ġop ini
Ġcollabo ra
Ġmusica le
Ġmalatti e
Ġgiusti zia
si gn
Ġri t
Ġprev isti
is ci
ĠG ruppo
con tra
b ini
ĠB en
ĠE r
Ġfor no
Ġbu ono
Ġop zioni
ĠCa mpi
d al
ĠA bbiamo
inter vento
Ġspa gno
Ġsare bbero
M O
Ġ âĢĻ
Ġdo ppio
Ġbus iness
Ġcer ta
Ġarri vato
Ġsti amo
Ġvoglia mo
in ti
ĠS pi
Ġpre se
der lo
Ġimma gine
p rio
Ġper cen
Ġde cen
s Ã¬
Ġp ranzo
ĠA ma
Ġoffer ta
c li
Ġrela tivo
Ġapplica zione
app ro
Ġcondivi dere
T U
Ġimp osta
g ando
es tero
Ġre a
olo gia
tion al
T ER
ĠS olo
L O
ĠServi zio
---- ----
Ġsignifica to
Ġdiscu ssione
e me
Ġdi ba
Ġb rand
Ġindi cato
ĠQu esti
Ġsoli da
Ġprofessi onali
Ġtess uto
ar li
bb ene
Ġfondamen tali
Ġogn uno
ĠO ri
Ġban che
c es
Ġa ge
gi onale
Ġin du
ĠS ul
fica ti
Ġcre ma
Ġlega le
d ra
f ri
r ini
Ġm inistro
Ġconos ce
Â Ń
ri ma
Ġ20 00
201 8
Ġvic enda
Ġdi co
Ġavvi ene
Ġrifi uti
Ġm ura
4 8
o re
Ġg enti
ĠGran de
O ggi
Ġp lu
Ġpro posito
tti me
Ġfi glia
Ġro sa
Ġfar Ãł
Ġmedi e
Ġdistrib uzione
Ġin telli
Ġconf li
Uni one
Ġgiudi zio
ggia mento
Ġag ri
t Ã¹
w e
Ġvorre i
Ġantici pa
ĠMa rio
Ġcoper tura
E n
Ġv etro
ĠZ a
on ti
Ġe gli
ar ono
Ġfon ti
Ġlun ghezza
Ġmeravi gli
v es
ll er
ĠSoci etÃł
b or
b ano
j a
te vi
ĠT ren
ĠSte fano
D al
ĠS iamo
pp on
AN O
re m
Ġpro mos
Ġsp alle
Ġne anche
h n
zz era
inter o
ĠTu ttavia
Ġapplica zioni
Ġlingua ggio
Ġrisol vere
di co
Ġinter ni
ĠCi r
Ġs cia
Ġcom mento
Ġcol tiva
Ġprog ressi
Ġpopo lare
Ġsper anza
Ġa ria
Ġmi ra
Ġtro vi
Ġconfer mare
Ġa ggi
Ġcir co
Ġusci re
o tti
to p
mos fera
Ġpo trai
cor d
Ġdol lari
Ġemo zioni
Ġfeli ce
ĠV alle
Ġco si
Ġapri re
c tor
Ġm etro
Ġra dica
Ġraggiun to
Ġdovre bbero
forman ce
Ġnecessa ri
t tu
Ġco ppie
Ġcolle ga
vo cato
era li
Ġlegg er
Ġsotto scri
Ġdisposi tivi
li co
vo ca
Ġpi ante
Ġestre mamente
Ġloca litÃł
Ġposi ziona
Ġinvesti menti
Ġs guardo
en ce
Ġpro ve
ĠNo ve
Ġ3 6
Ġpor to
ĠFi li
g os
Ġi rre
ĠUni versitÃł
m es
Ġis tru
Ġfisi co
ĠY ork
li zia
ĠLa voro
ĠRo berto
Ġgi un
M EN
ĠMa tte
Ġcompren dere
d one
ĠA ssi
du te
Ġto p
Ġa vendo
Ġ3 00
Ġcar te
D e
c ona
va tore
che zza
ĠM is
Ġu gu
Ġbi ci
Ġnorma tiva
Ġcele b
Ġa pre
ar co
u ol
Ġman ca
eni co
Ġrip et
I stituto
x i
Ġca ccia
mb olo
ma g
ĠPer s
Ġscher mo
as t
Ġcomp li
Ġchi uso
ĠQu al
Ġstori ca
Ġlegis la
Ġc usto
Ġrichi e
Ġsvol ta
Ġcompi to
ona mento
Ġprop or
Ġve ge
Ġ19 5
Ġcen tina
Ġca mbi
Ġcondi ziona
Ġprev ista
Gra zie
Ġabi tanti
Ġs cio
us tria
Ġrip orta
ĠWin dows
Ġ ere
Ġri ba
gno ra
Ġre tro
Ġ[ ...]
a de
Ġ ;
Ġsp osta
Ġacc er
pp iamo
Ġfunziona litÃł
on ia
Ġpro to
ten ze
Ġindica zioni
Ġpercor si
D O
Ġri forma
Ġcom menti
app licazione
Ġcommer cio
Ġdisc orso
S S
Ġri fer
Ġpro vato
Ġta glio
Ġtele visi
Ġabbi ano
sse gna
ma te
Ġna ta
ĠM or
Ġdra mma
w it
ena to
Ġcer tamente
Ġposs esso
Ġmerca ti
Ġqu arto
Ġrealizza ta
Ġracc om
Ġco pia
Ġindi etro
Ġdom in
Ġingre dienti
Ġa sciu
ti a
Ġan alizza
go ri
ing resso
Ġric er
Ġrecu pera
cole dÃ¬
L i
Ġse mb
Ġsta zione
Ġid ro
Ġc anti
indi rizzo
ĠGo verno
% ,
Ġma tura
Ġpubbli che
Ġsca mbio
Ġra gioni
Ġsuper iori
ĠPa dova
Ġgratui ta
Ġdiffer enti
mble a
ĠN ero
de va
ĠB ol
st ina
Ġpe zzo
Ġesi stono
Ġset tori
Ġe m
un no
Ġsi mpa
Ġso tti
Ġcer co
Ġaggiun to
Ġocc orre
n ella
Ġgra du
res cia
ĠCo dice
Ġcatego rie
Ġcresc ere
Ġm ana
Ġo per
is mi
or ld
uo va
Ġgia llo
Ġp ane
impre sa
tti vi
ĠEmi lia
Ġri tar
Ġmeto di
Ġquotidi ana
c enze
Ġb on
ho p
ĠMe dia
Ġreli gi
Ġpa ga
Ġco ttura
Ġposi tivo
Ġpartecipa to
Ġa ere
Ġse gue
Ġdise gno
Ġalcoli smo
ĠGeno va
Ġca pp
zio si
Ġpubbli citÃł
Ġscon fi
ĠF il
te dÃ¬
Ġvi va
ĠIn fatti
h one
Ġvi gi
pre ssione
a tte
d el
Ġess er
Ġatti vo
Ġs lo
Ġre si
Ġriconosci mento
Ġsche da
y s
Ġal lu
Ġmoder na
Ġal tezza
Ġvia ggi
enda rio
Ġz ero
Ġmecc an
Ġreg ista
c el
o lio
u gia
na to
bb a
ĠV I
Ġaltri menti
In ter
Ġnatura lmente
Ġsquad re
Ġacqu e
ĠLui gi
S o
mo zione
Ġan ch
ter ie
Ġpi ane
ĠM u
ĠIn forma
Ġnas con
wn load
Ì Ģ
ta bile
zi almente
Ġsi len
po le
ĠCa p
Ġdol ci
ar tamento
ell ino
N I
ĠMa ggio
Ġambi enti
Ġmessa ggi
Ġmecc ani
Ð ¾
ĠNo i
Ġmini ma
Ġindustri ale
Ġin qu
ĠI L
ĠRa i
Ġvos tre
le ggio
Ġle gi
Ġau dio
Ġelettroni ca
ĠE sp
in sta
ĠS ch
Ġb y
Ġpi lo
Ġpi anta
Ġ200 5
Ġcia lis
Ġassi eme
Ġhtt p
ĠTos cana
tan ia
Ġcomp osta
Ġdeci samente
Ġstan za
Ġconosci uto
ere bbe
Ġne o
ĠPar co
Ġaper tura
en tro
tti to
Ġfa scia
ĠCon f
Ġzucch ero
Ġin va
ter anno
ĠB al
Ġimp er
Ġada tto
Ġriman ere
1 00
le y
Ġcon ven
de gna
Ġriso lu
Ġmacch ine
Ġtrov iamo
Ġre fer
Ġmo tori
Ġcu rio
Ġsosten ere
Ġdeli b
Ġintro du
Ġca lore
ĠL ond
ĠG ol
Ġu ffici
Ġaff as
Ġ15 0
ina mento
ĠMa ri
Ġinforma zione
Ġtradi zionali
Ġveni re
b lo
re d
al ta
Ġde p
Ġatti va
Ġfatto ri
Ġfru tta
Ġpazi ente
3 8
Ġa bili
Ġso cio
âĢ¦ .
a ch
Ġf eri
Ġfos sero
Ġacc ordo
Ġtras missione
Ġb ere
Ġele zioni
min io
ĠA li
Ġat le
pre se
Ġfre ddo
Ġrego lamento
Ġimpa rare
vid anza
0 6
t oni
or si
ĠLa zio
Ġchi rur
Ġprof u
Ġ !
ĠP orto
Ġcontin uo
Ġcomporta mento
ĠM os
P S
Ġs tri
Ġpa sti
Ġmoder no
Ġpre venzione
pe dale
ĠSi to
ĠSi gnore
c erca
so le
ge gn
Ġsal va
ĠServi zi
ri ere
Ġter rÃł
lizza re
Ġsecon di
Ġam mi
Ġfal li
ĠL ombar
Ġsp re
ĠE ra
Ġauto matica
Ġv uol
gu razione
Ġveri ficare
. -
Ġre quisiti
Ġcomin cia
s ono
Ġvol to
Ġacc essi
Ġscri tta
C iao
Ġuffi cio
Ġri chia
Ġfa tica
Ġregi me
E I
Ġfami liari
Ġsuccessi vamente
Ġelettri ca
Ġscari care
A bbiamo
Ġda te
Ġric ca
ĠLo ren
E cco
t ono
ba ck
Ġlega ti
Ġfina litÃł
Ġi P
Ġpes ce
issi ma
Ġeurope i
ĠO li
re mo
Ġstrate gia
Ġalb um
Ġse di
ando si
f rica
ĠP RO
zia to
mpi anto
Ġprev iste
Ġil le
ina ta
Ġve cchia
Ġrichi esto
Ġcontin ui
Ġfa ttura
Ġsugg esti
an s
Ġpre mia
vol mente
Ġve do
Ġden omina
Ġsp on
Ġchia mata
col tura
Ġpotenzi alitÃł
ĠB re
Ġalla r
in dustria
Ġg are
ch ino
Ġpre si
Ġspe dizione
Ġbu oni
D E
Ġre sistenza
ĠPi Ã¹
Ġlabora torio
s che
Ġb er
ĠCon tro
Ġscoper to
Ġfam oso
n el
Ġal ber
Ġrealizza ti
Ġquotidi ano
Pi Ã¹
ĠC osa
ĠP ol
Ġmo vimenti
ĠPi ano
Ġele gante
ĠRego lamento
l tÃł
Ġta sso
Ġmodi fiche
Ġpromuo vere
0 5
Ġo cci
ĠS enza
Ġar mi
gra mma
Ġpotre te
Ġcitta dino
en ergia
ter ra
Ġvo lo
Ġsvol to
Ġmodu lo
Ġsinto mi
Ġg all
ar re
Ġso re
Ġvi so
Ġ3 8
Ġvari etÃł
Ġcellu lare
Ġp elli
ri tÃł
ĠB ro
Ġesa ttamente
Ġconn essione
R a
Ġsi mbolo
Ġfre e
cche tto
an ce
Ġsta va
ĠT ur
tato re
essi oni
Ġga mbe
Ġte des
Ġfi li
Ġsingo li
za re
Ġta gli
Ġcompren de
ce o
ĠT ele
gra fico
mis sa
lab ria
te s
Ġri pe
ĠP arti
Ġacc en
e pi
r ino
ĠC osti
Ġba si
Ġricor so
Ġeconomi ci
tuali tÃł
ĠAlessand ro
P u
g ran
ĠE li
Ġto talmente
Ġter zi
ĠAl le
Ġsos tan
Ġcu cine
Ġtran si
ĠPa pa
ĠHo tel
Ġgra vi
Ġsa per
ĠH e
P I
v iste
Ġ ono
Ġacc anto
Ġ200 4
ĠCit tÃł
Ġdi vi
Ġvi ce
Ġco lazione
uta zione
Ġi talia
ĠU no
Ġarri vo
d om
Ġk g
Ġcin ese
Ġpratica mente
Ġiscri tti
Ġimm er
Ġmino ri
Ġsilen zio
ĠC lub
ĠS inda
ĠP d
Ġsembra no
Ġvanta ggi
Ġca ss
Ġstraordina ria
Ġcon soli
Ġdo ppia
Ġta ri
Ġos ta
Ġnecessa rie
U R
s omma
Ġp ann
gan ismo
3 6
B a
ver s
te d
Ġper formance
ĠC in
ĠC ia
Ġinf o
Ġorigina li
4 9
Ġsc ene
Ġautori tÃł
Ġre ti
% )
Ġdiven tato
Ġori enta
e gno
Ð µ
Ġfor um
Ġester ni
Ġinsegn anti
c oni
Ġcorre tto
Ġprocedu re
do ri
Ġb and
Ġsvol ge
r le
u do
Ġsin c
Ġfis cale
Ġdichia razione
Ġge mella
Ġedu ca
S iamo
Ġa cciaio
in ten
ĠC OM
Ġte la
Ġglob ale
logi ci
Ġali mentare
aper tura
Ġcol po
ĠCa po
Ġgen erico
4 6
Ġin ven
bi ta
P O
Ġsi mbo
Ġgra vidanza
Ġchi unque
Ġaff in
Ġer rori
Ġgo verna
ĠGra tis
Ġd ri
Ġd ando
Ġm essi
Ġfun go
!! !!
ĠGior gio
w i
Ġs omma
Ġan golo
Ġsos tanza
Ġgiorna te
versa rio
Ġmonta gna
c elli
Ġfi d
Ġgra fica
nova zione
c anti
ĠC H
Ġcontro llare
Ġdigi tali
Ġfi ume
Ġris chia
Ġge o
Ġinteressa ti
l ui
om b
ga mo
Ġsa ppiamo
ĠPu bbli
bini eri
Ġp onte
Ġes ten
Ġeserci zio
Ġsvilupp are
Ġconsapevole zza
a bb
Ġp alla
ru s
Ġat tua
Ġcan ali
Ġos sia
ĠApp le
s ante
Ġc lub
Ġri me
Ġgio vedÃ¬
Ġazienda le
Ġta vola
Ġindi sp
Ġcons enso
Ġprodu rre
Ġposi zioni
Ġca tto
ĠA N
Ġ200 3
Ġperm ettono
Ġ y
Ġo ut
Ġter mina
tal y
ĠF ra
Ġdo tato
Ġco raggio
sc oni
Ġven ga
Ġin de
Ġcri teri
Ġvin cere
Ġet c
on tana
Ġri vesti
ĠC es
ĠB el
Ġsos tanze
Ġfami liare
arti sta
Ġpra tiche
Ġvisita tori
0 7
Ġre centi
Ġelet tro
Ġde c
ĠU S
Ġcan e
ĠNa tura
Ġdiff usione
Ġcompet enza
Ġinter ro
Ġpor tale
O ra
Ġfi anco
Ġgio ia
Ġturi smo
ĠP C
ĠD ella
Ġdis se
c uni
Ġo pp
Ġpi etra
ĠD ia
Ġmedi ci
Ġsoddis fare
Ġscri ttura
Ġid one
Ġpuli zia
Ġi per
Ġsupera re
ĠN ess
Ġten uta
Ġrapi damente
Ġbat teria
' ,
et terÃł
Ġdisp one
Ġconclu sione
ĠM in
Ġgio i
col lo
Ġsti li
Ġscom par
arri vo
eff etto
Ġri a
ĠS cri
ĠBa ri
m etro
Ġan da
Ġstori ci
Ġconta tta
ar chi
oni mo
ĠG ar
Ġvin to
Ġbatta glia
Ġin au
men tali
Ġfa si
Ġfa sci
ĠLe gge
Ġannun ciato
Ġsenti to
Ġacco l
Ġeserci zi
din anza
ĠEurope a
Ġnar ra
0 1
4 7
Ġin si
gg er
Ġso cc
ĠCi Ã²
Ġesc ort
ĠDu e
Ġdi cono
Ġimp ossibile
Ġconc erto
Ġcompre so
ci di
ĠS anto
Ġpre disp
era ti
cu r
Ġapp li
Ġfir ma
Ġinflu enza
ar mi
Ġgra di
inter esse
Ġraccon tare
Ġavvi cina
p t
Ġc ani
Ġpersona litÃł
Ġbu one
Ġevi den
Ġaffi tto
Ġdia logo
ce si
Ġaltre ttan
Ġregi oni
Ġrappresenta no
p x
Ġ <
Ġimp rov
Se condo
Ġalterna tiva
t trice
er no
Ġvi ttime
Ġinter ven
Ġsen sazione
Ġdeci dere
asp etto
N a
li smo
Ġpar ere
Ġclassi ca
Ġresponsa bili
Ġbra ccia
Ġriusci re
3 2
l ing
Ġma gistra
Ġdetermina to
Ġdi am
Ġan dato
Ġcontrib uti
Ġlaure a
si as
Ġw eek
Ġval utare
ĠTri b
di zioni
ĠN ell
Ġcorre tta
ĠCla u
blio teca
Ġricer che
Ġe vol
Ġno v
Ġta sto
Ġecc essi
OL O
Ġs anno
Ġan data
gi u
Ġcol pa
Ġ3 2
Ġgioca tore
Ġconsegu enze
ĠW il
Ġau ten
Ġnuova mente
Ġcentina ia
Â ´
ĠC erca
io ren
zia mo
Ġve cchi
Ġrin nova
Ġpron ti
Ġeffettua to
Ġrispar mia
Ġcosci enza
Ġfa tte
Ġes terna
Ġau gu
erop orto
in segna
ve gno
cia lmente
Ġdisposi zioni
Ġo ccup
bi ti
Ġbi r
usci ta
si mi
Ġf la
ĠF la
Ġspie gato
impor tanza
Ġte d
ĠE S
trimon iale
ĠItali ano
Ġquarti ere
ĠAnd roid
a mministrazione
j e
n ess
ter ali
Ġne ws
Ġpor ti
Ġen tu
Ġbian ca
ĠRu ssia
ĠMatte o
g anti
Ġsta i
Ġav ver
Ġfi gure
Ġparti te
Ġlega to
Ġriusci to
ttan do
ĠSar degna
C C
ta rsi
ĠS iste
na re
Ġpri vacy
lari tÃł
Ġins omma
Ġappassi onati
E M
Ġavre bbero
e ziona
Â ®
Ġtratta re
cci ano
Ġvole te
Ġmino re
Ġpri vata
Ġdimostra to
Ġfaccia mo
Ġsho w
Ġcamm ino
en s
Ġric ette
ĠCa mi
Ġrispon de
ar chite
cu rsi
Ġsa cco
bo le
logi che
Ġren dono
Ġgaran tis
Ġtenta tivo
Ġrichie dere
Ġg ene
Ġpar lando
Ġapp o
ĠPar lamento
Ġdefini re
Ġprepa ra
0 8
a ve
Ġver du
Ġted esco
v viamente
Ġp ista
anti ca
Ġrifle ssione
Ġpoe sia
pposi zione
0 3
g eno
Ġmo le
Ġsa cri
Ġameri cano
Ġb ur
Ġse coli
Ġtera pia
Ġle s
ĠLe i
Ġcu cchia
Ġspeci fici
Ġgratui tamente
Ġla go
t ele
ĠB ru
lu sconi
ĠDi ri
Ġnavi gazione
Ġc eri
mo si
Ġpos teriore
Ġimpor tanza
re sta
at tuale
Ġuni versi
Ġulti ma
Ġtar di
Ġdan ne
Ġsu pp
ĠS tre
ĠT ru
ĠB on
ĠB os
ur troppo
ĠPro g
ĠSo le
Ġinizi ale
Ġeletto rale
c ell
Ġm ul
tori tÃł
V O
ã ģ
Ġa ccon
Ġul teriore
Ġeli minare
ca ri
Ġ3 7
Ġgiu dice
Ġviss uto
Ġfin estra
Ġorganizza ta
Ġpiace vole
Ġal co
Ġca use
ĠN or
ĠSan t
Ġgiornali sta
Ġprop osto
ĠMon do
201 7
Ġamministra zione
Ġristo ranti
Ġd in
ar ta
Ġpers ino
ĠVi r
Ġcapi tolo
am ing
Ġproce dere
Ġcompre sa
E A
âĢĻ .
ĠC ine
Ġgra sso
ĠMa ssimo
Ġtito lare
Ġinvia re
e sistenza
po ri
Ġalle sti
der anno
Ġdeci de
Ġado lesc
ĠDu rante
a tta
ĠS ol
ĠE s
ĠIn di
Ġcio cco
I T
ĠP ra
as to
Ġcolle gamento
ĠLond ra
D u
g erÃł
i re
tra le
ĠT ran
Ġtan ta
Ġmin uto
Ġocca sioni
Ġri vista
Ġopera tivo
Ġstre ss
Ġpla stica
Ġdipen de
II I
Ġindisp ensa
Ġapp ren
Ġsos pen
Ġscri ttore
ter n
Ġpi ede
Ġvi gore
Ġdo centi
ess ero
ĠSa la
Ġtipo logia
Ġassolu to
5 00
Ġca ssa
Ġav esse
Ġmar tedÃ¬
Ġchia ri
Ġinf ini
Ġcon ver
Ġfa te
Ġprodu ttori
imp egno
Ġmor ti
ĠFran co
Ġforn isce
ĠPari gi
Ð °
Ġde sid
Ġve d
olo gico
Ġdove va
Ġbene fici
Ġsegna li
Ġargom enti
g eni
ti li
Ġin na
ĠN u
Ġco opera
Ġpsi co
Ġsess uale
R oma
e cc
Ġcer te
ĠVer ona
Ã ³
esti one
Ġfar ina
Ġpreci sa
i po
Ġca ro
Ġprincip almente
ĠCas tel
lizza te
Ġbelli ssimo
t tuale
Ġp rio
qu ali
tt ino
ĠPro te
Ġcompa ti
Ġregi onali
Ġdestina zione
Ġintera mente
Ġpis cina
ĠS erie
Ġcambia menti
Ġpro i
Ġid ra
Ġprepa rare
ĠJo hn
4 4
ĠSi cu
M o
Ġconfer enza
va mento
Ġconta tti
Ġindivi d
Ġveni va
Ġarri cchi
Ġmor to
ger si
Ġtranqu illa
Ġfrat ello
ĠLoren zo
a si
i denti
ĠM il
Ġsensi bili
ĠP res
Ġcer cano
ĠMich ele
Ġs ente
Ġan ali
Ġsta ff
Ġu tente
Ġba s
tte mpo
ĠCom itato
Ġdisa bili
do tte
ni ce
Ġtra du
Ġti f
versa le
Ġbelli ssima
Ġpercen tuale
ie go
ĠLombar dia
8 8
G I
f u
p on
u fficio
ul t
Ġamici zia
IC A
Ġconqu is
ci c
tica mente
Ġstu dente
Ġbo x
Ġno tare
ĠU SA
Ġacc umu
Ġgu ari
ĠDe sign
Ġstrani eri
Ġsor pren
Ġfini to
Ġlettera tura
Ġstrate gie
Ġri tra
erca to
ON E
Ġraff or
ble t
lie vi
r ui
Ġva cc
Ġfavo ri
Ġconi u
m y
ĠM are
ĠL un
Ġpa s
Ġsa pore
Ġosser va
__ __
Ġscola stico
o bbli
Ġan cor
ĠR enzi
Ġba ssi
Ġapp ari
glia ta
Ġfra ttempo
Ġinizia tiva
A lla
M ol
Ġf um
tto r
Ġ3 3
Ġappro ccio
Ġpare ti
Ġdet en
Ġla ti
Ġle zioni
ĠR osa
sta zione
Ġli ve
st ino
gre sso
201 5
ĠX X
Ġfle ssi
c ello
Ġt on
Ġpa to
ĠNi cola
Ġtur no
Ġpio ggia
Ġpaesa ggio
. Â«
d s
o la
x x
al li
ĠB ea
ĠN ei
ĠYo u
Ġgenera li
ĠS U
Ġmili tari
i mpianto
ci li
uti le
Ġrisolu zione
N ell
Ġp one
Ġa cu
en tato
Ġm uni
Ġm esco
do re
gli ano
ne o
Ġrin un
ĠEn tra
m esse
Ġvi vono
dia li
Ġpun te
Ġfarma cia
Ġsugg eri
ĠVene to
Ġformu la
v enza
Ġc lo
re na
Ġdi segna
ma le
Ġri presa
ĠS y
Ġcomp ra
Ġcar b
cchi ere
unta mento
Ġveloce mente
l un
p la
Ġi gno
ve di
issi mi
v ini
ĠS P
ĠAr t
Ġdefini to
Ġappunta menti
N e
ĠS toria
Ġser ver
Ġen orme
Ġsco pri
Ġcir c
Ġprodu ce
Ġtrasforma zione
Ġnote vole
0 4
al b
Ġsu ddi
ĠCa ra
Ġsca rica
Ġeconomi che
T he
d entale
ĠCa labria
pri ma
T a
Ġchia ramente
Ġutilizza ta
Ġsegna le
Ġriconos cere
Ġdiba ttito
Ġse gni
Ġperio di
Ġmigliora mento
Ġface va
Ġde posi
Ġpro sta
ĠD A
Ġtro vere
r t
u la
Ġcom fort
vi to
Ġes se
Ġvia ggia
Ġsola mente
Ġrispar mio
Ġp Ã²
ca mera
Ġdo ccia
Ġgra ssi
Ġten de
Ġcontra tti
guar dia
Ġimpa tto
Ġpiane ta
Ġe state
ĠC O
Ġle ttore
ĠA s
Ġser ia
Ġau menta
teria le
u x
ĠAr ti
Ġorganizza re
Ġfavo rire
n y
ĠCom unale
Ġpia ci
Ġcomuni care
Ġtre no
tolo gia
Ġteo ria
Ġsolida rietÃł
a bi
Ġg on
Ġma te
ĠFor se
Ġtro vo
Ġcrea tivitÃł
Ġconsidera re
Ġrega lo
ĠP orta
ĠD es
Ġdiverti mento
p isce
Ġti ro
Ġcre de
ĠMi lan
Ġtratta ti
Ġlin gue
Ġprovin ciale
Ġasse gna
Ġri gi
ĠP rin
ĠB it
gi orno
Ġciasc uno
ci r
ga zz
Ġte si
Ġpun tata
Ġcal endario
Ġsegu endo
V o
ĠP A
Ġyo u
ĠInterna zionale
o pport
t le
le tto
Ġpo tente
Ġdiver tente
Ġorganizza zione
P rima
Ġs ar
Ġa zzur
Ġso gni
tan ea
ru zione
ĠH i
Ġparche ggio
sc ino
Ġmis sione
Ġsopra vvi
Ġpensi eri
Ġpanora ma
ing ere
Ġbe v
Ġdip lo
G io
Ġd ona
Ġchi ed
Ġ4 00
ĠRe gionale
Ġagg re
Ġfrat elli
Ġraccom anda
S al
b el
Ġcon veni
Ġne ve
Ġanti chi
en nale
so ri
uo go
Ġpa lazzo
uto re
ĠMi cro
pre so
Ġcapi tali
Ġvisi te
Ġoff rono
Ġlegger mente
A ll
g ar
Ġse mina
me a
Ġ201 9
isti ci
B u
uo vo
Ġascol tare
k s
Ġa ra
Ġcre sci
Ġpassa ti
Ġdocu mentazione
es tri
vi sioni
Ġse xy
Ġre sa
gno si
Ġmili tare
com mer
Ġbo tti
ĠTu tte
Ġcanz one
3 1
3 7
Ġd er
Ġn er
Ġin cu
Ġcre dere
Ġconos cenze
Ġrie mpi
Ġlum in
Ġess enziale
cca ta
ĠNuo va
Ġgarantis ce
Ġra ssegna
Ġprof ondo
ĠPre mio
Ġcostrui to
Ġa ttori
Ġdi ciamo
Ġti ene
ĠÂ °
ĠMar che
201 6
Ġpare te
Ġcostitu isce
Ġvei coli
' .
= =
Ġs ento
lo w
co lari
us tra
ĠPar ma
Ġsuccessi va
Ġchiu dere
d f
Ġ uova
Ġd enti
er ano
ĠS ho
ĠT orre
Ġpri vile
ĠCom pa
Ġinseri to
Ġn era
Ġparti ti
ĠVi ta
ha i
ĠCor so
Ġperm ettere
Ġsf u
Ġindividu are
Ġrive la
gli anza
Ġu su
tten te
Ġlasci ando
parti mento
U T
Ġma ri
Ġve diamo
ĠAn na
Ġman uale
Ġasp i
Ġmer coledÃ¬
Ã Ń
Ġle ttori
ĠA ir
Ġmon u
ĠLe on
Ġten sione
cu s
Ġav ranno
Ġfre d
Ġentra mbe
Ġraccol ti
Ġspor tivo
rona ca
3 4
Ġm ettendo
ch erÃł
ĠM ana
Ġdo cente
tten zione
h at
co re
Ġan te
tro duzione
Ġcampi one
b ro
cc ando
Ġscon to
Ġden uncia
Ġidenti tÃł
Ġpass ando
ĠMas sa
0 9
Ġbene fi
p or
ĠF re
Ġdo tt
ho tel
Ġforte mente
O C
ĠU omini
in novazione
ĠA g
Ġdu bbi
Ġban di
tera pia
t tra
ĠD ante
Ġno t
Ġfe ce
Ġcostitui to
Ġrecen sioni
l oni
Ġ200 1
Ġcata logo
v anza
Ġp uo
an sione
ĠM ess
tti mo
ĠU mb
Ġter rori
ĠCa tania
Ġabb ra
Ġambi entali
Ġproprie tario
Ġtess uti
p eri
ĠS I
Ġel en
Ġdedica ti
Ġfrequ enza
Ġage vo
B o
Ġg lu
ci to
gli one
Ġsc orsa
Ġcontro lli
ai uto
Ġinvesti mento
Ġconsul enza
i mm
Ġper ciÃ²
os t
Ġre cord
Ġta ppa
Ġta ppe
Ġcar cere
n u
w ser
Ġcon dotta
Ġva sta
Ġpor tati
Ġgen eri
Ġten denza
Ġdichia ra
Ġdisc re
Ġcon siste
Ġpa la
tru tture
Ġfini re
h er
v est
Ġsa i
Ġacc usa
edi zione
ĠRa dio
Ġmaggior mente
vera i
e qui
Ġal te
Ġri ven
so ft
pa d
Ġvol er
Ġer rore
esco vo
Ġfanta sia
Ġaffin chÃ©
I noltre
n ing
Ġpa sto
ĠCom mer
Ġ4 8
fa ccia
Ġscienti fica
or zio
ĠS ette
Ġ3 9
ge ment
Ġpreci sione
Ġfinanzia ria
c osa
p ria
Ġarri vata
Ġora ri
Ġlega te
Ġprofessi onalitÃł
e ta
e ven
Ġs va
te mpo
ro s
ĠM al
Ġprima vera
Ġro ma
p ra
Ġa di
le tta
Ġin telle
Ġarri vano
Ġcri mina
Ġrima sto
le tti
Ġf estival
ĠI II
teri or
Ġass or
Ġorganizza zioni
Ġsor presa
ĠPu glia
Ġesegui re
Ġinf ras
Tu tti
Ġespri mere
Ġsplendi da
ĠB lack
ĠF ri
Ġben issimo
Ġdiff uso
Ġinteressa to
Ġaggiorna mento
Ġs v
Ġdi gni
Ġacc ura
Ġcurio sitÃł
w ard
le tte
ER A
Ġpes ante
ĠTe cni
gom ento
dos so
Ġconsenti re
Ġdimenti care
Ġacc ettare
Ġacqu isti
0 2
âĢ ¢
zz ante
ĠU l
Ġvelo ci
ĠBer lusconi
Ġenerge tica
ĠMen tre
6 6
Ġricor di
201 3
ĠGen erale
c omo
tta ta
ĠU r
Ġpen sione
Ġrego lare
Ġcine mato
aren te
Du rante
m essa
el enco
tu dini
Ġre ca
du cazione
Ġg es
ĠS ha
Ġle ttere
ĠA R
Ġfa mosi
Ġlo gica
esa me
Ġcomuni cato
Ġappar tamenti
le x
mbi ente
Ġmodi ficare
zi osa
Ġg hia
Ġca zzo
cca ti
ĠCon tra
Ġprote ine
Ġgro sso
a cco
ci do
ĠC rea
Ġad er
for te
Ġ3 4
Ġmol ta
cca de
Ġbu io
Ġquad ri
Ġcond omin
5 5
at mosfera
Ġcontra sto
Ġcambia to
Ġcaratter istica
in na
Ġo ve
is sione
ĠP onte
Ġh ard
ne a
Ġqua lora
Ġimpre sa
ĠVal en
Ġdi tta
un ni
di s
Ġsta dio
Ġlo ok
ĠU sa
Ġstu pi
enso re
qu o
Ġse duta
ĠA S
Ġven dere
Ġsal vare
tici tÃł
Ġj a
wit ter
v ino
Ġa sc
ĠMa c
Ġsco pa
Ġel enco
ell ini
Ġsvol gere
Ġsce gli
Ġindustri ali
Ġprovve dimento
le t
Ġco er
ziona rio
Ġver tica
Ġsca denza
Ġarri vati
Ġregistra to
eserci zio
O ltre
er ta
ci pe
Ġipo tesi
ã ĥ
Ġs h
lan da
w ord
a tto
Ġb is
Ġfi la
ĠAn ti
Ġcolle ghi
Ġsci enza
Ġriscal damento
Ġp ene
ta s
Ġde bole
Ġsal vo
Ġrapi do
ang elo
Ġsviluppa to
Ġese mpi
Ġprogramma zione
Ġforni to
Ġreddi to
Ġcirco lazione
b an
z on
li amo
Ġsc orre
Ġsin te
Ġsin tesi
ent ono
] .
Ġin cor
Ġre stitui
glia ri
ĠRi cerca
Ġon da
Ġali menti
a do
Ð ¸
Ġa miche
gi ano
ĠMa uri
Ġtrova te
S E
n io
mo ra
Ġlun ghi
ber g
Ġriusci ta
Ġcompon ente
Ġt el
Ġco i
Ġstre aming
Ġfiloso fia
p li
ia li
Ġan tico
Ġan tica
tto rio
Ġra gi
B A
f ono
Ñ Ĥ
ar s
Ġsu ono
mo to
Ġma ture
Ġtu tt
Ġinter o
gra m
ggia te
Ġbra ni
Ġmemb ro
Ġper de
ĠA ni
ve cchia
Ġori zz
Ġsosti tu
Ġap r
m almente
Ġa ro
et tando
Ġsetti man
Ġali mentari
Ġsuccessi vi
Ġeven tualmente
m inistra
ĠâĢ Ŀ
Ġli mone
Ġblo cco
C os
i tali
p ort
Ġesp on
informa zione
ĠA merica
Ġmo bilitÃł
Ġcos tu
Ġcal colo
app artamento
Ġvic in
Ġden un
Ġesa me
Ġfrequ enta
ten e
Ġu p
Ġpos se
Ġpes ca
Ġscienti fico
Ġdise gni
ĠS in
Ġmi x
as h
Ġcerca to
Ġlin gu
Ġmusica li
Ġprofon ditÃł
go ro
Ġta sti
ĠDi partimento
Ġconc essione
Ġavre i
Ġinda gini
Ġconqu ista
Ġaffas cin
9 8
b is
ar le
Ġre gis
Ġprop orre
Ġtrasferi mento
Ġattre zza
ĠPie monte
j i
ĠB us
cc ante
ĠH ome
Ġ7 5
ppon ese
ĠRe gno
Ġatti vi
Ġtras fer
Ġvuo to
la s
ĠI ni
ĠT ale
Ġlavo rato
Ġopera zione
Ġcapa ci
esp on
Ġdemocra zia
Ġconfli tto
H ome
x t
Ġdi ci
Ġb ando
mb ro
alizza zione
Ġsoddisfa zione
Ġb orsa
Ġvo ti
ĠOn line
Ġconserva zione
Ġdesid eri
R is
cche tti
par to
O T
h tt
ina le
Ġ6 5
Ġdichia razioni
ĠMas ter
t uni
Ġes or
ĠAl berto
ĠPi er
Ġfina li
Ġmas ch
Ġderi va
Ġcostante mente
Ġar che
esso ri
Ġartigi an
ri c
Ġcon gi
Ġmo rale
ĠMar ina
Ġpotenzi ale
Ġpreferi to
obbli go
t z
Ġd anza
ro la
Ġpo le
Ġag enti
Ġfer ma
Ġsegre to
ĠStu dio
Ġmina ccia
terior mente
e va
Ĩ Ĵ
Ġm g
mo bile
ĠD alla
LI A
ĠQ U
Ġinsta llazione
ZION I
Ġrappresen tanti
opport unitÃł
O gni
m al
al tezza
ĠC osto
chi esta
Ġat tuali
Ġlun ghe
Ġori gini
ccupa zione
ĠFed erico
D is
d get
Ġre azione
Ġtu bo
Ġass enza
Ġrivol to
Ġripor tato
b ru
e to
o li
Ġvi te
âĢĿ :
ĠFa bio
Ġsitua to
Ġconsuma tori
I V
Ġ oma
Ġe co
ĠâĢ Ķ
Ġbra no
e y
e uro
Ġdi cendo
men do
Ġma g
ĠA ss
Ġindi care
Ġfam osa
ĠPD F
Ġfid anza
B i
Ġsta mp
ĠO pera
ĠQu este
Ġdes tino
Ġciocco lato
A v
or tare
ven uto
Ġimp os
cu sa
Ġpers on
Ġven dite
Ġmis teri
Ġcompa gno
Ġprofession ista
Ġstraordina rio
Ġenerge tico
Ġceri monia
p tion
Ġ ran
ta tivo
ĠO tto
Ġ5 5
Ġprodu ttore
Ġscon osci
Ġrivol uzione
Ġistru zioni
tuni ten
G A
t rin
Ġtipo logie
Ġracco gliere
Ġdescri zione
Ġester ne
Ġcellu le
Ġautomatica mente
d ele
Ġcon vi
Ġmi lano
Ġpri vate
Ġcre di
Ġpara metri
o ttima
Ġv ul
Ġan g
de i
ĠB rescia
ghi era
Ġpresenta ta
Ġarti stico
Ġbat tu
ĠiP hone
ĠS tar
ĠS ky
tri co
zia mento
der ci
ĠPa dre
Ġannun cio
Ġbri l
iss Ãł
m arsi
Ġb ina
Ġspesso re
Ġpresta zione
Ġbro wser
c no
g ranti
Ġdi mag
es terno
Ġpresenta no
Ġdiff on
Ġavven uto
Ġann uale
anzi tutto
Ġsel va
ĠS E
Ġver sioni
Ġacc el
Ġfra se
all er
Ġequi librio
don na
ĠRom ano
Ġopini oni
ma tici
Ġpor tano
ĠPa ra
Ġquesti oni
Ġutilizza te
Ġmanifesta zioni
7 7
9 5
Ġre c
Ġedi ficio
Ġand rÃł
Ġagi re
Ġd ormi
Ġdi sta
Ġl enta
Ġar ro
Ġfun zion
Ġag rico
Ġdeter min
Ġarchite tt
Ġa mo
ĠC erto
Ġcons entono
Ġlega ta
Ġlar ga
i mpa
ona te
ĠF ar
Ġgo ver
Ġasp ettare
Ġfinanzia mento
Ġfabb rica
gra do
Ġro ck
Ġflu sso
ĠSvi zzera
Ġsp o
Ġpar ro
Ġmar cia
Ġmar chi
Ġlegg ero
Ġsvol gimento
Ġdefini tiva
Ġrecente mente
Ġstudia re
Ġpro cura
Ġtratta menti
Ġdeci sioni
Ġproblema tiche
ĠSal vatore
Ġespre sso
Ġatta cco
6 5
Ġp on
Ġm uro
Ġsu r
ĠA mici
ĠL an
Ġar ma
ĠSci enze
Ġprospetti va
Ġrit mo
ĠRe ggio
st ron
ĠP la
Ġvi cina
tan e
ĠSe gre
Ġcer vello
Ġdice va
Ġterri tori
Ġresid enti
Ġmaschi le
ĠFil m
F or
s mi
Ġe mi
Ġqu egli
do ro
ĠP an
Ġca ttura
Ġsta tuniten
ĠPa la
Ġrealizza te
Ġval le
Ġfotogra fie
Ġespre ssa
Ġferro via
Ġepiso di
Ġ1 20
ziona to
Ġlu sso
Ġtelef oni
Ġreli gione
Ġse pol
ĠR A
Ġte tto
Ġindica ti
an nun
ar gomento
Ġpre sc
ona rio
Ġbir ra
s tante
ĠP lay
tto li
con da
Ġman dato
Ġrela x
Ġass umere
Ġlan cia
I mp
Ġm useo
Ġall un
ĠRoma gna
Ġdiffer enze
shi p
H a
T e
ĠA ve
gu ono
Ġcolon na
ĠS arÃł
Ġde gu
vi de
Ġvi cen
Ġtra ding
uta ti
Ġfatto re
r do
r eria
en na
Ġca su
ĠI mma
Ġconc erti
Ġgo dere
g ino
Ġg er
Ġsta bile
Ġcomp rom
ĠK i
Ġcomin ciare
Ġtempera ture
m et
Ġde bito
Ġcom posizione
Ġma terie
Ġinter ne
il lu
Ġpron ta
Ġeffetti vamente
Ġero tici
Ġassolu ta
Ġmatt ino
Ġriconosci uto
Ã ĥ
ĠP uoi
Ġconse gui
ori gine
Ġfres co
ĠSco pri
Ġpreno tazione
ĠNove mbre
8 5
tin era
Ġsembra va
Ġchie do
Ġciasc un
ĠVin cen
F F
Ġes ce
tion s
Ġvic ini
Ġvolon taria
Ġcolpi to
ĠTrib unale
A genzia
k in
Ġa mma
ĠW al
Ġfun zionale
Ġese cuzione
Ġtipi ci
a genzia
Ġma estro
Ġacc re
Ġvole vo
Ġameri cana
id th
ar ne
cc ome
Ġpor tando
Ġag en
Ġavvi so
Ġp ru
ĠP isa
Ġfa sti
Ġlib eri
Ġchia ra
Ġlega me
Ġsingo la
Ġcomporta menti
M S
en z
ta il
Ġin tui
ĠI V
ine a
ĠAl tri
Ġtradi zioni
n ero
Ġma ppa
Ġser vono
Ġtri ste
Ġtipi co
d enzi
Ġsi l
Ġlavo razione
Ġor dini
ĠBer gamo
Ġspor tiva
Ġespre ssione
Ġconfor te
Ġdistur bi
o cchio
p ino
Ġc anto
Ġdi o
Ġe tiche
so gna
Ġre almente
vo ri
ĠIn fine
201 4
Ġcivi li
Ġproba bilitÃł
ĠO p
Ġappro vato
d ella
l on
lo tto
ĠN um
Ġser io
Ġul teriormente
Ġcro ci
R o
Ġin er
or g
Ġcon dotto
ci e
ui ti
ne y
Ġabb ond
ĠW orld
Ġsosti ene
ta va
Ġcon vo
Ġcom missa
Ġmen u
ĠDa ta
Ġconfer mato
Ġpara ssi
Ġrapi da
Ġvali do
ĠGui da
ma co
Ġri ass
Ġcom missione
Ġca duta
Ġdestina to
Ġresid enza
Ġritar do
Ġallu minio
Ġcom ando
Ġfru tti
Ġsegre tario
ĠCla ssi
Ġalb eri
Ġriguard ano
Ġsosteni bile
Ġindiri zzi
4 3
T RA
Ð ½
Ġda ting
Ġta blet
Ġesp osi
Ġsosti tuzione
Ġanzi ani
Ġbigli etto
Ġgener almente
tri ca
ĠN O
Ġne ppure
lan cio
Ġmusi ci
Ġarti stica
Ġpreci so
Ġstabili to
Ġgiudi zia
si bile
as ci
or rere
sa zioni
ch a
Ġse x
Ġci fra
Ġconf ine
Ġcomo do
Ã ¼
Ġri di
osa mente
Ġren dendo
Ġtrasparen za
Ġpreval entemente
S cri
ca bile
ĠF I
ĠN elle
bo x
Ġsal to
Ġsicu ri
Ġconten i
Ġclassi ci
Ġvole va
ĠIn somma
Ġese mp
Ġsottoline a
Ġrecen sione
Ġcanz oni
S ul
g anza
ggi ano
ĠO s
Ġdov uta
ĠGa la
Ġrappresen tare
Ġaffa tto
A u
ĠQu ello
Ġpol vere
ĠGia ppone
Ġcast ello
ĠSinda co
P U
ĠM ani
Ġcandi dati
Ġvei colo
' s
Ġconsidera ta
ke ca
ĠDire ttore
Ġrecupera re
U E
i ci
Ġg esto
tu be
ĠR ossi
tta te
Ġinter venire
Ġve di
Ġmar ca
Ġterri toriale
Ġrim uo
b li
s hop
Ġma tch
fi ciale
Ġso lare
Ġdiven tata
Ġbra ccio
Ġdocu men
Ġov unque
Ġindividu ale
Ġcele bre
Ġassa i
ri sti
Ġsp ero
Ġinc om
Ġlan cio
Ġusa ti
Ġe la
Ġin ver
gra fo
Ġpuli to
Ġinau gu
Ġin edi
Ġri esco
Ġcitta dinanza
T or
re tto
ĠO ne
Ġelettri co
enn io
ĠClau dio
Ġde cine
era i
lan za
Ġaper ti
Ġcondivi sione
Ġlan ciato
Ġsfor zo
Ġentu sias
T ro
a ffi
b ol
w idth
in er
ma tiche
Ġconf ini
Ġpopo lari
Ġfarma co
v ente
Ġsi gnora
ĠN ON
fica te
Ġauto matico
Ġfinanzia ri
Ġcomba ttere
Ġsore lla
c Ã²
Ġe sistenti
etta ti
Ġes cursi
ffici enti
Ġdiffici li
Ġaltrettan to
Ġindispensa bile
re i
in qu
Ġf inisce
Ġma trimoniale
Ġca tena
pp ing
Ġpi ttura
ver anno
Ġcer chi
Ġassi sti
Ġgiorna le
ass essore
ĠAng el
insta llazione
f un
tiva li
ber t
ĠNe ws
Ġdia gnosi
Ġacco unt
Ġvolon tari
Tu tto
s chi
si vi
Ġri pri
colo gia
ĠCi vi
Ġassi s
Ġargom ento
M ar
a mpia
p lici
ĠM inistro
ĠV is
Ġapp re
endo si
ĠCom ple
Ġcorre ttamente
Ġuffi ciali
Ġvilla ggio
u ch
Ġri pi
etta ta
Ġ4 2
Ġmeta llo
Ġde posito
ĠA ri
.. ...
Ġra dici
Ġw ork
Ġsugg er
6 8
la voro
Ġci mi
Ġdisp lay
Ġspetta coli
Ġeven tuale
Ġprose gue
Ġus ando
gi bile
tan ni
gra fiche
esti ci
Ġbi t
pri le
Ġgu sti
ĠJ e
ĠFa mi
Ġfanta stico
Ġvir tuale
4 2
C re
ĠD ra
Ġsta bilitÃł
Ġcri sta
Ġmedi ca
Ġaggiorna to
Ġmetro poli
ĠBit coin
! )
ĠS to
Ġre ce
ĠI taly
ran to
eri to
Ġgi ra
glia te
Ġprof essione
Ġ200 2
Ġconse cu
Ġcitta dina
Ġpubblica ta
Ġinvesti re
gri coltura
Ġspagno lo
6 7
m l
in ca
Ġf rui
Ġco di
ĠH ol
ĠRi cor
ĠGiu lia
Ġschi ena
Ġbigli etti
Ġbon us
espon sa
t elo
zi ano
Ġn etto
ma ge
ĠS tan
Ġro m
ĠBa si
use i
Ġesa mi
r erÃł
en tare
Ġre dazione
Ġpos a
Ġesi bi
Ġm ona
Ġgi unta
Ġfar ci
Ġsap uto
Ġanima le
Ġsto maco
gro und
4 1
on y
si ve
lo gio
Ġcon vegno
Ġco cco
Ġesp erto
Ġcu ri
Ġul tra
Ġcostitu iscono
Ġspecia lmente
er vi
Ġan tiche
ĠIn sta
Ġon de
Ġconta ttare
Ġuffi cialmente
p lo
u b
v ani
y er
Ġeurope e
Ġscor si
Ġsom ministra
Ġsfru ttare
Ġfabb ri
l terra
p lica
Ġs ter
ĠC osta
Ġpre te
Ġlo go
Ġai u
Ġve dre
Ġass ume
201 2
Ġsucce de
ĠMod ena
is e
Ġgi Ã¹
ĠCom o
gn os
edi ficio
Ġeffettua ta
Ġvali da
land ese
Ġripro du
U no
p Ãł
t ell
in fo
Ġno leggio
um anitÃł
Ġat mos
Ġtratta to
gina le
Ġdiven tano
ms ung
Ġine vita
ĠSiste ma
a b
ĠA da
Ġpre gi
Ġso ffi
Ġti ra
Ġfo glie
Ġam anti
Ġistitu ti
assi stenza
Ġcele bra
Ġrep lica
g y
s y
ter raneo
Ġpre li
sta no
ĠH D
Ġdov ere
Ġbre v
Ġgiornali sti
des tra
Ġacquis tato
ĠNuo vo
archite ttura
ti o
zi ali
Ġcon tare
Ġma mme
Ġtra cce
Ġav vol
Ġelet trici
Ġopport uno
Ġaspetta tive
Ġconsenti to
Ġpasse gg
Ġtif osi
D om
e voluzione
Ġvi ttima
con omi
Ġconc er
ON A
ĠSa ra
Ġinten so
Ġesclusi va
ĠBr uno
Ġgenti le
Ġtrovere te
he i
ter ale
Ġpo veri
Ġto cca
Ġrip oso
Ġsicu ra
ĠMe dio
Ġspie gare
Ġproce dimento
Ġries cono
in k
in ci
ri ght
ĠCon ta
Ġlegg era
RI A
Ġru b
Ġconclu so
Ġfeli ci
9 7
I s
z er
Ġ zo
pa citÃł
ese cuzione
Ġele vato
Ġgenera zioni
Ġstre tto
Ġospi ta
cer do
ĠTo ur
Ġturi sti
Ġoro logi
Ġcomun ali
ĠMauri zio
el et
Ġpo ch
ĠG I
Ġch a
Ġcal cia
ĠUn ghie
ĠPi cco
Ġcura re
Ġcoinvol ti
Ġcerti ficato
ĠParti to
Ġsu ssi
ĠM O
po lo
gi re
Ġrisp ettare
Ġpen ale
ed ele
Ġuni ci
Ġinc enti
Ġecon omia
Ġnas c
Ġcandi dato
commer ce
Ġvicen de
w eb
Ġ omo
Ġc el
Ġal unni
Ġcom posi
Ġsuo lo
ĠQu ali
Ġrichi esti
Ġali mentazione
Ġavvi cin
Ġcomplessi vo
Ġdomin io
Ġdi so
lo ro
ĠS or
ĠI de
Ġcu lo
stra da
Ġgia pponese
Ġintegra to
Ġmoder ni
Ġtera pe
Ġcostre tto
Ġatle ti
Ġin gegn
Ġvi de
go li
go glio
Ġ6 00
Ġcin qu
Ġp omo
Ġper che
ina ti
ven tus
ĠSer gio
cin io
ĠEn rico
Ġrispetti vamente
Ġsotti le
Ġsocc orso
p osto
Ġg ino
ĠM c
man u
Ġren der
Ġsenti menti
au mento
ĠRaga zze
Ġmeccan ismo
Ġp uni
di bili
Ġmi lli
inis tri
Ġaffi an
Ġapplica re
IN A
Ġconclu de
Ġcompre si
Ġcampa gne
impor tante
Ġpul sante
y e
ten i
ul to
Ġric chi
ĠSe i
olo gica
Ġ199 9
Ġaccompa gnato
Ġfir mato
Ġbici cle
Ġnot tur
9 6
d ette
Ġcon versa
Ġcon verti
Ġri mar
Ġsti ma
ĠMo re
Ġsba gliato
Ġchiu de
Ġfenom eni
Ġson no
ccade mia
ĠS A
ĠS enato
Ġan dre
ĠI stituto
Ġtra ma
as cia
Ġoffer to
Ġintegra zione
Ġresta re
Ġelettroni co
V E
Ġp ed
Ġm inistero
Ġsc usa
Ġess enziali
Ġpres u
Ġrego larmente
Ġcentra li
Ġrila ss
ĠCamp ania
Ġagen zie
Ġde bu
Ġfa scino
Ġpa cchetto
Ġau t
Ġbre vi
Ġdimostra re
Ġmeta lli
Ġincre dibile
Ġpresti gi
f is
i i
an golo
ena fil
ĠRi mini
Ġpassa ta
Ġand ando
Ġ25 0
Ġmini mi
Ġrivol u
Ġameri cani
Ġnecessaria mente
Ġbur ro
Ġs eri
Ġa to
la m
te cni
Ġm entale
Ġsi mu
da s
Ġba tte
Ġba sato
Ġris contra
Ġpe ccato
Ġraggiun ge
ĠCas tello
Ġfeli citÃł
Ġapprofon dire
Ġde ca
ĠA ff
Per chÃ©
Ġforni ti
Ġsingo le
Ġrappresen tato
Ġciasc una
Ġdiam etro
identi tÃł
M e
p osta
Ġa mb
Ġv isti
Ġle zione
Ġma glia
ĠA T
Ġpar lano
ss on
Ġmi to
fer enza
Ġmolte plici
ĠGu ar
Ġscena rio
Ġpal co
Ñ Ģ
Ġri dotto
Ġris al
mina ti
Ġtor ta
Ġvisi bile
ĠMon diale
ĠPu bblica
Ġtestimoni anza
ra ele
ĠS S
pp are
Ġvi ti
Ġra ll
Ġco re
Ġdis chi
Ġusci to
Ġinvia to
ĠDire zione
aper to
Ġmede simo
d ando
ĠA ttenzione
era tore
Ġpa pa
zz etta
Ġvol umi
tor ni
Ġosser vare
Ġmer ce
Ġnega tivo
Ġcristi ani
Ġscompar sa
c une
Ġc era
Ġri lievo
Ġgra fico
glia mo
Ġpor n
ĠGa bri
Ġiscri zione
Ġconvin to
Ġconcor renza
a g
o ggi
Ġo cchia
Ġb om
Ġca vi
ĠF A
Ġcor nice
Ġele vata
Ġconsi gliere
Ġrappresenta zione
Ġfinanzia rio
Ġinna mo
Ġattrezza ture
li re
Ġde bba
Ġpa renti
ĠU N
ĠBa mb
Ġeffica ci
Ġusa te
wa y
F I
Ġp all
ven tura
Ġro ssa
Ġman cano
ĠAl cuni
ĠSp or
Ġdecen ni
p et
Ġo di
ĠC entra
ĠP RE
ba se
Ġve dono
gn or
ĠGi unta
Po i
Ġcirc uito
mo cra
Ġta sse
ghi lterra
Ġfino ra
Ġbiso gni
Ġcerti ficazione
Ġtal volta
ĠCosti tuzione
Ġp etro
zz ina
Ġto gliere
Ġcar re
ĠMo vimento
Ġqua ran
Ġappro fi
Ġazienda li
ĠCal cio
ĠPoli zia
ĠRos so
Ġimmobili ari
Ġpreventi vo
, .
Ġs ana
re en
da y
Ġmi granti
Ġtras for
Ġimprendi tori
f ero
ĠF ia
du m
Ġco e
Ġto sc
Ġver mi
ccia re
Ġprof essore
Ġgu er
Ġricerca tori
Ġabi ti
Ġrivol ta
Ġdigni tÃł
s al
fi si
ĠT witter
Ġabi tua
Ġsuccessi ve
Ġproprie tari
Ġsensi bilitÃł
Ġrila scio
Ġmonta ggio
ĠðŁ ĺ
s en
Ġlavo rando
Ġese cu
Ġtren d
Ġsess uali
Ġpilo ta
Ġc ere
Ġs bar
ĠA mministrazione
ria mente
Qu al
Ġdipen denza
Ġlabora tori
f ran
Ġpre ssi
Ġaffer mato
ĠSvi lu
en di
Ġi mbo
os tro
ĠA ssociazione
Ġfa coltÃł
ĠE ner
Ġav versa
Ġdiri genti
Ġtren ta
Ġmana ger
u de
Ġe va
P R
T RO
t eli
Ġar ra
enta zione
Ġten endo
Ġinc ro
Ġtema tiche
Ġsegre ti
Ġabbi gliamento
f in
m estre
o ggetto
Ġri al
Ġpar tendo
ĠSal erno
Ġgri gio
Ġnucle o
U O
m ona
ĠG lo
Ġdo wnload
Ġco ra
Ġvo li
ĠLe a
ĠVi ttorio
ĠNon ostante
Ġocci dentale
ipo tesi
L gs
j o
Ġi gi
ĠS ti
pp er
per to
Ġforma re
Ġrip arti
Ġcura to
Ġcomin ciato
Ġcaratteri zzato
Ġvir tÃ¹
Pu bbli
s ura
ĠP si
Ġre ato
Ġrisp osto
Ġsca l
ĠMi glio
Ġfu ga
Ġrela tivamente
ĠX V
ĠPu Ã²
Ġriusci ti
Ġavven tura
Ġlar ghezza
so lo
Ġca mi
Ġu mane
ĠPre zzo
ĠFi gura
Ġtele visione
Ġfer mo
Ġaper te
Ġdiffer enzia
Ġinnova zione
Ġsorri so
Ġrisparmia re
Ġin no
Ġal tamente
Ġespre ssi
c etta
v ina
Ġe bbe
ĠI M
Ġinter vista
Ġto cco
ĠQu est
qui la
ĠAr chi
ĠBi anco
Ġprepa rato
Ġinti to
e m
h anno
Ġs ano
Ġse g
Ġfa cebook
Ġric chezza
tt on
Ġquo te
Ġassocia zione
Ġcaval lo
on di
Ġlegg enda
ĠUni versi
Ġmostra to
Ġdiff usa
Ġrimb orso
Ġrime di
m ino
de si
mb er
Ġcre ando
Ġga tto
Ġcar ro
Ġsti pu
bu sti
zion ista
d ge
si ze
Ġmo rire
Ġli cen
Ġba ck
ziona litÃł
Ġchi tar
Qu indi
ĠDi gi
inter pre
âĢĿ. âĢľ
ĠFor um
Ġatta cchi
Ġspiri tuale
cir ca
a ma
c ane
Ġa mica
es posizione
Ġper altro
Ġess eri
Ġsa bbia
Ġos si
tis mo
Ġsoli tamente
ĠDo ve
Ġstrada le
Ġfisi che
Ġmoder ne
Ġprose gui
Ġassicu rare
Ð¾ Ð
S ER
Ġv or
Ġo ver
ĠC ana
ĠA ra
Ġdu ro
Ġver b
Ġconsu mi
Ġb oni
Ġle vi
ĠR esponsa
ul ta
sso lu
Ġpassa ggi
ĠBa tti
Ġevi denzi
Ġ: )
Ġbian chi
Ġpubblica ti
Ġmodu li
Ġcomunica zioni
R L
T o
z ine
ca mere
vi du
ĠE ss
ĠW a
Ġvio lazione
Ġdetermina zione
U fficio
i ca
Ġp p
Ġpre sid
Ġpre ghiera
ĠB an
ĠE ro
etti amo
Ġsos ta
Ġpara di
ĠSta mpa
Ġd omici
os so
Ġre gia
ĠF esta
Ġdo tata
sti zia
Ġrice ve
Ġcontrib uire
Ġcompet ente
p oni
du e
Ġar moni
Ġsa pori
ĠRa ccon
Ġentra ta
Ġsfi de
Ġimmagina re
Ġperman ente
Ġles bi
G B
t tuali
Ġm l
di tore
ĠA M
ĠF ondo
ck et
Ġpreci pi
Ġcro ce
Ġprose guire
Ġantici po
Ġristruttura zione
ĠChia ra
: .
B B
p to
Ġ ï¿½
Ġca la
Ġpre di
cc ano
Ġme zza
Ġmen Ã¹
Ġbar ca
Ġaccor di
Ġvisualizza re
Ġpromos so
9 2
Ġre stitu
ĠR es
inter vista
Ġaff etti
Ġ8 00
Ġannun cia
app untamento
Ġprece denza
Ġoffer ti
Ġvinci tore
Ġverdu re
ĠMess ina
ĠVincen zo
g elo
er Ã²
Ġma gazz
ĠM el
Ġci bi
Ġsa cerdo
ess uali
tr ing
ĠTe mpo
Ġsupera to
ĠI mpa
ran ei
Ġos pe
tten imento
ĠDa vid
Ġcivi ltÃł
Ġdestina ti
Ġdiv ul
ĠSpi rito
Ġcanti ere
Ġg omma
Ġsu cco
ĠA ggiun
Ġna pole
Ġcan tante
ĠPro prio
Ġcu re
Ġdiri gente
Ġge om
Ġturi stico
Ġproba bile
Ġcandi da
": "
Ġe voluzione
Ġsu bi
Ġ1 000
Ġvi vi
Ġta ssa
Ġopera re
Ġâ ĨĴ
Ġvalori zzazione
Ġom bre
ĠCro ce
Ġimmobili are
ĠGro up
el d
zi are
ĠP en
ch ina
Ġpre zioso
Ġtra duzione
tan t
Ġdov esse
Ġdom es
Ġrifle ttere
Ġriser vato
Ġpropon iamo
Ġmonito raggio
Ġdelib era
Ġprofu mo
di sce
Ġle tti
Ġpro lun
Ġess erci
fica zioni
Ġcor rere
Ġmon te
Ġpubbli care
via re
Ġpote sse
Ġrif u
F A
G u
z ziamo
li ta
Ġne uro
Ġ4 7
Ġaff ari
Ġsvol gerÃł
ĠNe gli
Ġfron ti
Ġcoin ci
Ġriti ene
Ġcompeti zione
ĠMicro soft
u tica
Ġpa pÃł
Ġcri tiche
Ġvin ce
Ar ticolo
Ġsali re
Ġdimag rire
c ultura
d eter
ĠI S
fi cando
Ġaltre sÃ¬
Ġconsegu ente
Ġaggiorna menti
Ġsingle s
Ġbri tanni
ĠJu ventus
Ġusu fr
b s
Ġ zi
Ġc roni
Ġv ere
os pedale
Ġpre visioni
ĠB io
Ġpu ro
Ġco tone
gra fici
ĠCa mpo
Ġcir colare
Ġtanti ssimi
Ġrica rica
Ġriser vata
V er
le tter
ĠA m
bb y
uni ty
cip ro
Ġoff ri
ĠPar te
Ġdetermina re
s et
gg ono
Ġpo ver
lu enza
Ġco da
Ġcer tezza
Ġmar che
Ġsal vati
ĠMon ti
Ġpelli cola
p ina
ti po
Ġdi ta
Ġf inis
Ġapp arente
val lo
Ġcontinu ano
Ġmassa ggio
Ġeccell ente
C ol
lo so
zza zioni
go lare
Ġven uto
ccia to
Ġconc essi
Ġmis tero
Ġraccon tato
Ġfini ta
ĠPri mo
inf anzia
a te
go la
tte zza
ĠAl lora
Ġcan tina
Ġconc etti
Ġfin estre
Ho tel
Ġpoe ta
e zioni
g or
uo re
Ġspe cchio
Ġstra no
Ġricos trui
Ġdisa gio
Ġriuni one
c era
Ñ ģ
Ġri to
ĠPa gina
tr Ã²
ĠCo ppa
Ġracco glie
ĠFerra ri
in troduzione
ĠB ur
Ġchi ese
EN TI
Ġsconfi tta
Ġweek end
L u
ĠC D
Ġca vo
Ġ( âĢľ
ĠF al
Ġsf uma
Ġpron uncia
Ġcontinui tÃł
Ġospe dali
% ),
. :
ĠS AL
ĠM I
Ġes t
Ġener gie
Ġinvi ta
Ġinsta llare
inte grazione
Ġa bilitÃł
ar vi
Ġb ron
Ġba tter
Ġto ssi
ĠRe al
Ġstori che
Ġedi li
Ġforni tori
ossi bilitÃł
Ġacca duto
Ġinclu de
ĠEl ena
Ġp etto
Ġm uta
ĠP elle
Ġma gne
Ġtra mon
ĠPa tri
Ġsce glie
Ġamministra zioni
Ġfres ca
ĠCit y
Ġs tor
Ġe fficienza
ĠCon te
Ġsen o
Ġuni versale
ĠSa msung
orre i
Ġspor tivi
Ġraff red
os ser
Ġsi g
Ġre cipro
Ġsp endere
ali mentazione
Ġall ontana
ana to
ĠRe d
Ġfre tta
Ġposi tiva
Ġpes anti
Ġlega li
fon t
Ġcara binieri
ĠMol to
G G
Ġpro ssime
ter io
Ġma x
Ġpar ziale
ĠF ino
Ġvia ggiare
Ġterre ni
Ġcic li
Ġgall eria
in sieme
za to
ĠM y
Ġre ci
Ġta ssi
Ġman cato
ck er
Ġperm etterÃł
Ġpara g
Ġrima sta
N ei
ã Ĥ
Ġre parto
ĠG RA
Ġcre sce
Ġpor terÃł
Ġdire tti
Ġfra si
Ġ0 5
Ġdif endere
Ġdiscu tere
Ġindivid ui
w ood
Ġt oni
ĠL et
Ġpo poli
ĠF ree
cc essi
cco l
Ġver ti
ĠDa ti
Ġforni tura
entra ta
Ġsani tario
Ġauton omia
Ġmone ta
Ġsospen sione
6 4
A i
a ra
Ġv ani
Ġte so
ĠMa i
Ġcre diti
Ġevi denza
ut unno
ĠTi to
Ġcompren sione
Ġobbli ghi
Ġimprov visa
i mmo
ma s
ga le
Ġve cchie
ĠRe te
Ġora rio
RI S
Ġsan gui
b elli
Ġ $
ĠCom unitÃł
ĠPer ugia
ĠSi mone
ĠCi vile
", "
Ġcresc ente
Ġconfor mitÃł
Ġsottoline are
Ġpiatta forme
ĠMusi ca
ĠS ulla
ĠMa x
Ġsa pi
ĠQu a
Ġpasse ggiata
Ġconsider ando
ar ch
Ġpro ie
ĠP I
Ġdisp osto
gn ando
Ġten er
ĠFa bri
imp osta
Ġmostra re
t he
Ġin sa
is crizione
Ġse zioni
Ġchi usa
Ġpor re
Ġna tali
ura ta
Ġsca mbia
Ġservi re
Ġcal cola
ĠSo tto
car lo
Ġotti ene
tur ba
Ġsani taria
Ġconcre to
Ġclini ca
Ġintelli gente
Ġd ose
ca zioni
Ġri goro
ĠS ce
is se
uo lo
Ġra zzi
Ġta lmente
ĠAl b
Ġstra to
ĠAr ri
Ġamministra tiva
Ġidenti fica
Ġcostitui ta
Ġperson almente
Ġpregi udi
A mministrazione
Ġs anti
in verno
te mi
os pi
ĠP rato
ĠT en
Ġcol pe
sse mblea
gio si
Ġsf ondo
Ġcombina zione
Ġoma ggio
Ġla v
tta ti
Ġad detti
ĠMa donna
Ġta bella
Ġconcre ti
ĠTran s
Ġprio ritÃł
impa tto
; -
b sp
et re
Ġh i
ga s
Ġar bi
Ġman care
ggia ti
ĠK o
Ġarti sta
Ġtrasc orrere
F in
ĠM ona
ĠI stitu
ĠSe mpre
Ġcomple tare
ER E
Ġcap ol
Ġinizi almente
Ġbal cone
Ġsottoline ato
s era
Ġs tella
la tore
li te
Ġn eri
Ġin ta
ĠS anti
Ġide ali
Ġpren dendo
Ġimpe gni
Ġstre ttamente
Ġraccol to
Ġagg ressi
Ġhtt ps
Ġprescri zione
Ġpann elli
c m
ci ando
Ġma gia
Ġma ssimi
ĠLa scia
Ġver di
ĠSi ena
res to
Ġconf ezione
Ġlimi tata
Ġcine si
Ġseleziona re
fort un
Ġliqui do
S ta
Ġp c
ra mento
ĠO vviamente
tt one
ggia menti
Ġauto mobili
Ġecce zione
Ġriguard anti
9 3
A ss
a a
in Ã²
Ġm t
Ġo b
ĠS lo
ĠM essi
Ġpa usa
Ġci tato
ĠO ro
Ġna ve
essa to
Ġro ton
ĠDi men
Ġchia mati
ĠPo tre
Ġconten ute
Ġsci enzia
ĠCri sti
Ġusa ta
Ġapparten enti
H A
a eroporto
Ġa c
Ġqu arta
ch ine
ĠM essa
eri ta
pi Ã¹
sta ti
Ġsa telli
Ġ4 6
Ġchia mare
Ġlegi tti
V en
Ġe colo
ch at
Ġdo tati
Ġesp osizione
201 0
Ġpote vano
Ġvesti ti
Ġdidatti ca
Ġmate matica
T S
a mici
Ġs onda
cu ri
pe dia
Ġve der
ĠAn cora
Ġriconos ce
Ġguida ta
Ġconsul tare
Ġspecia lizzata
ĠDom enica
d arsi
f oni
u isce
Ġo cchio
che stra
ĠU fficio
Ġcol or
Ġcor to
Ġpossi ede
Ġricor dato
Ġsenti ero
Ġfis so
Ġimpegna ti
Ġcollabora tori
Ġslo t
Ġf razione
Ġper dite
no w
ĠP on
Ġpi zza
Ġpa g
pa ra
Ġimpor ta
Ġtor ino
ĠSo cial
Ġprote ggere
Ġdeli cato
Ġmeri di
Ġesclusi vo
cell ona
% ).
p al
u sc
x el
Ġ @
Ġin tenzione
ne i
Ġcor pi
Ġveni vano
Ġinci dente
Ġdina mica
ĠDani ele
Ġrinun ciare
Ġc ra
Ġcomple anno
Ġraggiun gimento
Ġgui de
Ġmanten imento
Ġvorre bbe
Ġalterna tive
on isti
Ġa go
Ġa gis
Ġin utile
glia ti
Ġtro verai
ĠAl ta
cchi eri
cci ono
ghe se
Ġk it
zion almente
Ġauton oma
ĠC E
Ġsal ve
Ġmis ce
ĠRa ffa
Ġpresenta ti
AN A
ĠZ e
IN I
Ġspor tive
Ġprofi li
Ġemer ge
ĠGre cia
ti cano
te che
ĠS O
ĠS and
mo ro
ĠR on
Ġlo mb
Ġimp ro
ĠCa gliari
res te
mina ta
Ġcapi ta
Ġpiena mente
Ġstudia to
Ġproto collo
Ġsemb rare
Ġtela io
U A
c ena
ti pi
Ġe fficiente
zz arsi
Ġ18 0
Ġriti ro
ĠProg etto
ĠLeon ardo
C osa
Ġ q
en dum
Ġan ale
Ġcontra ddi
Ġ9 5
ut h
Ġim mi
vis e
ĠAle x
Ġeffica cia
Ġgas tron
Ġbanca rio
Ġpresti to
Ġconsuma tore
Ġepiso dio
Ġfred da
Ġs rl
ta lo
al do
Ġri sc
ĠS C
Ġb anda
Ġvi rus
ĠE u
gu ria
us cola
Qu esti
av an
Ġsm ettere
Ġtea trale
Ġperce pi
Ġcontemporanea mente
in vesti
Ġn etta
Ġre visione
Ġpo teri
Ġpa vimento
ĠF eli
ĠN A
uni versitÃł
ĠH ar
ĠPro gramma
Ġsempli citÃł
Ġporta fo
Ġaveva mo
âĢľ .
Ġfonda ta
Ġbar ba
Ġcontinua mente
Ġvaria bile
Ġurb an
even tuale
Ġi stitui
Ġb orse
Ġso ttra
ĠF un
Ġcomp lica
ĠSo li
imp orto
Ġloca tion
Ġtrasforma re
pren do
Ġsali ta
ĠSicu rezza
G O
p etto
v ang
Ġimp le
ĠPer Ã²
ĠLi ber
Ġsignifica tivo
Ġtrasp orti
ĠBar ba
Ġestre ma
inda gine
Ġsoffer enza
v et
Ġs inistro
Ġdi g
Ġme tal
Ġapp a
Ġprima ria
Ġass unto
201 1
Ġsor ge
Ġindividu ali
Ġmemo ri
No i
Ġcristi ana
5 8
S co
Ġsc endere
ffi ciale
Ġchia rezza
Ġrichi ed
Ġins u
Ġprote tto
Ġvalori zzare
Ġstabili re
Ġseleziona ti
Ġmodifica ti
Ġsva ria
Ġconforte vole
7 8
Q ui
e la
i es
Ġa re
di tori
ch el
Ġne u
Ġattra versa
Ġstan ze
ĠTi po
Ġlavora no
Ġsan gu
ĠTri este
ĠCer co
ĠDEL LA
Ġalco ol
Ġstatuniten se
: :
ĠP O
Ġfa me
ziona re
tt ina
ĠGi Ãł
col or
ĠDo tt
Ġpara ll
Ġnorma li
Ġdedica te
Ġtal ento
Ġvaria zioni
Ġespri me
Ġprofonda mente
ĠFerra ra
Ġgradu a
Ġeviden zia
Ġal ter
ĠP urtroppo
Ġse pp
ĠA more
ĠA ttivitÃł
gia to
Ġman cata
via zione
tua zione
Ġospi te
ĠBer n
Ġistitu zionale
ĠIs raele
ĠTren to
Ġugu ale
Ġin tre
ĠS Ã¬
tti co
ten t
ĠT om
ĠV an
as col
Ġver go
Ġna zi
ĠVi si
Ġperm etter
enzi almente
Ġpra tico
ggiorna mento
Ġroman zi
Ġprovve dimenti
Ġadolesc enti
U L
te a
ĠC ali
Ġpre ca
ĠR O
ggi re
ĠLi bri
ĠCar ta
Ġmeravigli oso
ĠUS B
Ġaffascin ante
an ese
si to
Ġri per
ĠM ia
Ġre sistente
Ġra ffi
pa ti
sti a
Ġimpor to
ll eri
Ġani me
Ġindica te
Ġinvi tati
Ġavven uta
bur go
l or
v re
ma li
ĠD ie
ĠIn te
Ġcli cca
Ġdiven tando
esi to
Ġlimi tato
Ġtipi ca
Ġincontra to
Ġripa razione
Ġinfras trutture
men si
ĠA ssocia
Ġvi gente
Ġven gano
Ġvisi bilitÃł
arti ene
Ġdia gnos
CH E
Ġa mare
ti c
Ġri entro
Ġmili one
Ġori entale
Ġcrea ta
Ġdefini tivamente
Ġpubblica zioni
Ġdesign er
mba ra
Ġaggi u
D S
w in
Ġin to
Ġin cora
Ġf iore
Ġcom mi
Ġcomp or
ĠCor po
Ġpreo ccup
Ġcur va
Ġtari ffe
f unzione
g iamo
u cci
Ġs essione
Ġb ea
uo ri
enta ta
fa tto
via to
Ġuni versitÃł
ho to
Ġposi tivi
Ġmodi ficato
Ġospi tare
Ġtorna to
Ġtesti monia
Ġsche ma
Ġsm alti
Ġgiar dini
Ġchiama te
Ġmuo ve
ĠMol ti
Ġucci so
Ġvas ca
pad ding
Ġparassi ti
ĠBasi lica
E x
lo ghi
Ġso v
ĠE U
ĠPro cura
ĠAr ticolo
ste m
Ġ199 8
ĠGia como
Ġasse gnato
ĠLea gue
l to
ĠP lus
Ġ( +
Ġmi lan
Ġgen o
Ġ4 1
ĠSo p
Ġpresenta te
rea k
Ġcompi ti
Ġperce zione
ĠEli sa
Ġono re
Ġsettiman ale
Ġri ghe
ĠC ard
Ġpar liamo
Ġgi rare
Ġcrea tivo
Ġama toriali
Ġsom me
annun cio
Ġs li
le ss
do l
ĠDe creto
Ġgesti to
Ġsan zioni
Ġimpie go
Ġconcentra zione
clu sione
Ġpale stra
Ġrifer isce
ĠCine ma
Ġpato logie
c ing
Ġre sp
Ġdo ttore
Ġrisul tano
Ġbamb ina
Ġotti me
Ġagg ra
ĠAt tra
Ġapposi tamente
Ġeccell enza
Ġm ettono
Ġf lui
da la
ĠE gli
mb ri
Ġ3 60
sse to
Ġfu mo
Ġru more
Ġconosci uta
ĠFili ppo
Ġammi rare
Ġvertica le
F ran
b et
f ino
or ganismo
ĠP unta
Ġso glia
ĠB eni
gi tto
ĠCon tin
trib uzione
Ġnor malmente
ĠSal ute
Ġtrasm ettere
Or dine
ioren tina
a sta
Ġa fri
ĠP io
Ġre sti
Ġre per
Ġre gno
sp a
Ġpar ru
Ġatti mo
Ġrichi edono
ĠTu ri
TO RI
Ġutili zzano
Ġfis cali
Ġinvi to
Ġcoinvol to
Ġintra pren
o ut
on na
Ġper tin
al d
Ġma ssi
Ġsc ende
Ġcomp ar
Ġav verti
Ġindi ce
Ġro tta
Ġcan cro
Ġsol lievo
Ġfra m
Ġinfer iori
Ġallena mento
inna stica
Cos Ã¬
P ER
Ġo ccu
ĠL E
Ġra ggi
Ġar gento
bo la
Ġdisp er
Ġmar ina
Ġlun a
ĠSa bato
Ġfinanzia rie
Ġnecessi ta
ĠGia r
Ġinclu so
Ġspia gge
Ġsostitui re
-------- --------
P E
y n
Ġe sistenza
ĠC el
Ġpo ca
ĠE N
ĠE sc
Ġris arci
ena tore
ome o
Ġacco gliere
Ġavre te
. âĢĵ
Ġd ono
ĠS el
Ġven t
ass enza
Ġamp li
Ġlar go
Ġdistin gu
Ġcondu ce
Ġdef inisce
Ġpens ando
Ġlegisla tivo
cur sione
ĠSvilu ppo
f al
p ut
Ġs fa
in se
ro lo
Ġpro sp
Ġca dere
ĠA na
ui l
Ġcor ro
Ġor to
Ġesp lici
Ġscri tti
ĠMo da
Ġpe cu
Ġintegra le
Ġresta no
Ġedu cazione
M en
e vo
v etta
en ni
ĠC iao
Ġpro pa
ĠA sia
Ġh ome
du ci
Ġsc anda
ing ton
Ġver si
Ġfonda tore
Ġnu de
Ġruo ta
Ġcompi ere
Ġinseri ti
ĠMedi terraneo
Ġconfi gurazione
Ġved rÃł
e ducazione
Ġin tanto
Ġpo tenti
ona ri
ĠD ei
Ġsp ar
ĠLa ura
enta mento
Ġro mana
imp iego
fe o
op ini
A llo
gli enza
ĠI r
Ġgi ri
Ġos pedale
Ġinten sitÃł
Ġcontrib uito
Ġruo te
Ġgiovani le
Ġistitu zionali
ĠTer me
Ġcostru zioni
Ġaccogli ente
Ġanalizza re
A merica
u tico
v arsi
Ġsi ccome
ĠA frica
ĠD ell
tre tto
Ġcan ta
Ġconten ere
pu bbli
Ġterra zza
Ġiscri tto
Ġritro va
ĠAma zon
A cc
f ere
se i
vo ce
ĠL os
ini tÃł
Ġra cchi
Ġro mani
Ġcar dio
Ġ6 4
Ġfu turi
Ġben sÃ¬
ĠMan u
Ġiso le
dro me
ĠCes are
Ġorizz on
Ã ¶
bb o
cca rdo
Ġfin chÃ©
Ġsti pen
EN ZA
Ġsegna lare
Ġindica ta
Ġpad rone
ĠAng elo
Ġottima le
Ġreddi ti
je ct
o ol
p io
s k
Ġ 00
ra y
Ġin for
ĠS et
bi t
fi cante
ff o
Ġfinanzia menti
Ġdipen dente
Ġamp lia
Ġfed eli
Ġarchite ttura
Ġri prese
Ġsi gnore
Ġsi cili
ĠG al
ĠT el
ĠF is
Ġgra zia
Ġris orsa
Ġna zione
Ġsca le
ĠFranc esca
Ġinca ri
Ġprecedente mente
Ġurb ano
Ġtrasparen te
Ġcondiziona ta
v ar
Ġg r
Ġqu into
de vole
Ġne mico
ven na
etta te
ĠMar zo
fini to
cos e
ĠGio chi
Ġmanif es
ĠBu on
Ġcul ture
htt p
s ano
Ġdi ale
Ġso ppor
Ġta b
ese mpio
ĠAn zi
tt ini
Ġsca tola
Ġprog ettato
Ġora le
ĠRo cca
Ġdefini ta
Ġlavora tore
Ġregistra re
Ġcoinvol gimento
Ġmus colare
Ġcondomin io
an ge
ĠA C
Ġpa gato
Ġno tato
uni verso
ĠO ut
Ġscri tte
ĠSo ciale
Ġren dimento
Ġconsidera ti
Ġraccol te
Ġatten to
Ġcontempo raneo
Ġpass word
Ġeffettua ti
ĠCampi onato
atta cco
ĠProte zione
9 4
A cqu
R AN
S p
l one
u alitÃł
Ġe missioni
Ġm esti
or ge
Ġfa ranno
ssi o
ĠE se
Ġba gni
Ġapp artiene
Ġsco pi
ed iamo
Ġcal ci
Ġutili zz
Ġnorma tive
.... ..
ĠVer de
Ġsche de
Ġesegui to
a mm
e mo
v isto
Ġd orso
in c
Ġche f
ĠM ini
Ġpa tate
Ġsp et
Ġu cc
Ġ4 3
ĠW e
Ġni po
Ġregistra ti
Ġcomplessi va
ĠProf essi
Ġobbliga toria
ustra lia
Ġcodi ficazione
Ġ he
Ġa ran
Ġse bbene
ĠB at
Ġno zze
Ġva rio
Ġindi menti
ĠDi ce
ha ha
ĠLi ve
Ġsosten uto
Ġcaratteri zzata
Ġinnova tive
Ġpreferi ti
Ġab usi
Ġpanora mica
v ese
Ġin g
Ġse cca
era te
ĠG all
Ġdo dici
Ġch issÃł
Ġfar la
Ġforma ti
bbi gliamento
ĠBar cellona
Ġmos tre
ĠTro va
Ġapprezza to
Ġbasa ta
Ġrilascia to
Ġalber ghi
t ona
Ġin verno
cc ini
Ġav rai
Ġcor renti
Ġag enzia
ĠQ uo
Ġmeri ta
Ġletter almente
vie to
Ġtestimoni anze
Ġripe ti
Ġlenta mente
Ġri usc
Ġpre venire
Ġu si
ĠB orsa
zz ini
Ġad d
ĠCa tego
Ġlib ere
ha m
ĠBa sta
tr y
ĠCh ar
th er
Ġada tti
Ġinvesti tori
ĠGu erra
Ġequi pa
op zione
ĠCami lleri
s m
Ġdi c
Ġf lo
om bra
qu ale
Ġal lievi
ĠH ai
labo razione
Ġ199 0
Ġrima sti
Ġbor go
Ġaffida bile
Ġrefer endum
bru zzo
ĠNum ero
8 6
L U
on io
Ġdi vano
Ġna so
Ġdisp ia
ĠW ar
tati vi
Ġcri tico
Ġfra gi
Ġsci enze
Â». Â«
Ġâ Ħ
Ġcoper tina
Ġusci te
i mage
Ġa mi
Ġa mato
ta gna
âĢ ĺ
Ġo d
ĠA gri
Ġsp ing
ui te
ĠV io
ĠCon os
ĠH anno
Ġ5 7
In fine
Ġsvi zz
ĠUni to
Ar te
Ġinnova tivo
Ġimmedia to
Ġguada gnare
** **
omici dio
Ġaccogli enza
ĠTru mp
D es
d ar
te te
Ġla bbra
ĠE ppure
Ġmo re
Ġvol ti
Ġcomple ssa
Ġstati stiche
Ġrila ssa
Ġcostitu zione
Ġsani tari
Ġmeccan ismi
B O
Ġe sistente
Ġn Ã¨
ce a
âĢĿ )
ĠU E
Ġ6 7
tua rio
Ġsenti rsi
Ġperf ino
Ġamministra tivo
Ġturi stica
Ġade mpi
Ġemer genza
Ġpremi er
Ġusufr uire
avan guardia
Ġpre ziosi
fi cano
Ġme te
Ġmen sile
Ġstu p
Ġabi tudini
Ġcondivi so
Ġcas al
Ġbal lo
Ġderi vanti
ĠGior nata
MEN TO
Ġdormi re
Z Z
Ġdi visione
enti eri
ĠO re
at ch
Ġcal de
tten ti
Ġruo li
Ġcul to
Ġquotidiana mente
Ġpresc in
Ġdomici lio
] ,
s ma
Ġp el
Ġdi ss
Ġpo p
Ġtra ge
Ġme da
zz anti
Ġpu ra
Ġimp lica
per s
Ġna ti
Ġbu dget
mar gin
ĠGiov ani
Ġcomo da
Ġavvia re
Ġa sia
Ġe so
ce ano
Ġso lari
ĠT ar
ĠF are
Ġdo lori
Ġos teo
Ġsti a
be te
ĠFor mazione
Ġesa uri
Ġanda va
g ma
ro sso
ĠR isto
ĠT O
Ġten denze
ell enza
ĠMo to
av vio
ĠDom enico
Ġtedes ca
alb um
, ...
8 7
G LI
er io
Ġa ttore
Ġm elo
ĠD all
Ġpa tto
Ġpa tro
Ġgi gante
Ġme teo
Ġav veni
ing s
gno ri
Ġga tti
Ġw i
Ġsf era
Ġinseri menti
ĠTer ri
Ġsplendi do
ĠAcqu a
Ġcompli menti
C D
b r
i con
n ando
ro r
Ġsu oni
ĠP hi
tra zione
tti ca
cu ro
Ġba ga
Ġric om
Ġsca mbi
?? ??
Ġpes ci
ĠTra sp
Ġaggiun ta
Ġtri on
Ġscon ti
Ġcap isce
Ġpazi enza
Ġpaga menti
C ON
e co
Ġa f
Ġqu ante
ĠD E
cc ani
Ġne w
Ġfun zionali
mis mo
Ġcompi uto
pro du
gan ismi
Ġdescri tto
Ġrappresen tante
Ġpiacere bbe
Ġmira colo
c eri
Ġp anta
Ġm erci
Ġn n
is ca
ĠF os
ff et
as segna
uro cra
Ġpia cciono
ĠAr te
Ġoff rendo
cchia ta
Ġinstalla to
Ġchied endo
. ).
T R
e ffica
Ġp ento
in vio
Ġm anti
ĠP om
Ġma gni
Ġimp on
Ġter mo
gn erÃł
Ġfo resta
Ġcar to
val ente
Ġpe da
Ġr ina
Ġsenti mento
Ġprefer enze
ĠInsta gram
f etto
Ġc ronaca
Ġu bi
... )
Ġro ssi
Ġro mano
ĠSi ria
Ġpen et
Ġmod ella
Ġcoper to
Ġscar sa
Ġtar get
Ġcomo ditÃł
ĠGre en
Ġripro duzione
Ġbos co
ĠCommer cio
8 9
on es
ca m
Ġcom menta
de te
Ġsta gioni
con to
ĠB ella
Ġmi ele
ĠDa y
Ġvio la
ker s
Ġmus coli
ins erimento
Ġurb ani
ĠBra sile
Ġacquisi re
Ġmorbi do
ade gua
ĠSette mbre
ter nitÃł
ss erva
go le
gna ta
Ġven duto
Ġdire i
Ġdes tro
ĠAr chite
Ġass um
Ġscon tro
Ġrile va
m ol
p ini
Ġd roga
li bri
qu et
ĠG ua
ĠG estione
ĠB as
Ġpri va
Ġsc ul
Ġfi era
Ġbi blioteca
Ġfe b
Ġele vati
Ġconsi gliato
AN I
gen tina
Ġimpe gnato
IC O
Ġritro vare
Ġgre co
ĠGri llo
Ġindos sa
Ġrea zioni
Ġsimbo li
Ġsil enzi
Ġ Î
Ġe bre
Ġin fi
Ġri dotta
Ġri viste
Ġinter roga
Ġser ra
fo to
Ġconten ente
IS CI
Ġdisc esa
Ġlibera mente
Ġconn essi
Ġcostitu zionale
ĠJa ck
Ġecce zionale
Ġavanza ta
Ġsolle ci
Ġmetter si
Pubbli cato
G ran
n is
Ê ¼
en se
an chi
Ġin col
ĠS ele
Ġma turi
ĠMa dri
ĠCor riere
Ġcolle ttivo
Ġfaci litÃł
Ġperi feri
Ġriten uto
Ġcoordina mento
ĠInterna tional
p ani
Ġs ten
ri ano
ĠP esca
ono re
Ġpre visione
hi te
Ġpos te
Ġfi ga
Ġgra mmi
ron to
Ġassi stere
Ġabi tazione
Ġcostrui ta
Ġinclu si
Ġinse dia
Ġrifi uto
Ġinn anzitutto
Ġtari ffa
mp ere
Ġpri mis
Ġor ganismo
rat ter
Ġlib reria
Ġsco p
ĠMo bile
Ġstre tta
Ġatten dere
mministra tore
Ġcancella zioni
ĠCentra le
Ġpover tÃł
Ġi tinera
Ġcon ci
ma x
Ġl enti
ĠT A
ĠIn vece
Ġcol lina
Ġrisul tare
Ġcampi oni
Ġautori zzazione
Ġispi rato
Ġsottoscri tto
Ġcommissa rio
ĠRaccon ti
Ġan tin
mi ta
ĠD ar
po lare
sta ta
Ġsa ra
Ġta vole
il le
Ġve derlo
Ġ5 6
ĠSe de
Ġopera tivi
Ġcolle gato
Ġ0 1
Ġporta te
Ġeffettua te
Ġriman gono
Ġvir tu
Ġrinno vo
Ġsuggeri menti
& #
E d
ra ni
oni ma
ĠD ol
ĠD elle
ĠD OC
ĠR I
Ġmi ll
Ġgio cato
ura re
Ġes al
Ġdiver samente
ĠGi anni
ĠPre mi
ĠGa y
Ġmanten endo
Ġintro dotto
Ġcollega menti
Ġvicin anze
Ġomo gene
Ġso pp
tta no
Ġsc ru
Ġess enzialmente
Ġsa cra
pen denza
ĠPi ero
Ġcli ck
ĠBi blioteca
Ġdisa stro
Ġdina miche
Ġpann ello
Ġgioi elli
8 00
N egli
in ga
Ġdi viso
Ġt Ã¨
ci le
ere i
Ġma ss
ess uale
Ġtele fon
Ġru sso
Ġrile vante
Ġcliente la
Ġsupp le
ĠOtto bre
opini one
C er
Ġd arÃł
Ġs is
tan ta
Ġco ach
ĠLa go
Ġsuper m
Ġresta uro
Ġpensa te
Ġcomplessi tÃł
Ġsperi mentazione
Ġappli cato
amici zia
Ġcon venzione
Ġt onalitÃł
ci one
Ġb ologna
ce to
ĠI P
Ġgra no
Ġva do
Ġta voli
Ġ4 4
Ġtempo rale
Ġprodo tta
Ġattra ver
ĠMon za
Al le
Ġfran cesi
Ġcompre se
ĠBu ona
ĠTea m
Ġprovo ca
Ġsepa ra
Z IA
Z ZA
f an
p lay
s enza
s tero
re te
re ssione
ĠS un
Ġnon na
Ġco dici
Ġter ze
ĠSe zione
cip io
ĠMon tal
Ġfil tro
Ġeserci tare
ĠCu cina
Ġincre mento
Ġcolla terali
Ġbos chi
Ġguard ando
ĠMos ca
Ġaccessi bile
Ġpunte ggio
Ġbril lante
Ġmilan ese
a ttore
le a
Ġi t
es pressione
Ġv el
ĠI T
eri cor
Ġba cino
Ġat tu
Ġ5 2
ĠSe conda
ĠVi to
Ġambi ti
Ġis la
200 3
Ġpuli ta
Ġcas ella
Ġaiuta no
Ġmede sima
atte sa
E ra
ĠS ua
Ġb isco
Ġcom i
Ġva i
at h
Ġmon diali
Ġau spi
Ġass ur
Ġrin for
Ġsegu ono
Ġordina ria
Ġvesti to
Ġappren dimento
cic lo
V ER
Ġp onti
Ġt ene
Ġsp inta
Ġne mici
Ġco operazione
Ġba sse
Ġsa ggio
Ġalle gato
Qu ello
Ġ4 9
ffer te
tere bbe
Ġlon tani
Ġcorrispon dente
Ġevidente mente
8 3
C h
Ġ ]
al y
Ġfa ma
Ġdove te
Ġesa u
Ġassocia ti
Ġglu tine
Ġrimuo vere
S Ã¬
U I
Ġp df
Ġin tri
âĢ ²
ĠS are
ĠP ale
gra ti
Ġta sca
Ġris ca
bo t
ĠPa y
Ġro ves
Ġabi ta
Ġfunziona re
Ġfotogra fica
ĠGiu gno
ĠLib ro
Ġeste tica
z ina
re zzo
Ġdi scri
Ġe ppure
zza tore
Ġdo tazione
mpi ons
am es
ĠBi sogna
Ġimpre ssi
ĠBer lino
Ġado ttare
Ġdisa bilitÃł
Ġdetermina ti
Ġassicu razione
ĠBene detto
Ġtranquil litÃł
Ġregis tro
A ccademia
P ar
ti cs
ra eli
ina te
Ġco gni
ĠMa uro
gra fie
Ġconos cer
ĠDa vide
Ġterri bile
EN TE
Ġabi tazioni
Ġcap isco
ĠPri vacy
Ġsotti li
Ġconver sione
m ante
Ã ¢
Ġdo loro
mb ur
Ġinter iore
Ġess ersi
per ta
etta no
Ġsol dati
ĠCo ok
Ġgenera re
Ġsvol te
Ġspecia lizzato
Ġopini one
Ġscene ggia
ĠSAL VA
5 2
D ue
di t
ĠC io
ĠP RI
ĠA di
Ġu cra
Ġdo tate
Ġgi unto
Ġli cenza
ne uma
Ġter mico
Ġbi cchiere
isti tuto
Ġtor neo
Ġentra to
Ġim mobile
Ġmano vra
Ġridu ce
Ġosta coli
d era
Ġla mpa
Ġla cri
Ġri gen
Ġsu sci
ĠL una
ĠQu anto
ĠMar tino
Ġsvol gono
Ġappro pria
Ġesa g
Ġatte ggiamento
Ri cor
Ġsostitui to
Ġesti va
insegna mento
Ġcoopera tiva
Ġbit coin
. (
b ino
ci dio
so re
ĠS per
Ġan dati
Ġma li
Ġca sta
Ġpre ga
Ġvi lle
ĠR en
as hi
Ġtro ppi
ĠCa ri
Ġatti vare
Ġsal one
Ġinf ia
ure a
ĠMo der
Ġsera te
Ġriferi menti
Ġdif etto
ddis tin
isi zione
ĠCapi tolo
Ġdimin uzione
ĠBol zano
Ġdin torni
Ġbicicle tta
c uno
Ġde co
ĠP ren
Ġsc ompa
ffi ce
Ġsal uto
Ġpopo lazioni
issi me
Ġspecia litÃł
Ġpiaci uto
5 7
a bbiamo
a gricoltura
Ġ %
ĠA I
Ġre tti
ga zine
Ġte tte
Ġall er
Ġprog et
Con tinua
Ġfotogra fico
Ġfrequ enti
Ġpan cia
Ġadegua to
Ġrespi ra
back ground
b all
p one
Ġe cci
Ġper si
Ġde boli
vo cati
Ġfa sce
ĠCa pp
Ġabb at
Ġsegna to
Ġcuo cere
den tali
Tu be
Ġfattura to
Ġtedes chi
Ġlevi tra
V a
Ġv iste
Ġt ono
so ria
are se
ura to
Ġconos co
ĠLi guria
Ġconten gono
ghe tti
ĠSal vini
Ġrega la
Ġelettroni ci
Ġripren dere
Ġapparente mente
A ve
F O
i tÃł
ï »
Ġma cro
Ġpi etre
Ġsp ina
ĠR esta
Ġsc an
ĠCa ro
ĠCon ti
gn ome
ĠVi cenza
ĠTe ch
IC I
Ġobbli go
Ġbat teri
Ġauton omo
Ġsostan zialmente
Ġaccol to
Ġsalve zza
a ppa
d d
n bsp
Ġpre ten
ga tore
du la
Ġprop osti
tte d
Ġen ormi
Ġera vamo
Ġcan dele
Ġconc esso
ĠMar ino
ĠFed erazione
Ġradica le
Ġaere o
Ġbev ande
Ġpresu pp
U tente
m us
ĠS ani
ĠI VA
ĠD EI
ggi ando
Ġcor ruzione
ron ia
ĠPa ul
Ġsopra v
Ġbar re
Ġresid enziale
ĠCro ci
ĠCara binieri
A frica
E l
u le
Ġp essi
Ġi sola
Ġma tri
Ġpi zzi
Ġci ma
Ġci lin
ĠB lo
ĠV ai
Ġco gliere
ing hi
Ġris co
Ġbi mbi
Ġcontra ddistin
Ġecon om
Ġconsiglia mo
Ġcircos tanze
Ġimpedi re
Ġimposta zioni
Ġbina rie
ĠFabri zio
v elo
Ġg el
ĠP is
Ġra bbia
ĠO l
Ġchi mica
Ġfun ghi
Ġvisi bili
Ġop zione
Ġdiffer ente
Ġmonta gne
ET TO
Ġcorrispon de
asse mblea
ĠWil lia
d ese
e p
g oni
ta ge
Ġm esse
sp ru
Ġtu more
Ġba keca
der s
ĠRe gioni
Ġconos cono
Ġfe gato
Ġ9 9
ĠFran ci
Ġmeta boli
Ġpass ano
Ġfed el
Ġconce pi
Ġvet tura
otti ca
Ġartigian ale
c ero
m iamo
n ello
v oso
ti litÃł
Ġde cre
Ġcom itato
Ġre ati
Ġpi llo
Ġchi edono
Ġsen sazioni
Ġ0 9
Ġtran ne
Ġrivol gersi
Ġpreve dere
ĠMedi cina
Ġadegua ta
Ġpad roni
Ġtrib unale
Ġprospetti ve
Ġposiziona mento
Ġconveni ente
S ei
V ia
a gg
v isti
in cre
ro cco
qu io
ĠC ur
Ġse c
Ġdo ttor
ĠN as
Ġav val
ĠMar keting
Ġcapi tano
gre ssi
Ġorganizza ti
cin que
Ġdestina ta
gori t
Ġattua zione
ĠUmb ria
Ġgino cchio
SER ISCI
' '
b ine
m ono
r ine
Ġc enti
Ġa stra
Ġin giu
Ġv este
Ġri quali
ĠO ff
Ġven duti
ccia ta
Ġfon dato
Ġos sa
Ġfoto volta
Ġterri toriali
Ġentra te
Ġlavora tiva
Ġequi lib
Ġpericolo so
Ġcorrispon denza
ĠCompa gnia
Ġabbond ante
6 3
T RI
Ġde va
mi ti
ĠF el
Ġapp ello
Ġven de
fa be
man da
cch ino
olo gici
mer genza
Ġcli c
Ġass un
am eri
Ġforni te
ĠGu arda
Ġcompagni e
ï» ¿
v Ã²
te ch
Ġm usei
Ġper dono
Ġb ul
va ra
na te
ĠF arma
ĠH er
ĠCom unque
Ġfu sione
Ġcontra stare
ser ci
Ġimmedia ta
ddo ve
Ġnega tivi
Ġinsegn ante
Ġsape te
hei ght
- )
c elle
g rante
r gli
Ġin do
os teni
ĠI TA
Ġra zza
Ġmi ti
ĠV angelo
Ġna zioni
Ġfar ti
Ġuni ta
Ġasso ciato
Ġparla mentare
Ġsosteni bilitÃł
Ġvedre mo
immo bile
Ġp ani
Ġri gore
Ġcom media
tto rie
sta zioni
Ġfi bre
Ġindi re
Ġesp an
Ġsca ten
pre ss
Ġsenso ri
ĠGran d
Ġpaesa ggi
Ġrespi ro
C or
v ona
Ġa si
men tata
ĠS tazione
is tare
Ġma fia
Ġvi gne
Ġsp alla
tan eo
pa tia
Ġco pie
Ġinter media
Ġcol pisce
Ġven uta
Ġacc ettato
Ġesp osti
Ġsca rico
ĠSe mbra
Ġrego lazione
ĠBi anca
Ġtrasc orso
Ġbotti glia
A t
Ġf ul
Ġun isce
Ġb urocra
zia ti
ba bilmente
Ġfo ca
Ġdov uti
Ġpren dono
ĠPar k
Ġsf io
Ġtrasp or
Ġgaranti to
ĠCla sse
Ġsperi mentare
Ġnomina to
Ġricord iamo
Ġescursi oni
5 4
X X
d r
Ġs ha
Ġa bito
or di
et u
Ġde bb
Ġpu ri
ven uti
ĠMa estro
Ġstra ti
ON I
Ġcolle ttiva
Ġedi lizia
Ġmin erali
av ventura
ĠAd esso
Ġconclu dere
Ġconcor renti
ĠCu ba
Ġplu ri
Ġeviden ziato
. ),
? âĢĿ
Ġe poca
Ġt ron
ĠC ra
Ġde cor
ĠA prile
Ġre se
ĠR ena
ani mo
etti va
Ġdisp on
Ġscon tato
av vocato
Ġfisi ci
ĠGiu stizia
Ġdescri ve
Ġfal so
Ġinvia ta
Ġsfor zi
Ġconser vare
Ġmeccani ca
Ġocchia li
Men tre
Ġinfia mma
ĠS telle
tu m
ĠL ar
ĠIn f
Ġta cco
Ġgesti sce
Ġvin cente
ĠX I
IN SERISCI
Ġ199 2
Ġdiffici lmente
Ġspetta tori
Ġama toriale
Ġdiscip line
Ġcari tÃł
ons or
nali si
Ġghia ccio
ĠResponsa bile
N i
p y
ca rica
Ġri vi
Ġri bal
ĠB ell
ali a
gra mmi
ĠCa se
Ġspe cu
Ġforma tivo
ĠRi ccardo
ĠZ o
Ġfanta stica
Ġgara ge
Ġfacili tare
Ġmusici sti
g al
g arsi
te la
vi c
Ġse ta
ĠA G
Ġre da
Ġpa ci
Ġci pol
tr one
Ġsitua ta
Ġseconda ria
Ġfis sato
esp lo
200 8
200 9
ĠItali ani
Ġsho pping
Ġlasci ano
Ġmeravigli osa
Ġfum etti
Ġsopravvi venza
Ġmilli metri
B S
Ġf io
Ġf esti
ĠS ur
ĠS ER
Ġsi gnor
gi l
ĠF an
Ġpri vo
Ġimp one
uni one
us se
ie te
Ġedi zioni
Ġevi tando
Ġgui dare
ĠMe to
Ġvari anti
ĠEn ti
Ġbru cia
Ġpotenzi ali
Ġmus ul
ĠGro sseto
appro ccio
Ġlumin oso
Ġintelle ttuale
Ġpassegg eri
Ġprescin dere
ĠMadri d
a pposi
p hi
on de
Ġc es
gli oni
Ġro sse
ĠAn ni
ĠAl tezza
Ġchia re
TI S
Ġpsi chia
Ġrappresen tanza
ĠRaga zza
Ġlie vi
Ġreligi osa
ĠStre et
Ġle va
ĠP AR
ĠM uni
gi lio
ĠE manu
Ġric che
Ġindi s
Ġcons um
fo re
Ġtor re
gio li
Ġaffi dato
Ġinizi ano
ĠTo p
Ġsensi bile
Ġvaria zione
imma gina
ĠMich a
Ġvas to
ĠCha mpions
ĠBus iness
R C
c erÃł
Ġs blo
ĠS tore
ver y
Ġco prire
Ġvol uta
ĠAl pi
Ġforma le
Ġprodu zioni
Ġprodu ttivo
Ġk i
Ġecc esso
Ġprovin ce
Ġparla mentari
Ġispi razione
Ġcomm unity
Ġcosid detto
Ġcircon da
Ġrifu gio
M an
g el
ĠC I
Ġfi bra
Ġcor tile
Ġfo glio
elle s
Ġperf eziona
Ġamministra tive
Ġinterpre tazione
Ġperse gui
ĠYou Tube
Ġmanti ene
g es
s ul
Ġm orta
ca de
ĠS TA
Ġan teriore
Ġra ggio
du ce
gu endo
Ġimp oste
ĠCa ss
ena mento
Ġedi toriale
tar lo
Ġanzi chÃ©
Ġavven ture
Ġstrate gica
Ġipo ti
Ġtranquil lo
Ġpromos sa
Ġceleb rare
E sp
S an
ti zie
di che
ĠS tivali
Ġb lack
ĠD V
Ġpres enze
Ġindi ffer
Ġcar bu
ĠDe mocra
au toritÃł
ĠTe cno
Ġdif etti
ĠPoli tiche
Ġscienti fiche
Ġsepa razione
Ġampia mente
ĠDiri tto
acco glienza
ri sto
ĠP S
Ġpar zialmente
Ġra te
Ġai uti
and one
Ġbo tte
Ġbo ok
Ġinte so
Ġfonda zione
ĠFor za
Ġimpa rato
ĠGui do
Ġmorbi da
Ġcostre tti
Ġvinci tori
? )
lo ga
Ġri mozione
ĠA zienda
na tura
Ġtra tten
Ġgi rone
Ġmar mo
Ġfin anza
tr ona
Ġtecno logico
Ġ199 7
ĠGran di
Ġcele bri
Ġconosci uti
Ġcomba tti
ĠColo re
Sa bato
Ġpens ano
Ġindos sare
Ġcalo rie
Ġreligi oso
ĠCin que
a mp
Ġa cido
ti te
ere te
Ġca re
ĠA D
Ġra ddo
Ġris ve
Ġdiver tenti
Ġ6 8
ĠLu cca
Non ostante
ass unzione
ora rio
Ġavre mo
Ġgro ssi
ĠRos s
ĠCons ul
Ġmasch era
N elle
s ando
v elli
Ġs no
is truzione
Ġcom busti
ĠA genzia
ĠA ustria
ĠT UT
Ġav venire
ĠO pen
ĠH y
Ġpassa te
ĠUni co
ĠX VI
Ġmostra no
Tu tte
Ġripor tati
Ġestra tto
Ġpreno tare
Ġporti ere
itali ano
T TO
c tive
g one
Ġa ustria
di sci
ĠC erti
ĠS t
Ġci fre
ĠN in
Ġba ra
Ġ3 50
Ġver ni
Ġna poli
ĠPa ola
ĠLe cce
Ġconf usione
Ġcal ma
teria li
Ġsare mo
Ġlimi ta
Ġfron tale
Ġrivol ge
200 6
Ġmattina ta
ctor y
nella te
Ġoper ano
Ġtranquilla mente
Ġconquis tare
nu tri
Ġgover ni
A le
s ani
et ria
Ġse cco
ve glianza
gno lo
ĠMa la
Ġser eni
Ġindi cazione
Ġfar mi
Ġgiu dici
ĠMar tin
Ġperm ettendo
Ġpren der
IN E
Ġdif en
Ġce mento
Ġamministra tori
fe zione
Ġdescri vere
Ġimb ar
Ġincor po
Ġconversa zione
Ġin so
is tan
Ġre cla
ĠL on
ĠF lo
Ġdis truzione
Ġesp osto
ĠAl to
Ġrip os
Ġdefini ti
ingle se
Ġcompet enti
OR MA
Ġapprofon dimento
Ġritor na
Ġmotiva zione
Ġrinnova bili
Ġavversa ri
2 000
T re
k ea
Ġb ei
indi vidu
fo ro
Ġ9 00
Ġpotre mmo
ĠGa zzetta
ĠSp esso
Ġdimostra zione
Ġinca rico
ĠJa va
verna li
ue la
ĠNess un
dala fil
Ġp neuma
mp lice
Ġpre m
tori zzazione
Ġsc uro
âĢ¦ âĢ¦
omi ca
Ġconte mp
Ġand iamo
Ġriferi to
cher anno
Ġspetta colare
ĠTer esa
Ġj o
Ġripor tare
Ġus ano
Ġringra zio
Ġgiuri dica
Ġcucchia io
Ġprosta ta
] [
l ti
zi ose
Ġg al
co lato
Ġpre sie
ve dere
Ġsp inge
Ġti me
Ġspie gazione
quad ra
IN G
Ġrep ort
er lo
Ġper no
qu est
al s
Ġ1 30
ul so
ziona ti
gno la
gia ta
ĠSi ti
Ġvita mina
Ġprof umi
Ġquindi ci
Ġprin cipe
Ġ0 8
Ġtanti ssime
Ġatte so
Ġfed ele
Ġavvia to
ĠCons orzio
eserci to
Ġappari re
Ġentusias mo
5 6
M E
b etta
c to
k es
Ġp ompa
si ca
or bi
ĠL es
ĠB elle
ggi ante
Ġfor m
ĠLa vo
Ġcol ui
Ġopera tore
ĠGra tui
Ġpol lici
Ġpla y
200 7
Ġrifle ssioni
Ġterre moto
Ġproveni ente
Ġrisa le
Ġchitar ra
interpre tazione
vang eli
ĠEsc ort
B e
re x
an y
lo cale
cia lizzazione
Ġpar l
Ġvol entieri
Ġbi blio
Ġcomple tamento
imp asto
ĠLu cia
ĠGio ca
Ġprepa rati
Ġis raeli
ĠVo i
Ġfemmini li
ĠVen dita
Ġasciu ga
ĠGala xy
H E
Â ¨
Ġp anni
Ġcon ge
et ing
mo lo
ĠP in
tto lo
Ġpi ttore
Ġvi tale
Ġra d
ul um
ssa re
Ġele ganti
Ġ0 7
Ġinseri ta
Ġfaccia ta
Ġconfi gura
Ġatmos feri
Ġaut unno
ĠAttra verso
C IA
e fficienza
z ona
Ġdi vieto
an tico
ĠM us
Ġpre de
ĠL ine
fi t
ĠF rat
ĠLa tina
Ġav enti
for ni
Ġva da
ron ta
Ġpun tare
Ġdiver sitÃł
ĠMi li
mina te
Ġgiu ria
Ġgu stare
Ġsignifica tivi
Ġbar ra
Ġ199 4
Ġillu minazione
Ġimpie gato
Ġdec lina
effica cia
Â ·
Ġc d
Ġcon sta
ĠS uo
ch ini
Ġre cin
gi or
Ġor goglio
ĠCom menti
Ġ5 3
Ġfar vi
Ġpersona lizzato
Ġuni camente
ĠMar k
fo ra
gh iamo
Ġaver lo
Ġsare i
Ġrice vimento
ĠCas al
Ġfotogra fo
Ġiscri zioni
Ġfam ose
Ġurb ana
bal di
Ġesti vo
Ġcapp ella
Ġcapol uogo
G a
Ġ ).
Ġp elo
Ġin den
Ġin asp
tu o
Ġca da
ĠA tti
na m
cca te
ĠAl lo
Ġscri ttori
tr oni
ton io
Ġconte s
Ġim men
Ġconsape voli
Ġapparten enza
ĠMessi co
ĠMicha el
! âĢĿ
5 9
a ggiornamento
s li
Ġan elli
gg endo
Ġpre co
de x
ĠD r
ĠT v
pi c
zia ta
ĠLe ggere
Ġchia vi
gh ia
Ġesi genza
ger anno
Ġbian che
Ġinterpre tato
Ġespressa mente
Ġpetro lio
Ġmagazz ino
o ccupazione
Ġs tore
Ġin car
ĠF anta
Ġcomp arto
ĠMa dre
ĠIl lu
olo giche
Ġforma ggio
Ġopera tiva
ĠFi era
Ġgiov an
tere o
Ġbra vo
Ġtecno logica
Ġguar dia
Ġpoe sie
log y
umere voli
Ġripet ere
Ġtelevisi vo
Ġviaggia tori
f one
Ġ ....
Ġp r
Ġcon so
Ġo tt
ĠC N
ĠP eter
ĠA ffi
Ġpa tologia
bili ta
ĠIn gegn
Ġto tali
Ġconf eziona
ĠPro du
tua to
Ġarri verÃł
Ġcolle gati
Ġcentro ca
esi genza
Ġinizia ta
Ġconsidera zioni
Ġpare cchio
Ġamp ie
Ġspecia lizzati
Ġlum ino
Roma gna
Ġvolontaria to
Ġconteni tore
Ġrub rica
Ġsepp ur
8 2
o tto
z oni
Ã º
Ġc lan
Ġal za
men tati
ĠS era
Ġco ro
Ġfin anzi
lla to
Ġaff etto
Ġsistema zione
cos ti
Ġcompa re
Ġgui dato
ĠCas sazione
Ġcolo rati
Ġprov viso
Ġarre stato
Ġquarti eri
Ġsorpren dente
6 00
o ga
p os
u gna
à ¸
Ġdi ssi
Ġso gg
ĠT esta
ĠU dine
ĠO ppure
us te
Ġdis tanze
ĠK e
Ġer be
Ġdeli ca
Ġlon tana
Ġoccupa zione
Ġappare cchia
Ġcook ies
appro vazione
Ġcompati bile
Ġtramon to
Ġtrage dia
Ã Ģ
in telli
Ġm es
za ture
Ġpa tria
ĠR E
Ġte mpio
Ġli ste
anti ci
Ġparte ci
Ġfar ne
Ġcan na
Ġtri mestre
Ġtrova ta
Ġaggiorna ti
Ġsinda cati
Ġcollo ca
Ġsani tÃł
Ġmulti media
Ġsoddisfa tto
Ġconcre ta
Ġpiani ficazione
Ġesplo rare
Ġcosid detta
Ġugu ali
Ġchirur gia
ĠFri uli
Ġcostu mi
Ġinver nale
l gs
Ġin o
tro po
ten tri
ĠG B
ĠT al
bo id
Ġten uti
tr erÃł
Ġcausa to
ty le
Ġ199 6
Ġcapo lavoro
Ġcaratteri zza
Ġmassa ggi
Ġinci denti
Ġfur to
Ġmotiva zioni
ĠInforma zioni
Ġcimi tero
Ġsfuma ture
ĠEmanu ele
T er
c fr
e mi
f asci
m ing
le mme
Ġg la
ĠP ino
Ġtra guardo
Ġmi l
Ġpor zione
ĠCon dizioni
ĠPer tanto
Ġtutto ra
Ġcar dia
Ġten dono
ĠJ ames
Ġinforma tica
Ġfe ed
Ġauto bus
Ġide ato
ordina mento
Ġaccompagna ti
Ġcaval li
Ġindipendente mente
Ġcatto lica
equi librio
Ġparro cchia
o gle
Ã ¤
ra cusa
Ġcon sistenza
ch o
Ġma estri
era mente
Ġsp onsor
ga tori
ĠF ol
ero ga
esta zione
cor si
Ġga mba
Ġuni ti
ĠBa se
An cora
ĠSal one
Ġpubblici tari
Ġidenti ficare
Ġquotidi ani
Ġemo zion
Ġispi ra
ĠImp re
Ġimper mea
Ġpasti cc
risti an
Ġteso ro
: #
N E
a ta
in chiesta
ĠC ru
ĠS etti
ĠP et
ce i
tra li
Ġpa tri
ĠB log
Ġra ramente
zz eria
Ġapp ai
per tensione
ĠPa ci
Ġattra vers
Ġpe pe
imp rendi
Ġsegui ta
ser vi
Ġricor rere
Ġraccon tano
Ġvaria re
Ġappare cchi
Ġpad ella
bor der
Ġbandi era
Ġnasc osto
ratter istiche
9 1
e cce
f ru
v y
on tan
Ġi OS
Ġin vio
si stono
Ġv an
Ġla tino
Ġla terali
Ġse dia
Ġcos te
Ġimp o
Ġsa ppia
fa mi
Ġcal di
Ġopera i
ste in
trimon iali
Ġdetermina ta
ĠGiu lio
Ġatten de
Ġtito lari
Ġinnova tivi
ĠComuni cazione
tted rale
f ast
Ġla terale
ĠM ulti
Ġpi ene
pa ce
Ġli tri
Ġinter viste
bo tto
Ġdov ute
Ġgrande zza
Ġgo de
ĠRo cco
acqu isizione
Ġimpe gn
Ġis truzione
Ġmas ter
Ġcas inÃ²
Ġrifi uta
Ġscola stica
Ġeste tico
Ġtru cco
Ġpecu liari
" )
Ġc essa
Ġp isto
Ġde fici
ĠP es
vi di
ĠL is
Ġsc en
Ġinter atti
ele mento
Ġfu ture
Ġarri vando
Ġcli ccando
Ġfil tri
Ġclassi che
Ġam ano
Ġpol lo
Ġinteressa te
Ġvaluta zioni
Ġschi era
Ġsani tarie
Ġingle si
Ġpercor rere
Ġcamm inare
ĠFili ppi
Ġfalli mento
abi tazione
Ġtasti era
boid rati
3 00
: -
U RA
d oni
g ol
l s
Ġ ze
Ġs qu
ten ne
ĠT omma
ĠT uscola
Ġra gg
Ġra ssi
ĠN ome
ĠIn tanto
Qu este
ĠCa la
Ġat mosfera
ĠAn cona
Ġconse gnato
Ġdefini tivo
ĠNi ke
Ġconsigli eri
Ġnar razione
ĠBlu e
Ġlie ve
Ġbattu ta
9 00
a k
f onda
ri sta
ar bi
vi deo
ĠA ward
Ġme ga
ffi cina
mm er
mer Ãł
Ġotten uti
Ġseleziona to
ĠEurope o
Ġnucle are
Ġwork shop
v ing
ĠC up
ĠS mart
Ġso f
ĠN ello
du ca
bili tazione
ria to
Ġav vio
ĠQu ad
Ġtempo ranea
ĠAl tre
Ġstu pe
Ġsen tono
Ġtre ni
Ġinforma tiva
ccio li
anda mento
Ġban co
Ġsor te
Ġbra v
Ġcausa re
Ġintegra ta
Ġx xx
Ġscena ri
Ġrive lato
Ġconvin zione
ĠTuscola na
T C
a mico
b en
c lo
r ing
Ġp lan
Ġri lan
ĠS en
ĠA bb
mi de
Ġpi eni
ĠB ia
Ġta g
Ġdire ttiva
Ġsen z
Ġ8 5
ĠTa ranto
Ġrif ugia
Ġgaran tendo
Ġascol ta
Ġscola stici
Ġindipen denti
ĠCapi tale
Ġalber go
Ġante prima
Ġsomministra zione
S arÃł
k h
Ġin vol
Ġfi t
Ġapp i
ron te
ĠLe o
Ġ5 8
cch ini
Ġacqu i
Ġtemp esti
Ġimm uni
ĠGen naio
Ġscom messe
vie w
ĠBor go
Ġprossimi tÃł
Ġsequ enza
Ġodi er
F orse
Ġt un
ĠC le
con tent
Ġgra vitÃł
ĠH u
Ġsal sa
Ġuni che
guar di
Ġcura ta
Ġaggiun gendo
Ġlascia te
Ġsor prese
Ġcoinvol gere
Ġascol to
Ġtenta tivi
Ġabband onato
Ġinn umerevoli
Ġarchi vio
Ġcondanna to
7 3
A ssemblea
z an
le ft
Ġf erie
es el
ca o
Ġv eter
Ġv escovo
ĠP h
Ġpo ten
ona menti
Ġsp unti
ui ta
Ġme zz
me di
ĠU NI
Ġva pore
Ġanni versario
ĠBi g
Ġtanti ssimo
Ġsinda cali
Ġinda gine
Ġfeste ggiare
7 6
G E
l ero
z u
â Ħ
Ġsta tu
Ġno tti
Ġgra ti
ren dimento
ĠCa tto
ĠCon su
ber go
Ġscel ti
Ġand ranno
Ġproc la
Ġsegna lazione
Ġrappresenta ta
Ġpreci samente
Ġdiff usi
Ġdetermina te
turi smo
Ġom os
Ġmuo versi
Ġfri gori
ĠMana ger
g eria
v ana
Ġc ana
Ġs Ã¨
Ġan date
Ġca us
Ġca ttivo
Ġsta zioni
Ġsa cro
Ġta gliare
il er
forma zione
Ġforma zioni
tr ino
Ġapplica ta
Ġcellu lari
Ġaspetti amo
Ġsfru ttamento
Ġmedie vale
Ġtelevisi va
Ġaccon ten
Ġflessi bilitÃł
Ġagrico la
Dom enica
T M
g ruppo
ri che
Ġqu inta
Ġri mos
Ġsi gnori
vi denza
de a
ver se
Ġgi unti
Ġto ccare
ĠCon gresso
fa zione
Ġuti litÃł
Ġpen siamo
Ġbene ficio
Ġinc en
Ġprote sta
Ġbra sili
ĠCen ter
Ġfavore vole
Ġalb ero
Ġproveni enza
Ġelettri che
Ġdele gato
ĠTren tino
Ġton nellate
Ġimpos tare
deter minato
ĠSce gli
ericor dia
A zienda
S ervi
Â ²
Ġm uri
Ġcol line
Ġro v
ĠK m
Ġfoto camera
ĠZ i
Ġinten dono
Ġcontinua to
Ġtren t
CH I
Ġriporta te
Ġagrico le
ĠGall eria
a ggiun
ro le
Ġsp unto
Ġsta gi
gu ento
Ġcomp osti
Ġav essi
ĠPa via
ur l
ess ante
Ġdisp orre
Ġcer vi
pre sidente
imp rov
Ġ0 6
Ġfer mare
Ġmas chio
Ġrile vanti
Ġriconosci uta
ĠCan ale
Ġfri go
Ġsoff re
Ġscienzia ti
spru denza
S olo
Ġs bi
ĠS hi
ĠT on
Ġgi rl
ur ce
Ġro ttura
ĠRe gistra
ĠAl do
Ġpoli zio
ĠLu ciano
up on
Ġordina re
Ġmana gement
ĠFami glia
Ġmesti ere
B en
li st
qu ando
di si
ĠS ve
ĠS cola
ĠA rea
ĠR io
Ġsono ra
ĠE st
Ġcomp ensa
ĠCon corso
Ġ5 4
Ġ7 00
ĠLu glio
fia mma
âĢľ ,
Ġperf ezione
Ġinten si
Ġracco gli
ĠCos tan
Ġvaria bili
Ġvali ditÃł
Ġsche mi
Ġaspetta no
Ġcircos tante
Ġschia vi
fortun io
uil ding
U M
e u
n al
Ġp in
Ġe book
Ġe bra
Ġde cina
ĠG eo
ĠV eri
Ġar co
ord in
ck tail
Ġcli ccare
and ante
ĠRo ck
EN TO
acc usa
Ġesclu so
Ġinseri mento
ĠApp ro
Ġinterpre tare
Ġnavi gare
Ġapprezza re
Ġorienta mento
ric ulum
Ġportafo glio
Ġappai ono
7 2
g ru
o ff
Ġin ol
Ġla ser
Ġo pen
ĠP eso
Ġca lib
ĠD ona
Ġsp era
Ġpar chi
âĢĿ ;
Ġman dor
Ġcer chio
âĢ¦ )
ĠSan remo
Ġmolti ssimi
Ġnas cono
Ġinte sa
mu la
Ġado ttato
cilia zione
Ġdip into
Ġbilan cia
Ġpan china
Ġabband onare
ĠOri ente
ĠMaggio re
____ ____
Ġazzur ro
ĠUl ti
Allo ra
ĠPesca ra
5 1
E mi
b rale
d omi
f et
g allo
Ġg hi
po la
ĠE conomia
Ġho t
Ġsotto val
Ġdom ina
ĠPo wer
cci dente
Ġdiven ne
ĠZ ona
Ġam ante
Ġlimi tare
au ton
Ġpubblica te
Ġdata base
Ġstabili mento
Ġprofi tto
Ġinfer mi
ettato re
Ġdimenti cato
Ġsottop osto
Ġgradu almente
Ġyou tube
ccessi vamente
O n
p lina
Ġp iste
si bili
Ġsu ona
Ġl ento
tra to
ĠT ali
der ia
at trice
anto va
colo re
Ġaltro ve
app ello
Ġcollabo rare
Ġanti pa
Ġinvi tato
Ġchie der
Ġgri glia
Ġaccompagna re
Ġconce zione
Ġpromuo ve
Ġdecora zione
l Ã¬
Ġs menti
Ġri dere
sa le
vi ano
gg ero
ĠL O
sp ort
ĠT RA
Ġpar lo
lu sso
Ġco le
Ġchi usi
Ġto gli
Ġvo tare
ĠPa ss
lan dia
Ġsca tti
Ġspa ven
Ġcolle zioni
Ġfer mata
Ġnas cere
Ġacco glie
Ġ199 1
Ġcoper ta
Ġviol enta
Ġcondu rre
ĠAu gu
Ġface vano
Ġsape va
gran de
Ġebre i
6 2
g etto
o pposizione
Ġin utili
mi e
ran ee
con t
Ġno di
ĠCa ta
ĠCon ferenza
ghe tto
ĠMe ta
Ġsignifica tiva
impre ssione
Ġtraccia to
Ġristruttura to
" ;
ti bile
Ġsta volta
ĠB la
Ġli re
us er
Ġna tale
Ġlegg endo
Ġsoli tudine
Ġamm esso
Ġsci ol
Ġlan ciare
Ġimpegna ta
Ġprefer isce
Ġacquisi to
Ġcongi un
Ġdocumen tario
Ġ ente
Ġla ddove
ĠS che
vi lle
Ġma gico
ĠA meri
Ġsp en
ĠE serci
ba te
Ġver tici
ess or
Ġcar boidrati
Ġaff res
Ġpotre sti
ĠCi tta
tando si
Ġsoli ti
Ġfer mato
Ġecc le
Ġden sitÃł
Ġesclu sione
Ġconsul tazione
Ġassicu rato
Ġdiffon dere
ĠFia t
Ġsangui gna
Ġs mar
or ror
ci liano
Ġpar lar
ine si
ul lo
ven ia
gno li
bo ard
ba sti
at ten
ĠPro dotti
Ġsco pre
Ġuni re
ĠVi enna
ĠNa zioni
mon ta
Ġallo ggio
Ġvisi tato
Ġotti ca
Ġintegra re
Ġpelle g
Ġrile vanza
== ==
Bo ok
Ġasc ensore
ado zione
Ġcostu me
Ġassisti to
Ġse die
ss ini
pa re
zz ino
Ġindi ci
Ġatti ve
Ġforma ta
ane simo
Ġcapi tato
pen sa
ĠFa i
vole zza
ĠChi usura
Ġpron os
Ġsto p
Ġinclu sa
Ġinnova tiva
ĠMusi c
ĠValen tino
ĠTito lare
Ġproie zione
Ġstupe fa
8 4
P RE
b era
an u
ĠS tori
Ġb ran
ĠM ostra
Ġsp into
Ġcos me
etti vo
ĠLa u
ne si
Ġsa pre
vol to
ĠW est
Ġcir colo
Ġrego lari
Ġval utato
Ġstrada li
Ġconsul ente
Ġpartner ship
Ġcancella zione
Ġgiun ge
Ġocci dentali
e mergenza
k u
p si
p ul
Ġri chiamo
ĠF onte
ĠIn ghilterra
ĠPro dotto
Ġsin drome
Ġricor rente
Ġvideo gio
Ġins etti
Ġtorna ta
Ġtrasforma to
Ġimpie gati
Ġguada gno
Ġlie vito
Ġarchitett oni
Ġfasti dio
Ġcompar sa
Ġucc elli
s ele
ra ge
men tano
ĠC lo
ĠC OR
Ġcomp ro
Ġ- .
ĠIn sieme
Ġch io
Ġch iamo
une o
Ġon eri
Ġinforma tici
ĠFi glio
ppa to
Ġpron un
siste ma
Ġaffer mare
ĠCre do
Ġsosp etto
Ġvigi lanza
Ġrivesti mento
Ã³ n
Ġdebu tto
Ġintito lato
Ġorizzon tale
âĦ ¢
a utunno
ro ssi
âĢ ĭ
Ġg om
Ġsu onare
ĠL ED
Ġvi ttorie
Ġsp ot
ĠF ort
ziona mento
ĠPa ce
gia re
indi ce
Ġconf erimento
tati ve
ĠBo x
Ġrica mbio
Ġatten ta
Ġrispar mi
Ġresi stere
Ġcresci uto
f le
Ġa mati
in fer
Ġe tero
ĠL I
fi ciali
eri ca
gra zie
Ġat tenti
Ġsal uti
Ġlu g
Ġperio dica
Ġpreve dono
Ġaffron tato
Ġprom essa
Ġtute lare
Ġtru ffa
Ġcircos tanza
Ġflu ssi
Ġperman enza
ĠAssi stenza
Ġraffor za
Ġespon enti
ĠImma gini
Ġmetropoli tana
: "
N ess
n era
w ei
Ġe qu
Ġf ro
os s
Ġde bi
ter s
tti ti
Ġsta tale
Ġra mi
go gli
zz ar
Ġchi mici
ssa to
Ġdis ce
man n
Ġcomuni cati
ĠRa venna
fia to
Ġaffi data
Ġsopra tutto
Ġ199 5
ĠConsi gli
Ġfir me
ĠPoli tica
Ġdovre mmo
inten to
Ġverdu ra
Ġdiplo ma
Ġdomes tico
Ġintrapren dere
D on
k ti
x elles
er rore
ar y
ar gento
ĠP lan
da menti
Ġse m
Ġcomp rato
ba ma
ĠCa mpa
Ġgen u
Ġor ganismi
Ġspa ri
Ġcrea tiva
ĠZ u
Ġraggiun gibile
Ġterra zzo
Ġcuo ri
Ġstruttura li
Ġdiff use
Ġcoinvol ge
Ġistitu to
Ġpari tÃł
Ġtelef onico
Ġarre di
Ġrega lare
Ġpassi vo
Ġmuo re
Ġpreventi vi
ĠMana gement
botto m
4 00
A quila
Ġd ro
ci da
che ca
ĠD olo
ĠE conomi
Ġmi gra
ven gono
Ġgra fici
Ġes tin
Ġ5 1
sse gnato
Ġro se
ĠVi ce
ccio lo
Ġblo gger
Ġcoinvol te
Ġsegre teria
Ġann ulla
ĠTre viso
Ġdemocra tico
Ġanticipa to
ĠCir colo
Ġnascon de
arre do
Ġprio ri
tanea mente
Ġbenefi cia
ĠGabri ele
p es
on ante
Ġp le
re tti
ri mento
ro ma
zi ana
si de
Ġb esti
Ġre stri
Ġpre le
ĠD en
Ġsta vano
cc anti
Ġme la
Ġad dosso
Ġpri gioni
ven dita
ĠIn dia
Ġcor se
ĠCa val
Ġro om
Ġ6 9
Ġfu ma
Ġdes erto
usa lemme
ĠTra s
Ġrin uncia
Ġturi stiche
Ġappassi onato
ĠSil vio
Ġpreoccupa zione
ĠNove cento
cel lare
ĠTur chia
ĠDice mbre
sserva torio
Ġn ere
Ġri forme
Ġle gna
ĠE cc
Ġad de
cu re
ĠIn fo
Ġuni forme
Ġben zina
Ġdeci si
ĠDa i
Ġpe dia
Ġk W
Ġamm on
ĠGa ri
Ġamici zie
ĠNi ente
Ġvole sse
Ġnote volmente
Ġbru tto
Ġaccompagna ta
Ġres tando
Ġth is
Ġnews letter
Ġaiu terÃł
ĠUniversi ty
Ġm inis
Ġf lore
ĠP il
ĠI scri
Ġpi tto
uo co
ĠR enato
Ġco pri
Ġli ti
Ġba cio
Ġar monia
ĠIn dustri
Ġcre ano
ba t
Ġattra zioni
ĠNo v
Ġsenti eri
Ġpara grafo
inf luenza
Ġpsicolo gico
Ġottimi zzare
Ġpilo ti
Ġindivid uo
Ġmonu menti
tecni co
Ġlesbi che
Ġsubi re
ĠTuri smo
a ffer
h t
Ð »
Ġe mana
Ġre sidente
Ġpa tente
ne ws
Ġno ci
Ġai utato
Ġtro ppe
ĠCon di
Ġrin oma
Ġdimostra no
ttan ta
Ġcerti ficati
inte sa
Ġpericolo si
Ġpsicolo gica
Ġges tore
ĠDimen sioni
Ġrisarci mento
ĠRisto rante
A s
P C
S tu
Ġp h
in go
ra do
ci ti
Ġma is
ĠM ura
se gre
ĠF iorentina
tan ei
Ġall en
enta no
Ġfo od
ell er
Ġtrova ti
ĠEx po
Ġcompi lazione
Ġpur chÃ©
Ġbio logico
ĠGer usalemme
ĠPos t
form arsi
Ġauten tica
ĠUmb erto
Ġhard ware
Ġverb ale
A more
j u
n es
on ismo
Ġp alle
ĠI SO
zza tura
pa ci
gu sa
Ġco gnome
ĠQu attro
Ġprog ettare
isti tuzione
Ġten nis
ĠVi ene
Ġmedi ter
Ġnu do
Ġpreci se
Ġbelli ssime
Tu ttavia
Ġnote voli
ET TI
D alla
a mministratore
f ania
on cino
in d
in vito
li sta
Ġde pressione
ĠP ur
Ġca bina
ĠT era
ĠU tili
Ġven nero
ĠQu alitÃł
Ġvia le
Ġsal tare
Ġprodu ttive
Ġele vate
Ġpe per
ĠPre sid
Ġ11 0
IN O
Ġdie te
tran s
Ġatten tamente
Ġrega li
Ġcostitui re
ĠSca rica
ĠTh om
Ġza mpe
ĠðŁ Ļ
bin etto
ĠPers onali
Ġfla sh
Ġdott rina
Ġassor bi
Ġcroci era
Ġgiudizia ria
> >
p elli
t trici
ca st
Ġo l
Ġsu on
ĠS ia
bi co
Ġso tter
ĠD O
Ġtu bi
Ġter res
Ġprima rie
Ġpia zze
ĠRi cci
Ġmani che
Ġlega mi
Ġnu volo
ĠTe o
Ġdif ensore
Ġtipi che
Ġdistrib u
Ġtera pie
ĠWi ki
Ġarchi vi
Ġcontribu isce
Ġgiun gere
Ġrime dio
ĠSho w
Ġja zz
Ġstipen dio
ĠDV D
5 3
G RA
O ro
a zia
Ġc rono
Ġs teri
in contri
Ġda tore
Ġca de
Ġsta tus
ĠE ssi
ĠU fficiale
ge la
rin disi
Ġben venuto
Ġconclu sa
Ġincontra no
Ġforn endo
Ġversa mento
ĠNess uno
Ġverti ce
7 1
g lo
n ano
Ġs omi
Ġdi missioni
ĠS ingle
Ġnon no
Ġsta mpo
Ġgi uste
Ġvo tato
Ġser bato
Ġman dare
uta ta
Ġgiu dica
Ġdom estici
Ġinforma tivo
ĠFa tto
cen dio
Ar t
enso ri
Ġfal si
Ġatta cca
Ġpreferi te
Ġfed erale
Ġpreno tazioni
Ġdistur bo
ĠCH E
Ġaggiu dica
Ġriquali ficazione
? !
C erto
ci cli
is h
Ġan goli
Ġma de
Ġma ppe
Ġca vali
ĠD uomo
for nia
posi tion
Ġeli min
Ġnega tiva
Ġriguard ante
Ġdecen nio
Ġinqu ie
Ġtrasfer ta
soria si
H ai
S pe
T RE
p res
z one
Ġi vi
ci mento
al lar
ĠS ale
Ġle sioni
Ġma gica
uo te
Ġpa cchetti
Ġsp osi
Ġdo si
ĠLa bora
ĠCom i
ĠQu ella
ccia ti
ĠW hat
ĠW ash
Ġservi to
Ġw a
Ġcomple sse
ER O
gh eria
Se mpre
Ġarti ficiale
Ġtrova va
Ġcap su
Ġfrequ ente
Ġspecia lizzazione
Ġpotenzi almente
Ġsperi mentale
ĠRaga zzi
ĠLin k
Ġnarra tiva
Ġaugu ri
ĠAg osto
ĠCana da
Ġimprovvisa mente
Ġsof istica
I sola
r s
s tanti
in con
es or
men tazioni
do ve
Ġri va
Ġb reak
Ġma gli
Ġsp erare
Ġprodu cono
Ġvic ine
Ġoccupa to
Ġdip inti
Ġriten go
Ġmeravi glia
Ġcul ina
spe cie
Ġaggiunge te
Ġconfli tti
ller anza
ĠVir gilio
Ġrestitui re
Ġpatro cinio
6 9
g ane
i mb
Ġd anna
in one
Ġdel u
Ġle d
ĠP U
ĠF it
Ġad ia
erca ti
ĠCon ser
Ġ5 9
Ġpersona lizzazione
Ġcar tella
esco vi
Ġappro ssima
Ġarre damento
ĠPia cenza
ĠVa ticano
Ġapposi to
Ġenti tÃł
Ġspos tare
Ġsimpa tico
ĠCia lis
Ġguer re
Ġpreco ce
G NA
I ni
S C
T EN
Ġdi rlo
te se
Ġb r
da m
Ġca ute
Ġte ssi
Ġra dice
zz etto
lu ca
Ġno bile
ziona lizzazione
gn ante
ON O
Ġgo la
Ġfil mati
Ġabi tabile
Ġdeli cata
Ġcucina re
Ġrile vato
Ġmu tuo
ĠRos sa
Ġmone te
Ġmina cce
Ġelettro dom
ĠBru xelles
ĠGuar dia
Ġmeridi onale
Ġimmi grati
re f
Ġe tta
si te
Ġri preso
ĠA PP
ĠM E
ĠG enti
Ġsc u
per Ãł
Ġva si
tru zioni
Ġesp ansione
gn ese
Ġfar Ã²
inis mo
ĠMi che
Ġmar gine
omi to
Ġdeci se
ĠDo cu
Ġmolti ssimo
Ġconfer enze
Ġgaranti scono
Mi lano
Ġscienti fici
Ġconfor me
Ġconfi gu
Ġpercen tuali
Ġguari re
Ġsemina rio
Bu on
Ġmisce la
ĠRaffa ele
Ġs tereo
Ġdi la
Ġin determinato
Ġla na
Ġg ar
et nam
ve gni
ĠD eli
Ġpa vimenti
ĠT ed
Ġte s
Ġ20 20
esso rato
ing er
Qu anto
Ġnos tal
Ġdis tra
Ġpersona lizzati
Ġpia stre
Ġfu tura
Ġinforma to
ĠRo bert
Ġforni tore
Ġinten sa
ĠTe mp
Ġgro ssa
Ġapparten gono
Ġgiuri dico
Ġvege tali
Ġsv uo
Ġdegu stazione
ĠLet tera
ĠCatego ria
T TI
in anti
Ġcom me
ter ina
Ġpo vero
ĠE ssa
ul sione
Ġav vocato
Ġsa lotto
Ġor gano
Ġpun tate
Ġfo gli
Ġsotto stante
Ġinc er
ĠUn der
Ġele ganza
Ġconten to
ĠZ an
Ġpra ti
ĠUni te
tar ne
Ġstudio si
Ġada tte
Ġset tentri
ĠIN TER
Ġann ul
Ġrega lato
Ġemer gere
Ġmacchina ri
Ġsovra pp
ĠSuper iore
Ġoccup ano
Ġbron zo
Ġpanta loni
A ustria
p arte
Ġd uo
Ġdi to
or s
lo sa
Ġpre gio
Ġvi genti
ĠE venti
Ġra dia
âĢĿ ).
Ġ- -
Ġdisp osti
pre ssi
Ġten tare
Ġ7 2
ĠLo u
Ġag ro
Ġevi denti
Ġvin coli
Ġfavo la
Ġsan zione
ĠEn zo
ĠCri stina
Ġespre ssioni
ĠDis poni
Ġconvin ti
Ġobbliga torio
Ġaumen tando
Ġfavori sce
inca rico
Ġrestitu zione
Sco pri
ascol to
Ġcarbu rante
A C
F o
on ista
Ġi mbara
Ġcon sole
Ġal tern
Ġche ck
ĠI RIS
Ġsp ettatore
con tinua
ba y
Ġser eno
tt oni
Ġsca tto
In fatti
Ġchia mano
Ġcrea ti
Ġtele com
Ġesi stere
Ġblo cchi
Ġdia bete
ZI O
Ġrica vi
Ġcontempo ranei
ori ginale
ĠProvin ciale
Ġavanza te
Ġsottop osti
Ġaffas cina
Ġpizzi co
Ġsereni tÃł
m esso
Â Ķ
Ġal gorit
men tando
Ġri sta
me o
Ġpos teriori
Ġta vol
Ġta sche
Ġga la
In somma
ĠMon da
Ġov est
ĠEdi tore
Ġcristi ano
Ġliqui di
Ġspagno la
Ġere di
Ġsostan ziale
Ġpole miche
Ġrec esso
Ġcera mica
b are
k top
Ġa cci
in ing
ra bile
ca pi
Ġo k
Ġre mo
du rre
Ġco a
Ġav vis
Ġdov rai
Ġdiven tati
Ġban ale
Ġperf etti
pu tato
Ġgratui te
Ġvari ante
Ġbra vi
Ġelet tori
ĠGiu liano
Ġpuli re
Ġspeciali sti
Ġriser vati
Ġpeggio re
Ġapposi ti
Ġritor nare
Ġcusto dia
P ri
g anda
p lice
re zione
Ġdi le
Ġf el
so lu
ĠI mmo
ga li
ĠT an
Ġli st
ĠU e
ĠCa mere
Ġassocia ta
Ġsinda ci
Ġcollo quio
Ġlava ggio
Ġintrodu rre
Ġaccessi bili
ĠContro llo
ĠOs car
Ġinevita bilmente
investi mento
disci plina
B C
S enza
c etti
i di
Ġp rato
la va
te xt
os sa
al terna
ĠP olo
ĠP onti
da bile
ĠA do
ĠA mbi
ĠA mministra
ĠM ur
Ġpo dio
Ġu sc
ĠN etwork
Ġmo ra
Ġinter i
pe i
ĠPa dula
Ġstra na
Ġel etti
Ġopera tive
Ġmedi che
Ġora mai
Ġsoli do
av viso
ĠVer gine
ttan ti
ĠOr ganizza
spe dale
ĠÃ ĥ
Ġritra tto
ĠðŁĻ Ĥ
k m
m etra
o cchiata
Ø §
Ġp esa
li se
Ġm ele
so dio
ĠS rl
vi ti
Ġco ver
ĠO N
Ġes tensione
cqu e
Ġro ba
ĠAn no
ĠSe x
Ġprog resso
Ġscri vo
Ġcolle gare
Ġconte sti
Ġstruttura le
Ġinseri te
IC E
Ġmala ti
Ġdestina te
Ġcorri ere
Ġsper anze
Ġcolon ne
Ġdecora zioni
Ġrit mi
Ġferi te
Ġraffor zare
Ġfum etto
Ġdiso ccupazione
Ġbisco tti
y le
Ã §
Ġp soriasi
Ġdi mora
li mi
Ġcon sistente
Ġri dotti
bi e
cia te
pa to
Ġti more
ĠMa d
Ġcor ona
Ġric omin
Ġscri vendo
Ġarri vi
Ġqua ttor
ĠLi ceo
stica mente
ĠBo ok
Ġindividu ato
Ġcorri do
Ġordina to
bur g
Ġtermina le
pto val
S ulla
b on
el ing
an ello
Ġcom mentato
ĠA f
Ġre cita
Ġpi la
Ġfa x
ĠT I
Ġu di
Ġ- ,
rin ten
Ġho c
Ġinc ante
este tica
Ġcompa gna
Ġinte stina
atti vazione
len co
ĠMan uale
Ġgaran zie
Ġcomo damente
Ġallar me
Ġterrori smo
ĠSE O
P al
b ul
n or
u al
ro sa
ĠS tella
ch t
ter bo
ĠV elo
Ġpos tale
ĠIn ser
Ġti rare
ĠMa ra
ĠMa io
ĠRe gis
col le
ĠDo v
Ġporta voce
Ġappro vazione
RI O
Ġge m
zion isti
Ġleggere zza
Ġstabili sce
Ġrifle ssi
Ġsper iamo
Ġsepa rati
ĠStra da
Ġogn una
Ġlegis lazione
Ġelabo razione
we et
ĠiP ad
Ġgeo grafica
ĠEntra te
ĠAngel es
ĠJe an
Ġcuri oso
a mb
b ene
u tando
ĠP oste
ĠD iego
Ġvi vendo
ĠB ran
ss u
Ġdo ppi
Ġav essero
ĠIn n
Qu est
fa ult
Ġcomple tato
ĠMon ta
ber ta
Ġrice zione
Ġfos si
Ġann uo
Ġreali zz
ĠMol te
ĠFe mm
Ġaere i
Ġabbra ccio
T AN
o th
Ġs gra
ro si
ni ca
cia ti
ĠF ood
Ġta dalafil
Ġvol ere
ĠH ard
Ġcons en
Ġvita mine
stitu te
Ġfina lizzato
Ġsegna lato
Ġconsul tato
Ġinca rica
Ġvali di
Ġestre mi
ĠCli enti
ĠLib ero
Ġsosp eso
ĠBr un
Ġbon tÃł
ĠGol d
alb ero
Ġportati le
Ġiner enti
Ġparru cchieri
H I
P urtroppo
er t
li che
Ġla mp
Ġb est
vi glie
ĠF ontana
pi ano
zz onte
ĠU RL
ĠO f
Ġvo cazione
Ġchia rire
Ġ14 0
Ġmedia mente
Ġge lato
Ġsfru tta
Ġsfru ttando
Ġscio pero
ecc ellenza
Ġmeda glia
ĠCatto lica
f esa
w o
Ġcon sa
Ġle tture
Ġpa ure
ĠE co
Ġav ente
gna ti
col la
Ġconos ciamo
Ġposi tive
ĠNo te
app rendimento
bbi e
Ar ri
Ġdistin gue
Ġcolla na
Ġuniversi tari
Ġbotti glie
Ġfrui zione
ĠWash ington
M P
b ria
v este
Ġc essione
re o
ti l
ĠS torie
ĠA la
ni e
Ġso gnare
zza tori
Ġ6 6
Ġcu ci
mon do
Ġtras cu
ĠCo opera
Al cuni
Ġcolo rare
enne sima
unica zioni
Ġesegui ti
ĠEdi zioni
Ġconquis tato
turba zione
Ġcenti metri
Ġfrigori fero
ĸ Ī
un ga
ĠC C
Ġde biti
cc orre
gu erra
Ġtro verÃł
mpi anti
pre si
ane si
ton ia
Ġ0 2
all y
Ġlavora tivo
Ġblo ccare
Ġguida te
Ġdif ensi
Ar chi
Ġdisa tti
ĠItali ane
ĠSil via
Ġringra ziare
Ġceleb razione
Ġpomo doro
C la
Ġ zio
er ba
Ġs esto
Ġi bri
Ġin gran
Ġun der
Ġsi ld
ĠL EG
ĠG ard
cio Ã¨
Ġmon di
Ġcan cellare
ĠMo ro
ĠDa rio
Ġconten uta
Ġmedia zione
Ġ199 3
Ġreli giosi
Ġeli minazione
Ġtrov arsi
ĠPas cal
ĠPas qua
ĠAt tualmente
Ġstimo lare
Ġdidatti co
Ġripren de
Ġesten de
Ġidra uli
Ġripri stino
ĠTomma so
d ante
m Ã²
v ania
Ġs anto
Ġp anno
Ġm etto
Ġin fil
ĠC V
ĠS nea
Ġan sia
ĠA mbiente
ĠA ustralia
Ġpa ren
Ġinter c
Ġprima rio
gia ti
Ġforma tivi
alizza to
inter essato
tten do
Ġag ente
Ġ16 0
Ġpare ggio
Ġdia rio
Ġur gente
200 5
Ġlibera zione
ĠGen erali
Ġconcor si
Ġcolpi re
ĠDEL L
ĠSlo venia
8 1
c chÃ©
om en
ĠC y
ĠS erra
ĠS anitÃł
ĠT est
Ġte x
Ġli ceo
cu razione
ĠU V
Ġchi use
ĠPer chÃ¨
Ġrisp e
ĠRi ch
Ġcan oni
Ġos s
Ġten tato
Ġinc lina
Ġcri terio
ĠSa u
ĠSa int
Ġopera to
Ġaffi lia
cche tta
Ġov vio
Ġinclu dono
Ġbru tta
Ġricev uta
Ci Ã²
Ġmodifica zioni
Ġmorbi de
Ġcontrolla ta
ĠCultura le
ĠQual che
Ġsore lle
Ġflessi bile
fran co
Ġparadi so
ĠCali fornia
I tali
c ette
ra ra
li ana
Ġv ano
qu anto
Ġal trui
Ġma ke
ĠM AR
ĠI sa
fi li
Ġsta tali
Ġsta sera
sta r
Ġco cktail
Ġcor ti
Ġen d
Ġman da
ĠAl cune
Ġcli ent
Ġlega litÃł
Ġforni ta
Ġconsidera te
Ġconfron tarsi
Ġpresta re
Ġraff inato
vid uo
Ġstrani ere
ĠSci enti
Ġversa tile
TU RA
Ġnascon dere
Ġcoer enza
Ġvicin anza
ĠAff ari
ĠBamb ini
Ġcarre llo
Ġdistingu ere
O ri
ti to
lo c
al lora
Ġfa c
po i
gi bili
sc ere
zzo li
Ġver te
Ġve la
ĠAl tro
Ġpen na
ER I
au trice
Ġcompi lare
ĠHo use
Ġinvesti to
Ġaffron ta
Ġcaratteri zzano
Ġreli gioni
Ġom olo
Ġorgani co
ĠVen erdÃ¬
Ġallena tore
Ġtransi to
ĠES HA
Ġpala zzi
Ġroton da
A A
Ġe p
es tensione
qu indi
Ġre tta
Ġre gina
Ġfa cciano
Ġci tare
Ġlo gico
zz etti
ĠIn s
Ġcol p
ur s
ĠLe one
Ġes teri
Ġallo ggi
Ġer ba
Ġmusi che
ĠTi m
Ġfini ture
Ġfisi camente
Ġado ro
gom b
Sal ve
Ġfunzion ano
Ġcalcia tori
Ġnipo te
Ġindimenti cabile
Des crizione
Ġlacri me
Ġsild enafil
C as
u gurazione
v orno
en tino
Ġdi viene
el s
so l
Ġo pposizione
ĠS li
Ġsi m
ĠA bruzzo
ĠM ercato
se a
Ġpre ziosa
ĠG as
Ġsa rai
il ler
ĠK ing
Ġcli mati
Ġpotre i
cchia re
Ġarti stiche
tar la
cin ia
Ġorigina rio
Ġprocesso re
Ġtal enti
Ġmal grado
Ġinvia ti
ĠPas quale
Ġtrasm esso
Ġucci dere
Ġavanza to
ĠStra te
ĠFe bbraio
ĠVin ci
Ġrientra re
Ġmonito rare
Ġcoopera tive
Ġpall one
T F
e tiche
i ra
Ã ±
et tori
Ġma c
ĠV as
Ġchi li
Ġsa ga
Ġacc use
Ġes tero
Ġesp oste
Ġro tazione
ĠRe gina
Ġsen su
edi lizia
Ġele mentari
Ġsoli ta
Ġvin tage
Ġsegna lazioni
ĠCas sa
Ġproce de
Ġdisc orsi
Ġpassi oni
Ġmos tri
Ġaffa ccia
Ġriuni oni
Ġfia mma
Ġreligi ose
Mol ti
Ġpru rito
Ġdiagnos tica
i talia
t ner
zi ani
Ġin tere
al th
do po
Ġsu rre
ĠC is
Ġma trice
Ġpre da
ĠG alli
ver sione
Ġra di
Ġra me
ĠN E
ĠN et
go lari
Ġmo zza
pi co
Ġcomp enso
Ã© e
Ġpres er
ĠW ord
Ġcar dina
Ġinf edele
Ġcri ticitÃł
Ġgo ogle
ĠGa ran
Ġcro ss
Ġgiudi care
Ġcas ino
ĠServi ce
Ġpromo zioni
Ġmanu ali
Mol to
ĠBea ch
Ġpasto rale
Ġbattu te
Au toritÃł
Ġricostrui re
ĠMonda dori
7 4
S P
Z E
b ana
Ä ģ
un da
Ġin gan
ĠS AN
Ġsi te
Ġfa shi
ĠG arda
ĠB is
ĠF O
ss ere
Ġba st
Ġfi umi
Ġchi miche
ĠCa sti
ĠCa mer
Ġro ccia
Ġcar tone
Ġgiornali era
aren za
Ġbat tuto
ĠRom ani
Ġartigi ani
Ġosserva zioni
Ġdeten uti
Ġassegna ti
Ġesemp lari
Ġcere ali
li zione
an sia
Ġcon o
Ġg h
tu p
ĠF ini
pi ti
Ġav vocati
Ġinter faccia
Ġno do
Ġto glie
ĠCom missa
ĠRe ad
Ġ6 2
Ġcomple ti
ĠVi va
Ġarri cch
tr inge
gh erita
Ġsare te
Ġis tante
Ġparla va
Ġbelle zze
morroi dal
Ġsm esso
Com unque
Ġrisa lire
Ġacquista ti
Ġaumen tano
Ġfidanza to
Ġcora ggi
ĠMona co
Ġagis ce
ĠMontal bano
P e
d eri
g uo
in ando
Ġe u
âĢ Ķ
os sid
Ġpro li
Ġpro vi
Ġse dute
Ġca mpe
ĠA h
sp etto
ĠD y
Ġsp ro
ga bile
ĠR EG
Ġsta ge
ĠB ona
ul teriore
ĠV ista
du ra
âĢĿ ),
Ġimp osto
Ġvo lante
Ġbi g
Ġbi mbo
Ġpen ali
ĠSan dali
ĠFran k
Ġvin colo
Ġbar riere
Ġpubblici tario
Ġtess era
Ġdip arti
Ġvisualizza zione
Ġcosid detti
Ġcambi ano
Ġsacri ficio
Ġalco lica
ros inone
Ġbatter ie
ĠTech no
morroidal ny
I ran
l ente
p ha
r di
z y
el mo
Ġm enti
Ġi roni
Ġin vernali
es clu
Ġcon dotte
Ġri val
Ġcom andi
ĠA b
Ġsp un
Ġsc reen
etti le
Ġfi gu
ĠMa de
cca bile
ĠLe vi
ĠMi ra
Ġatti vazione
Ġinf ezioni
Ġstan do
Ġtele camere
stra zione
Ġcio tola
Ġconsu mare
Ġpsi chi
Ġrep eri
ĠBe ppe
Ġverifica rsi
Ġcur ve
ĠColle gio
ĠWi Fi
Ġcoltiva zione
ĠBre tagna
Ġauten tico
6 1
P res
l enza
l endo
Ġdi visa
Ġm inistri
Ġin es
Ġf rom
Ġper o
Ġg olo
ĠA cciaio
fi ce
Ġvi bra
Ġpar ty
pi ca
ĠCon ten
Ġau mentato
omi co
An gelo
ide ale
ĠOr dina
Ġcerti ficata
Ġscoper te
Ġristo razione
Ġtur bina
Ġdiv ina
ĠFer ro
Ġcur riculum
Ġvet ture
Ġconsiglia bile
Ġtorn ano
Ġcompli cato
Ġabili tare
Ġfili era
Ġopp osto
Ġfasti di
Ġpreli minare
Ġapparecchia ture
intelli genza
Ġmozza fiato
to le
Ġe sis
Ġal z
di ente
Ġma tera
ĠR un
ĠB ul
ĠU M
cco li
ziona ri
Ġven a
Ġw in
Ġinforma tico
Ġsuper ficiale
ĠAr re
ĠPre zzi
ĠFi re
Ġamm essi
tere mo
Ġfis sare
Ġamministra tore
ĠVia gra
Ġfrequ entato
Ġrifle tte
Ġridu cendo
Ġemer genti
impor tant
ĠGe orge
Ġprofon de
Ġcurio si
Ġsemina ri
Ġsv anta
Ġriper cor
Ġdefici t
C ar
F ra
K EA
d Ã²
Ġp anna
le i
Ġcon no
Ġri ta
Ġl ente
is t
Ġre f
gi ani
Ġcos t
ĠCa pacitÃł
indi cazione
Ġcar ni
Ġconc omi
Ġinf anti
Ġcal colare
ĠNa tional
Ġcri tici
ĠSo ciali
Ġlavora tivi
RE A
Ġfini tura
Ġge morroidalny
ĠAd ulti
ĠPoli cy
Ġsviluppa ta
Ġcata stro
Ġdesider ano
Ġinsegna mento
Ġcoer ente
Ġsh ort
cade my
Ġpneuma tici
e mozione
h ol
i ono
s anti
Ð º
ti ssimo
Ġdi r
ri st
or ri
Ġqu e
ĠS IM
Ġre ttan
fi eld
ĠT anto
ul tati
ĠO bama
for d
Ġva so
Ġfare mo
Ġuni te
Ġ8 1
Ġoff ensi
Ġorganizza tori
Ġaggiun gono
Con si
EL LA
Ġlettera rio
Ġregola menti
Ġir ra
Ġincre mentare
Ġprovo care
Ġstrani ero
Ġoro logio
Ġpaesa gg
Ġdele ga
Ġrichia ma
Ġinterven uti
Ġmul tina
Ġetiche tte
Gran de
aggiun ta
R U
h u
s ki
Ã Ĺ
Ġm isto
Ġla scio
mp er
Ġsi gi
Ġca cao
Ġre st
fi lo
Ġlo w
Ġcontro ver
Ġ7 8
ĠNa vi
Ġveri ficato
Ġinten zioni
rere bbe
Ġfol le
Ġeduca tivo
Ġdenun ciato
Ġreper torio
Ġspet tro
ĠGari baldi
H z
V C
Ġa cidi
in elli
an ne
Ġin vo
ia to
Ġpro viene
Ġma lato
Ġpo vera
ĠD IS
ĠR IS
con osci
Ġgi rato
Ġsc eno
Ġcor da
Ġpor tali
ĠCom m
indi viduo
ĠÂ ĵ
Ġsal vata
ĠK g
ĠMo di
eli minazione
ĠLo di
Ġcompi e
Ġero i
mmi grazione
Ġritro vo
Ġritro vato
Ġdiscu ssioni
Ġgeni tore
Pro prio
Ġdovre te
Ġesegui ta
ĠCro azia
ĠFin anzia
Ġocc or
Ġstamp are
Ġsugger isce
Ġcalcia tore
ĠBarba ra
ĠAdi ge
Ġragg ru
D U
M on
T TA
c eno
la vori
ol ino
Ġma dri
Ġmo vi
ĠV uoi
tt le
Ġchia cchi
ĠVi gi
Ġpe cca
Ġvisi tatore
Ġsvilu ppi
ĠRo y
Ġcommer ci
Ġinvi ando
200 4
Ġstrate gico
Ġcompon gono
Ġspia ce
Ġpartecip ano
Ġsess anta
Ġmangia to
Ġapparten ente
Ġricord ano
En te
Ġcatto lici
Ġfit ness
A I
S U
e do
e conomi
Ġ eri
Ġs bor
Ġa mpi
in co
Ġdi va
Ġper ple
ar tico
ma ssa
Ġri sie
va tori
gli ese
ĠM ale
Ġpre via
ver de
tori ca
Ġall ontan
Ġdu ri
Ġdire tte
ĠSe basti
Ġquali fica
Ġforma ggi
ĠPro ce
Ġprodu ttivitÃł
esi ma
Ġgia ppone
Ġvari cose
ĠTe x
Ġis tan
Ġinizi ali
Ġaccesso rio
Ġdedi care
Ġgro sse
Ġnega tive
Ġinsegna to
Ġluci do
Ġesti vi
ĠLin ux
Ġdimin uisce
Ġvigi li
epi sodio
Ġdri ver
T ÃĢ
p ine
Ġi mi
Ġv eli
ar ca
men e
Ġpro ver
Ġpa ge
du a
Ġgen io
Ġcer chiamo
In forma
Ġtras lo
Ġfe bb
ĠMe glio
Ġweb cam
Ġcampi onati
Ġfarma ce
Ġprom esse
Ġgiudi cato
Ġavre mmo
Ġpromo zionale
Ġinterpre ta
Ġom bra
don ia
Ġfres chi
Ġdemocra tica
ĠMare mma
illu minazione
aly tics
Ġfedel tÃł
, ,
Ġs n
la tion
Ġdi venti
Ġm ess
al ba
sa ta
ĠP unto
ĠM io
ni ci
Ġso gna
Ġ( -
ĠD ri
ten o
Ġtu mori
ĠF ord
ĠV orrei
Ġcol oni
Ġven ditore
Ġindi cano
ĠQu ale
Ġcontra ttuale
Ġedi trice
Ġspeci ficato
ĠUni one
Ġpiano forte
An dre
ĠIN F
Ġrive dere
Ġglo ria
Ġrisol to
Ġteo rie
Ġsfor tuna
aff ari
Ġvice versa
Ġbas terÃł
Ġguari gione
Ġcinemato grafica
Ġferrovia ria
ĠSare bbe
O vviamente
b ello
lo tti
qu attro
ĠC ronaca
ĠS w
ce dente
de la
Ġtra pi
ĠT E
tori al
Ġta ba
Ġesp or
ĠW hite
Ġz anza
ĠSa vona
Ġline are
Ġnas tro
Ġsenso re
Ġ' '
Ġpresen terÃł
Ġamministra tivi
Ġacca tti
Ġtar ghe
Ġmos sa
Ġvet rina
Ġsequ estro
Ġaccusa to
ĠQua lora
. Â»
7 00
< /
T P
c elo
f io
g r
g ana
u ccio
en ger
la ni
Ġin vali
ĠC AM
Ġma cchia
Ġca mer
ĠI t
Ġ( "
ĠR ia
Ġte ori
Ġlo gis
ĠE vi
ĠV es
ĠPa rola
ur t
ĠSi racusa
Ġstru mentali
Ġlu po
lla ta
ĠPo tenza
mis si
Ġorganizza te
Ġrile vare
Ġcondu ttore
Ġinti mo
Ġdep utati
Ġcompati bili
Ġsopravvi vere
Ġsinte ti
Ġvul nera
Ġboni fico
Ġripos are
Emi lia
s inistra
Ġs tro
Ġs ena
li to
Ġin soli
so tto
ch eria
Ġsta tua
gi menti
Ġno bili
per chÃ©
via le
In dia
Ġmar gini
Ġspa da
Ġdiven terÃł
Ġmin or
ll ino
Ġpren dersi
Ġsignifica tive
Ġblo ccato
ĠVer di
zion ando
Ġpratica re
Ġmisura zione
Ġimpa zzi
Ġturi stici
Ġconn esso
Ġfal se
Ġartico lazioni
ly wood
Ġordina rio
quisi to
Ġforn iscono
Ġdina mico
Ġeletto rali
ĠVe cchio
we en
Ġadi das
ĠBatti sta
Ġraffi gu
ĠDie ta
ĠWillia m
Ġfashi on
A uto
m un
Ġ endo
Ġdi visi
Ġper pet
Ġsu pporti
fi chi
Ġfa cc
Ġra ra
ĠO S
um an
Ġto ll
Ġquali ficato
ĠPo tete
Ġclassi ficazione
ĠLu ce
Ġvic enza
ĠTi me
Ġanima zione
Ġconn esse
Ġpensa vo
Ġcomo di
Ġriser ve
Ġdebole zza
Ġconsegui to
Ġgradua toria
Ġsmalti mento
Ġrisca tto
I TA
P OS
d ello
g ena
o ter
Ñ ĥ
Ġd omi
Ġf ull
ma ttina
ĠS ali
ĠP osi
ĠP hoto
sp or
Ġvi viamo
ĠIn gle
ziona ta
Ġcor de
der la
Ġver sare
ge te
fa to
Ġcar d
Ġten sioni
Ġ7 6
Ġvisi vo
Ġcrea tivi
Ġmolti ssime
ĠLu ci
pro duzione
Ġgaranti ta
Ġconvin cere
ĠAv ellino
Ġrispetti vi
ĠNatura lmente
ĠSicu ramente
Ġsfu ggire
Ġpeculiari tÃł
auton omia
P os
u ca
Ġs anta
el ia
Ġe vangeli
di glione
ĠS um
ĠA nalisi
se mpre
Ġh el
ĠR ose
Ġsta vo
ĠT esto
ĠV ediamo
ggi anti
Ġgio cando
Ġatti vato
Ġos ci
ho w
ĠBa gno
Ġcrea zioni
Ġpra ssi
ut y
Ġgia cca
cra ina
ĠY a
Ġtesti mone
tenzi ale
Ġriconosci uti
Ca sa
Ġcomplessi vamente
Ġumani tÃł
Ġdesidera to
Ġsposta mento
Ġfasci smo
Ġchied iamo
Ġconcer ne
ĠLiber tÃł
Ġvergo gna
Ġveter ina
Ġetta ri
, "
c rea
c ted
i cona
ti tle
Ġe po
Ġi cone
Ġv ellu
ci t
Ġo dio
Ġan tis
ch en
Ġse ggio
tti a
ĠG A
sta t
Ġdu re
Ġro s
Ġquali ficazione
Ġ6 1
Ġsal do
Ġfin ta
fer ia
Ġgesti ti
ĠNo tizie
Ġinte grante
Ġotten endo
Al tro
Ġbian con
Ġautori zzati
Ġgioca ttoli
Ġcoinvol gente
Ġfir mata
menta rsi
Ġ198 9
Ġsaper ne
ave va
Ġcinqu anta
ĠGiar dino
Ġcombatti mento
T V
b lu
d anno
h an
r erie
Ġs y
al ga
Ġsi ciliano
ch eremo
Ġsp in
ĠR y
ali zione
Ġra ri
pa ss
Ġgra v
for se
Ġrisp etta
ĠAn gela
Ġau la
ĠK en
Ġorganizza tiva
Ġru ssa
An tonio
Ġcorre ttezza
Ġbra va
Ġesclu dere
Ġcro llo
Ġpiace voli
Ġdevi ce
Gi Ãł
Ġocca si
Ġradica li
gos tino
Ġdomin ante
Ġintrodu ce
Ġpredisp osizione
Ġdista cco
Ġvide os
Ġsacerdo te
ĠMeto do
Ġmil f
A ssi
G en
Ġdi si
ri ci
Ġper d
et tu
ĠS tor
ĠS MS
Ġsi gni
Ġan om
Ġma iale
ĠM antova
ĠI eri
ten eo
Ġpos tura
ĠU p
Ġapp eti
sc reen
Ġto mba
Ġacc eso
Ġmen tali
Ġlegg eri
Ġsop ran
Ġgenera to
Ġk e
ĠBi r
pro f
Ġquad rati
Ġintro duzione
Ġgro tte
Ġapprofon dimenti
Ġsho p
Ġintera gire
Ġgiusta mente
Ġpsicolo gia
Ġinfini te
Ġconcer n
Ġscanda lo
ashi on
n one
} @
re lli
ra tori
ar ning
Ġri belli
Ġb rescia
sa te
vi era
Ġma fi
ĠM ul
gi ana
ĠIn c
us t
etta gli
ba i
ĠCom pren
ccia te
Ġsvi zzera
gua glianza
Ġconclu sioni
Ġzu cca
Ġestra zione
Ġestra tti
Ġespri mer
Ġadegua tamente
ĠLib ia
Ġarchite tti
ĠJu ve
Ġvilla ggi
Ġviss uta
Ġcamp er
Ġviva ce
Ġavver rÃł
Ġcarb onio
Ġseria mente
Ġaccre di
sele ct
? .
O li
P arte
u gh
er y
Ġs tring
Ġa ri
la na
le o
es chi
Ġri un
mo la
mo ria
mo der
Ġca sse
ga me
ĠG innastica
cu e
ĠLa urea
Ġgra devole
Ġvo lare
Ġindi cando
mpi co
Ġdove vano
Ġuni to
Ġmis ter
mar lo
Ġpra tici
Ġperf ette
Ġcausa ti
au torizzazione
Ġsap endo
ĠVia le
ES TI
Ġdigi tal
Ġrapi di
Ġj e
Ġopport una
ĠSc uole
Ġcari care
Ġfol lia
Ġpian ura
Ġferi ti
Ġcontatta rci
Ġsar Ã²
Ġaccura tamente
eto oth
ĠSegre tario
ĠWal ter
Ġimbo tti
Ġdispia ce
ĠThom as
Ġcon viene
Ġsu sse
ĠC ann
ĠS chia
Ġca li
Ġpre mere
ina ugurazione
Ġimp eria
ĠCa vali
uti che
Ġfar f
ĠSe xy
âĢ¦ ..
Ġmar rone
ĠVi etnam
ĠSa cra
Ġass unzione
esi mo
Ġlascia ta
Ġaggiorna re
gri tÃł
ĠDEL LE
Ġecce zionali
ĠFin anza
Ġimpedi sce
Ġsuppor ta
Ġsequ estra
ĠGri gio
Ġintelli genti
Ġagri colo
Ġfidanza ta
aller y
Ġabitua ti
Ġadd omina
Ġmatri moni
Ġodier na
7 9
: âĢľ
G ia
V al
Ñ ı
Ġd etti
Ġd ette
en orme
Ġdi amo
Ġdel ine
or n
Ġla l
Ġre in
ĠR in
tre ss
Ġimp ar
Ġinter viene
Ġto ccato
mma tica
Ġen zi
Ġpen isola
Ġga me
Ġbu co
Ġentra no
ut ine
unta in
Ġanti ossid
Do ve
ĠCos enza
Ġconcentra to
Ġinstalla ti
Ġpropon endo
Ġriserva tezza
Ġgenti li
Ġidone i
Ġcami on
Ġbritanni co
Ġavveni menti
l Ãł
m ista
Ġa mata
âĢ ³
Ġv etta
Ġcon torno
di mensi
ĠS ettore
ĠM use
ss ino
pa ta
Ġcomp one
ĠMa j
rin k
In tanto
eli er
tis h
Ġgo cce
Ġ0 4
Ġesi to
Ġotten uta
ĠBi bbia
Ġni do
Ġcomune mente
Ġiscri versi
Ġimm ersi
Ġbio logica
Ġregola bile
Ġscom m
Ġripor tata
Ġadegua te
Ġbol le
Ġapposi ta
disp lay
ĠBene vento
BI LI
Ġcomun ista
Ġsalva guardia
Ġmagistra ti
Ġaugu ro
Ġcasu ale
Ġrigoro samente
Ġmetaboli smo
esor dio
) {
V IS
f la
m q
m elo
t ha
Ġs b
Ġs bo
Ġa uti
ta in
ri ti
le ggi
Ġm osa
qu al
qu esto
za ta
is pi
vi do
ĠA lice
Ġtra tte
ziona te
Ġdis funzione
ĠH en
Ġprodo tte
col ta
Ġlun gom
Ġpartico lar
Ġprodu ttiva
Ġbiso gn
Ġmolti plica
Ġamm issione
ĠZ ero
ĠSp ero
Ġpote vo
Ġcuo io
Ġstre tti
.... ....
ĠCol li
Ġcaratter istico
Ġfemm ina
Ġabband on
Ġinsegna re
ĠAng eli
Ġelabo rati
rur gia
Ġpropon gono
ĠMod ello
Ġprofon di
Ġvege tale
Ġdenomina to
Ġdenomina ta
Ġcrimina le
fis so
Ġcandida tura
E le
a usi
d omin
e men
v etti
Ġdi ca
ro tta
Ġv es
al bergo
Ġsu fficienti
Ġfa gioli
Ġpa es
Ġsp ingere
ĠT ok
Ġlo co
Ġlo tto
sti to
ĠV ini
ĠV ie
Ġw ire
ĠK ong
ĠFi r
Ġfil tra
ĠCas tella
Ġgiudi zi
Ġprovve dere
ĠNuo vi
Ġap eri
ĠMich el
ĠAlessand ria
Ġpie ghe
Ġres terÃł
Ġinser isce
Ġaccer tamenti
ioren tino
Ġentu sia
Ġdifferenzia ta
Ġmaturi tÃł
ĠImmo bili
a c
a cca
Ġd onare
om bo
Ġri mp
Ġpro posi
Ġca zzi
Ġso ggiorna
tri o
Ġsc re
Ġga mb
Ġconf on
ĠVi ttoria
ho o
ĠPi etra
Ġdiven ire
ĠAr che
Ġcrea te
Ġ12 5
Ġveri fiche
Ġsci vo
atti vo
ĠVal utazione
ĠFo ggia
Ġarre do
Ġarre dato
Ġpoe tica
Ġpreferi ta
Ġpresti gio
Ġguada gna
Ġmoni tor
Ġfissa ta
Ġrilascia ta
Ġconven zioni
htt ps
Ġconteni tori
Cre do
Ġprestigi oso
Ġriparti re
ĠDigi tal
Ġcroni ca
Ġpropa ganda
a go
e laborazione
z ini
en sione
la ro
ri gi
Ġe go
ĠS mi
ĠP alla
bi ca
Ġse cchi
fi la
Ġpa vi
Ġto ol
fa ti
Ġquali ta
pre zzo
Ġcri ptoval
Ġprodu ttivi
vis or
taria to
ph y
Ġinteressa ta
Ġosser vazione
Ġoccupa ti
Ġsupera mento
ori zzonte
ĠVo glio
Ġseleziona te
Ġap rono
Ġinn al
ĠPos sono
Ġimprendi toriale
Ġsape vo
Ġvege tazione
Ġdin anzi
Ġner voso
Ġmonu mento
inqu inamento
ĠRena ult
Ġcervi cale
etiche tta
C T
I r
f iore
g enziale
Ġf issi
Ġcon duzione
Ġt rono
Ġb aller
Ġpo eti
ĠD alle
ĠB I
Ġha emo
Ġto uch
Ġro tto
Ġabb onamento
Ġfar li
Ġfar le
inter faccia
ĠPro va
ĠGi ord
ĠMar cello
Ġcla moro
ĠLo ve
Ġconten enti
Ġnoti fica
Ġpreci si
Ġdisc en
Ġstabili ti
Ġcostrui ti
ster olo
ĠEle t
Ġfia to
ĠGian luca
ĠScri ttura
alterna tiva
d esse
s enti
u almente
Â ª
or zi
or ganizza
es tern
do or
Ġma glie
cia litÃł
Ġpu tta
Ġta gliato
Ġcre dono
pe a
at tuazione
Ġpersona lizzata
ĠPo polare
Ġpotre mo
ort h
cos c
Con tro
stra to
Ġsor gente
Ġinten dere
RE S
Ġsegna la
Ġis tin
bu tton
cer to
Ġcontinu erÃł
ĠSpa zio
Ġcollo cazione
Ġdovre sti
Ġfol la
Ġsuppor tare
assa ri
ĠGian carlo
ĠQual cuno
Ġmeccani co
Ġcrimina li
Ġinaugu rato
Ġevidenzi are
individu azione
Ġino x
Ġelettrodom estici
v escovo
Ġ omicidio
Ġcon vegni
et rica
Ġo ppor
Ġsu ba
Ġde putato
ĠP R
ĠA manda
ĠE sa
ani mazione
Ġcos tring
Ġpri vi
Ġcomp en
Ġba tti
Ġvo ca
tt ono
ell ente
Ġmani po
Ġcontin ente
Ġcolle gate
Ġsenti amo
Ġlimi tro
Ġtrasp ortare
EL LI
Ġperi feria
200 1
Ġspeciali sta
Ġparticolari tÃł
fil m
Ġattre zzi
Ġcontrolla to
im media
Ġbatta glie
Ġagevo lazioni
Scri pt
ĠFeli ce
b la
d ard
â ĸĪ
Ġa pi
Ġa erop
ti me
Ġe h
un ali
Ġv s
men a
Ġri us
Ġri lancio
tu tti
mi li
ĠD S
Ġpar to
ĠF ul
Ġco de
Ġste p
Ġen oga
ĠRe dazione
Ġ7 3
Ġsti mato
ĠTra pani
Ġ11 8
Ġcollabo rato
ĠFor ni
Ġcia o
Ġcresc ono
Ġincre dibili
Ġconcre te
ade mpi
Ġille gi
Ġber sa
Ġcucchia i
trin se
Ġgover n
Ġdio cesi
Ġcha ttare
Ġquaran ta
improv viso
C al
Ġ rand
Ġs essioni
an z
un der
Ġal tera
ĠC ura
tu res
Ġan ello
ĠA sso
na ro
tta ci
ĠB ello
Ġra re
ff Ã¨
cc orso
ren t
Ġser ena
Ġman e
osta r
ĠVi terbo
Ġmedi cine
ĠBi lancio
Ġapplica bile
vis s
mu lazione
Ġlingua ggi
Ġbio logici
Ġattre zzata
Ġfan ci
Ġinstalla zioni
Ġdistru ggere
Ġugu almente
ĠPubbli co
archi vio
Ġader enti
Ġatmos fere
Ġincenti vi
Ġsvaria ti
ĠXI X
. âĢ¢
F u
a h
h en
u lo
Ġd orsa
ra tore
pp ino
ĠA per
ĠM ON
ĠL G
ĠG ine
Ġar mato
Ġalle ati
ĠPa d
ĠRe ale
ĠRe sistenza
it y
ĠPro se
Ġaff ol
Ġcolle gata
gh er
ll ini
ĠCh ristian
Ġtecno logiche
Ġtesta ta
ĠGia cca
Ġosser vato
Ġvir tuali
mpe gno
Ġtrasferi to
Ġyo ur
Ġillustra to
Gi or
Ġcostre tta
otti mo
Ġmole cole
Ġinevita bile
Ġrimar rÃł
Ġedili zio
? "
Ġf une
al di
sa ti
Ġcom missioni
ter ni
Ġre gg
Ġpo la
ĠG ru
gi c
ĠE mma
ino a
ven uta
ppo la
Ġspe cchi
Ġ19 80
Ġsca ttare
Ġpen sioni
ĠMi glior
Ġforma tiva
ĠJ ose
Ġass orti
ĠTra ttamento
Ġrivol ti
zion ismo
Ġestre mo
Ġstrani era
ĠMedi ci
Ġesti ve
Ġrimb al
ĠPers ona
ĠBel gio
Ġiper tensione
Ġgioi ello
ĠIni zia
Ġossi geno
ĠCook ie
Ġconsen tendo
Ġenoga stron
B ologna
O pera
Ġd ann
Ġs w
el ta
Ġin gra
Ġv etri
di bilmente
ĠC gil
ĠI D
ĠE ven
ĠV edi
Ġapp la
Ġmon ti
Ġfare bbe
ĠSe gui
Ġcan one
Ġarri vate
ĠFa te
Ġ9 7
Ġulti mamente
ĠDo wnload
Ġsoci e
mar ca
201 9
Ġautori zzato
tenzi ali
Ġconn essioni
Ġpal cosc
don to
Ġsub ordina
Ġdiverti rsi
Ġstar t
Ġprogressi vamente
atte ggiamento
Ġdetermin ante
inci dente
Ġpoch issimo
ĠPhi li
I mma
P uoi
a la
c ta
p orta
Ġc ente
in tra
Ġcon sid
Ġper duto
Ġre pubblica
ĠI KEA
Ġpa dova
ĠB oni
ĠF on
ĠF iori
pa razione
lu m
Ġfor mano
Ġsc omo
Ġris contro
ren ni
gn ere
Ġman sioni
res co
Ġfo cus
In ghilterra
ĠFa coltÃł
tanza ro
Ġprote tta
Ġesi ti
Ġaggiun tivi
Ġscon vol
Ġproce dimenti
Ġgiovani li
Ġmisura re
Ġquotidi ane
Ġmos se
Ġsport ello
Ġesperi menti
ĠSca la
Ġsposa to
Ġintelle ttuali
ĠValen tina
vecchia mento
Ġconvo cazione
Ġbom ba
ht ml
Ġa ero
Ġm etti
ca ra
Ġg alle
ci te
ĠC uore
ĠS ony
ĠP are
ĠP ed
Ġca os
Ġca tene
ĠF ur
Ġli scia
Ġav versario
Ġgra ni
uni or
pre ma
Ġcu sc
Ġscri vi
ĠBa ra
Ġsuper sti
ĠRa pporto
ĠSo ftware
TI VI
An na
opera tore
Ġrivol te
ĠDis ney
Ġbelli ssimi
Ġasse mb
ĠRu sso
bbia mente
Ġderi vati
Ġsub li
Ġcari chi
Ġrinno vato
Ġparche ggi
Ġcanti eri
ĠMedia set
ĠSy stem
Ġandre bbe
Ġesecu tivo
Ġpresid enza
cultura le
ĠBasilica ta
Ġlampa da
ecce zione
C hia
O sservatorio
i ter
k king
l uire
re quest
an dare
Ġcon den
va s
ĠP MI
Ġan damento
ona ria
ĠG h
ĠG il
gi anato
Ġad ulto
fica tore
bo lo
ĠCa terina
ĠH P
Ġdisp osta
Ġvia bilitÃł
ĠTi mes
Ġcompi mento
Ġprovin ciali
Ġero tico
Ġperi coli
ĠCen tri
Ġdescri tti
Ca ro
Ġroman tico
Ġdistin zione
Ġtrasferi re
Ġtru ppe
Ġdisciplina re
Ġcontribu iscono
ĠComp rare
Ġrientra no
Ġprogressi vo
arre damento
ĠLun go
Ġlumin osa
Ġposse dere
Ġwire less
C erca
O O
d l
on ese
un tu
Ġla sc
Ġri visi
Ġpro roga
Ġca renza
pa ge
as y
Ġvo cali
at t
Ġcer ni
ĠW ork
Ġbu ffet
Ġten da
Ġten gono
ĠK it
and ina
ĠRa gusa
ĠLo cali
ĠCo rea
ĠPre no
ĠFi sica
Ġecc et
Ġru sse
ĠSp ia
ĠCas tro
Ġsingo lare
Ġacca dere
Ġfrequ entare
ee p
Ġriten uta
cla ssi
Ġbor di
Ġcoordina te
anima le
Ġdimin uire
Ġoli va
Ġeccessi vo
Ġartigian ali
Ġsconosci uto
ĠVis ualizza
Ġvor rÃł
ĠInte gra
assegna zione
Ġsuperm ercato
Ġdomi cilia
ausi lio
B er
E r
E st
S c
S er
U K
i ro
i so
Ġc ano
in tenzione
di so
ĠC R
va ri
Ġda va
ter ne
vo si
ĠL and
Ġfa ti
Ġu ser
ven tÃ¹
inter azione
Ġinf anzia
Ġore cchie
logi camente
Ġk er
Ġr un
ĠCar ne
Ġdetta gliata
fon do
Ġsosten gono
Ġce dere
Ġconsegna re
Ġprefer isco
Ġdele gazione
Ġagri coltura
Ġlegi ttima
Ġripe te
Ġriempi re
Ġges tori
Ġpole mica
ĠQU I
Ġtosc ana
ĠElisa betta
Ġriusc endo
produ ct
Ġasi lo
ĠJava Script
F ino
a mica
f ina
k it
ti zia
Ġm y
Ġi rani
Ġin uti
men ts
ĠS tate
ĠP ort
ĠP enso
vi lla
Ġma cchie
ĠA rezzo
Ġtra scri
Ġsta tuto
Ġlo cazione
Ġmo use
ul si
ĠV II
Ġinter ru
Ġta len
Ġesp lora
ett ine
ĠJ os
Ġcomuni one
Ġinc entra
Ġtri ennale
Ġdefini te
Ġru rale
ĠFor ma
Ġblo cca
Ġmostra ndo
Ġeffetti va
Ġpericolo sa
Ġth at
Ġconser vato
Ġeccessi va
Ġritra tti
Ġfred de
ĠTecni co
Ġetiche tta
Ġmusici sta
Ġripri st
Ġfinis cono
ĠIstitu zioni
Ġrichied ente
Ġsceneggia tura
sli ck
Ġmediter ranea
! "
E E
d da
f en
f etta
p us
y on
zi ende
si ti
ca rsi
ĠC lini
Ġre voca
mi l
Ġh an
ĠR IC
ĠR AM
Ġad erito
ĠO fferte
Ġcol tello
Ġter mica
Ġter minato
res t
Ġcen sura
Ġprof essor
Ġdes ktop
Ġgesti ta
Ġamm ettere
Ġcompa tta
ĠSu ccessivamente
Ġban chi
cer ti
Ġparla mento
Ġraff inata
Ġascol tato
ĠNuo ve
Ġsoff rire
Ġfia mme
Ġcombina zioni
Ġferi ta
Ġsuggesti va
archite tto
quo ta
ĠPicco lo
Ġrilass ante
ĠRO MA
ĠSop rattutto
Ġmandor le
C OM
O tto
a ran
p is
Ġdi ede
li vello
Ġin gen
Ġcon dotti
Ġb ell
ĠP ensa
da tura
Ġma chine
ĠM P
ĠM S
con ta
Ġsc orta
Ġti roi
ele zione
Ġcre me
Ġro utine
Ġspe dizioni
Ġpoi chÃ¨
Ġuni verso
col li
ĠNa pole
Ġdeci sivo
Ġfil mato
Ġsap one
Ġliber arsi
enne simo
Ġricev uti
Ġvie tato
Ġyo ga
Ġeccell enti
Ġgiuri sprudenza
ĠPorto gallo
ĠPol onia
ĠBos co
Ġpento la
Ġdebb ano
Ġrius ciamo
A mbiente
e tano
k on
Â º
Ã £
Ð ²
Ġm ettiamo
si me
Ġf ero
Ġt inte
di versitÃł
Ġri ga
ĠS uoi
Ġpo ta
ĠD unque
Ġtra rre
ĠF OR
Ġmi ca
ven a
Ġba checa
per anno
Ġva ga
uti on
ad ing
Ġ6 3
Ġlegg o
Ġsal uta
20 20
Ġauto mati
Ġele mentare
Ġgo ccia
Ġ0 3
Ġcrea ture
Ġcerca te
all enamento
Ġprote tte
Ġlascia ti
ĠMe zzo
Ġsignifica ti
Ġcam ino
Uni tÃł
Ġillu min
Ġsoddis fatti
Ġfatti specie
Ġama te
Ġvede te
Ġbal ne
Ġfemm ine
estra le
Ġmetodo logia
ĠOn lus
Ġcompeti tivo
Ġsvilupp ando
Ad esso
Ġaccade mico
Ġinser endo
tron de
ĠSch ool
ĠCosti tu
Ġfasci sta
Ġuniversi tario
ĠLun ghezza
Ġprocura tore
Ġterres tre
ĠLabora torio
D all
p oste
w ell
in ese
el fare
li zio
Ġun guento
om onimo
Ġt inta
ar chia
ĠS om
oni bile
Ġre trib
ĠI sola
ĠL ong
Ġpa cco
ĠG PS
ĠT eso
ĠB elli
ĠB andi
ĠE do
Ġra zionale
ff ia
pi do
Ġco tto
Ġba sti
Ġcol li
Ġric rea
Ġtro ie
Ġro bot
ĠRe sid
Ġcar ino
Ġsin onimo
ĠMo bili
Ġricor date
AN D
Ġcollabo razioni
Ġbar che
Ġdeli cati
Ġindica tori
Ġquad rato
Ġconsegu enti
Ġcapo lavori
Ġpensa ta
Ġconsenti rÃł
Ġscor rere
Ġbro do
Ġconser vati
Ġattrib uito
Ġaumen tata
Ġcalda ia
Ġvigi lia
Ġscegli endo
Ġavvicin arsi
ĠEss ere
ĠEU RO
Ġcipol la
A LI
N G
Ġs bal
ca sa
co ol
Ġo cu
mp ie
ĠP OS
se condo
ĠT ER
ĠE qui
me ccani
ero gazione
omi che
Ġprote gge
Ġraggiun ta
ĠLu cio
Ġfonda mento
ĠCas erta
Al to
Ġinvi dia
Ġlettera ria
Ġpart ono
Ġstraordina ri
Ġbilan ci
ĠEdi z
Ġspiega zioni
Ġcapito li
MEN TI
Ġdenomina zione
ĠTele fono
ĠðŁĺ ī
Ass essore
Ġsvaria te
allar me
! ).
A h
U C
f ar
f ul
u ge
Ġp m
te ci
ĠS tru
Ġsi gare
ĠM ino
de m
ĠD M
tta va
con ti
Ġlo ttare
ĠV il
Ġba ri
Ġav vale
ĠMa tera
Ġver sante
Ġste sura
ĠQu asi
ĠAn nun
Ġpersona lizzare
Ġstra ge
ĠPro ject
ĠJ ane
Ġdeci dono
Ġcla uso
AN TI
tter Ãł
est ini
Ġaffi damento
Ġatte se
Ġ198 7
ĠVol on
Ġgre ca
Ġumi do
Ġumi ditÃł
Ġtranquil li
Ġchirur gico
ĠCH I
Ġnov anta
ĠPra ga
Ġdisabili tati
Ġlingu istica
ordin anza
affer mazione
Ġgiappone si
Andre a
){ .
k en
n d
s tu
Ġ ),
Ġri dotte
so gno
Ġo pa
gg ine
da fone
Ġma trimoniali
Ġso und
Ġpo tendo
Ġ2 20
con n
Ġar tt
etti ve
ĠMa gari
Ġcre duto
Ġdis tante
Ġprima to
mm ia
Ġmon tare
ĠRe cord
Ġese gue
ĠLi vorno
Ġposi tivamente
TO RE
Ġapplica te
tidi ano
Ġprom ette
Ġmino ranza
din ando
Ġfarmaci e
Ġpeggio ri
Ġsosteni tori
ĠPor n
Ġcomm esso
Ġbasa ti
Ġtrib uta
ĠBri anza
Ġintelli genza
Ġem esso
Ġstri scia
ĠDiri gente
Ġadolesc ente
Ġindispensa bili
ĠDes crizione
GG IO
ĠGRA TIS
Ġcole sterolo
O re
a da
a cciaio
£ ãģ
Ġs ella
un try
Ġin fortunio
Ġf ette
om etro
Ġo dia
sa la
ĠP esa
ĠA pri
ĠF lori
ĠE D
Ġti epi
Ġcol to
Ġdis inf
Ġman gi
Ġatti vamente
mina le
Ġcen ter
ĠMar tina
Ġcal coli
Ġ7 9
Ġcondi visa
Ġ8 8
com uni
Ġass ente
Ġass omi
pu b
ĠFor te
Ġbru ciare
Ġemer so
din ese
Ġcondu cente
Ġmoto cicli
Ġtrasm ette
Ġpasse ggiate
Ġvacc ina
Ġprosta tite
B ar
m ero
p un
Ġs quali
Ġe missione
te cno
Ġin qui
Ġcon net
ĠC era
vi bile
ĠA zzur
bb rica
Ġvi b
Ġra ro
pi ede
Ġco d
Ġco alizione
Ġba by
Ġter rore
Ġto l
Ġservi ta
ett ino
Ġspa ra
ĠMar gherita
ĠPi ani
Ġcontra ttuali
ĠMo lise
ĠCo re
Ġass essore
Ġbo dy
car b
Ġarti stici
Ġcolo razione
Ġpol pa
Ġado zione
Ġmanten uto
Ġindividu ati
ĠGu er
ĠTer zo
Ġvole vano
Ġidenti ficato
Ġmos tro
Ġsviluppa ti
Ġsviluppa tori
Ġscher mata
Ġdistin ti
Ġinti ma
Ġalti ssima
allo ween
Ġoli ve
Ġspiri ti
Ġaffida bilitÃł
Ġpeda go
Ġitinera ri
Ġdorsa le
I eri
L S
a bbigliamento
er mi
Ġs dra
Ġs tivali
Ġp se
Ġa boli
el lare
Ġe terna
Ġm enta
Ġin fa
Ġla tina
om etri
Ġri de
Ġma turo
ĠT ai
Ġci tata
Ġte me
Ġte ste
Ġalla tto
etti vitÃł
ĠO R
ĠO tti
ĠMa te
ĠMa ssimi
Ġsa g
ĠCa zzo
ĠCa ratteristiche
Ġvo lan
Ġmen sili
cch ina
Ġsca lo
ĠSe gna
Ġcal l
Ġmis e
pen dente
Ġtor te
Ġaver la
Ġval ere
Ġpresenta zioni
Ġconte st
ĠSal ento
Ġtipi camente
Ġatte si
Ġaccompa gn
Ġrima ste
Ġreali zzando
Ġenerge tici
Ġelabo rare
abb and
Na poli
ĠClau dia
Ġamiche vole
Ġassun zioni
Ġquattor dici
Ġconsa c
ĠIngle se
c essi
h ard
s ch
Ġc ron
Ġs mon
Ġp enti
Ġa er
Ġe vo
ĠP isto
oni ere
Ġre sistenti
fi canti
Ġpa ck
Ġsp ru
ria tico
ĠMa teriale
Ġven ir
ess enza
ĠDi visione
Ġcan tine
Ġsen tenze
Ġtratta tiva
Ġscri ttrice
Ġauto stra
ĠPo co
Ġori entali
Ġedi to
Ġoff riamo
Le ggi
EN E
Ġrin tra
Ġconfer mata
Ġtecno logici
Ġcolo rato
Ġpare cchi
av versario
Ġatte ggiamenti
Ġfran co
Ġfal sa
Ġrima se
Ġmus colo
ĠIs land
Ġpie ga
Ġpreval enza
Ġcorte sia
Ġagri coli
ĠConf industria
ĠArchi vio
Ġtossi co
curi ty
Ġincari cato
Ġraddo ppia
segre tario
G o
G ui
X T
b ani
g ria
o ceano
r rÃł
re ale
re ggio
Ġe gi
an nunci
Ġin ne
os co
Ġri scri
ĠA mm
fi c
ten sili
ĠR ie
ero si
Ġinter azione
Ġmol la
ba ta
der mi
Ġabb ina
colo gica
mina ri
Ġforma t
ck s
pre sso
ĠAr gentina
Ġfre ne
Ġaver ne
ĠRo bin
Ġappro vata
tar li
Ġbar riera
Ġfunziona ri
Ġpron te
Ġinclu se
Ġvali de
Ġmer cena
Ġacce de
Ġ198 4
ĠSpe ciali
Ġbos s
Ġprescri zioni
Ġriba dito
Ġritar di
Ġripe to
Ġsinc roni
Na tura
Ġclo ud
Ġinfras truttura
Ġmisteri oso
Ġcomprom esso
ĠMiglio ri
A ttra
B ra
P arti
T ri
i mmigrazione
t tuto
v d
z en
ro ssa
Ġin adegua
ar resto
so p
ĠC AS
ĠC uneo
Ġde gna
Ġma sse
ĠI ra
Ġpo pu
ĠD NA
Ġsp al
ĠT y
Ġci lie
ĠV arese
Ġfi glie
ĠU ti
Ġat trice
ĠCon vegno
ppo tto
ĠQu el
lan ta
ĠAl ber
Ġquali ficati
eni ci
ĠSa ranno
ĠDe ci
Ġasp ettando
ĠNo bel
Ġban ner
Ġru ssi
Ġsf re
Ġpoter si
Ġspetta colari
Ġbe ve
Ġinterpre ti
Ġsm s
Ġstraordina rie
Ġinsegna menti
ĠFe der
ĠAcqu isto
Ġcontribu enti
Ġimprendi tore
ĠNess una
Ġazzur ri
Ġguer ri
BB LI
Ġdomes tica
Ġattu are
osteni bile
G GI
T h
U lti
V ol
p in
on al
Ġc y
Ġe commerce
mo ur
Ġpre ssioni
na ti
ĠG la
ĠG ali
tri che
Ġmi rato
ĠV enti
cu m
Ġno ccio
Ġapp unti
Ġdis in
Ġsco ppia
cri ption
ĠLo co
Ġdice vo
ĠNo ta
Ġnu vole
Ġinteress ano
Ġbe h
Ġtrasforma zioni
ĠCasa le
Ġabband ono
fort uni
ĠSil ver
ĠOli mpia
Ġspon sori
ĠTele com
Ġrigi do
Ġara bo
Ġtappe to
Ġcrimina litÃł
Ġprestigi osa
Ġfronti era
Ġimpro ba
ĠBern ard
Ġemozion ante
Ġinol tra
a bito
e tica
Ġa gio
Ġin put
men tate
ĠS cia
ĠS chi
tu sias
ĠL unedÃ¬
uo ghi
ga zioni
ĠR ina
ss ano
tan ee
ĠV ino
pi enza
zz ardo
Ġar resto
Ġti mi
ĠCa mbo
endo la
Ġacc om
Ġro sson
Ġlib retto
ĠGi rl
Ġsin tonia
Ġinforma ti
Ġsoli di
Ġpren do
ĠTi bur
Ġintegra tori
Ġcivi co
tran do
Ġlon tane
Ġingre ssi
Ġviol enze
Ġcolpi ti
Ġsplendi de
Ġclini che
Ġcambi ando
Ġimmer so
Ġcresci uta
ĠTecni che
Ġconvi venza
Ġdivul gazione
Ġvigne ti
B RE
C li
H O
r d
ti ta
Ġi ronia
Ġal zare
ci cla
al tare
ĠS cor
Ġb omb
Ġcom ico
Ġse dere
ĠA cademy
ĠI kea
Ġpo wer
ĠD er
ĠB assa
Ġsc ultura
ĠIn contro
Ġsca ppare
ccia mo
tr eranno
Ġ9 8
Ġvisi va
Ġasso l
Ġpren derÃł
Ġnas costi
Ġraggiun ti
Ġinten to
ĠFor lÃ¬
Ġospi tato
Ġdia volo
Ġriusci rÃł
Ġpol veri
ĠVia ggi
ĠTer mini
Ġcomin ciano
Ġvede va
Ġatta ccato
Ġdiv ino
Ġpie monte
Ġimb alla
Ġidone o
Ġaccumu lo
Ġvacc ini
enz ero
fin anzia
ĠCostan tino
A D
G N
m uo
Ñ ĭ
on ne
Ġin quad
Ġg an
ma fia
Ġde gen
da d
pp rima
Ġsta mpe
Ġmo ri
Ġba ci
ĠLa vori
Ġinter vis
Ġris alto
ĠSe mplice
Ġcan tare
Ġmar tello
ĠSa i
Ġtor ri
val le
Ġsucc essione
cipa zione
Ġren di
ĠRo berta
ĠNo vara
Ġfer marsi
Ġaggiun tivo
ĠX M
Ġaper ture
ĠFor mula
Ġtrasp orta
fon so
vera to
Ġsinda cato
ĠCli cca
ĠVo le
Ġefficace mente
Ġpale se
Ġnutri zione
Ġdidatti che
Ġstar tup
Ġraffred dare
Ġpisto la
Ġimmuni tario
Ġtun nel
. ;
P ia
p ette
or gano
et teria
ĠT ol
ĠV O
ando lo
Ġsc inti
Ġta zza
bo ri
Ġven detta
Ġdis tor
ĠDi chia
res ci
Ġprof essori
Ġspa vento
Ġ7 4
Ġconta dini
Ġpresenta rsi
TA ZIONE
Ġgia lla
oo t
Ġregistra ta
Ġtesta mento
Ġorigina ria
Ġcompren dono
ttan te
Ġcoper ture
Ġspor co
Ġdovre i
Po tre
Ġ198 5
Ġliqui da
ĠPos siamo
Ġdiso ccupa
ĠEro tici
Ġnetta mente
Ġincari chi
etu dine
otto bre
Ġrassi cu
Ġserbato io
Archi vio
ispi razione
% ;
T T
d anti
f ani
n te
ti es
Ġil limi
Ġsi li
Ġnon ni
Ġso dio
Ġtra dotto
Ġsta gionale
pa tico
ĠLa s
Ġgra ttu
Ġvo cale
ĠH ill
ura zione
fa c
ĠAn alytics
Ġatti rare
ck y
ĠMar ta
Ġer ettile
fini zione
ĠRo lex
Ġapri rÃł
Ġconsul enti
Ri ce
Ġdistrib uito
Ġconsigli are
Ġsba gliata
Ġmetodo logie
Ġsom mer
Ġiso lamento
Ġelabo rato
Ġrispetti ve
Ġclini co
Ġpresi dio
ĠCOM UN
ĠHi gh
ĠRA I
Ġconverti to
appa rato
Ġpillo le
Ġmusul mani
C an
h y
n s
Ġc ing
er ante
Ġn dr
Ġin co
al tronde
Ġb ombar
Ġan ato
ter Ã²
Ġso ft
Ġpo lo
ĠD urata
Ġtra zione
Ġme lan
tura zione
ando la
Ġad erire
sc indi
Ġric re
Ġpersona lizza
ĠSi g
Ġsca turi
rat ona
ĠPro babilmente
mon d
anda ta
Ġcentro destra
Ġprote si
Ġentra ti
Ġaffi tti
Ġdichia rata
Ġinvi tiamo
Ġpla ne
Ġrica vato
Ġaggiorna ta
son almente
Ġderi vante
Ġ198 8
Ġmuo vere
Ġacquisi zione
Ġsoffer enze
Ġtorn erÃł
Ġperse guire
Ġaffida bili
Ġsimpa tia
Ġidra u
Mol te
ĠUl tra
Ġregis tri
ĠMani f
Ġfabbri cato
Ġrial zo
ĠFemm ini
B ene
G IA
U TO
V edi
Ġs tron
Ġdi tte
Ġal quanto
ma de
ĠC usto
ĠS po
ere bbero
Ġma gnifica
ran di
Ġpa gano
ĠR omeo
ĠB il
ĠF le
ĠF inale
Ġlo g
ĠE sso
ĠE UR
Ġco pre
Ġli mpi
cco lo
lan ce
Ġsal utare
ĠJ un
Ġ7 7
Ġinforma re
Ġ9 4
zze molo
ll ina
poli tica
An nunci
ĠGio vedÃ¬
Ġesa minare
Ġis tanza
Ġmoder nitÃł
Ġcompre ssione
Ġlibera re
Ġquotidi anitÃł
Ġinnova zioni
Ġintra tten
Ġadegua ti
Ġbro ker
ĠAlessand ra
Ġdef unto
Ġcollabora tore
we ar
Ġripet uta
Ġdelib erazione
Ġria bilitazione
Ġmagistra tura
Ġoccup arsi
peri ence
Ġcore o
ĠGlo bal
cit tÃł
ĠCambo gia
C M
o b
in ano
in ente
Ġg ine
Ġqu inte
Ġqu ant
Ġca ttivi
ĠA c
ĠA gen
Ġpre vid
ni co
ĠD AL
Ġtra uma
ĠB ron
ĠIn dustria
der vi
Ġgio cano
gia te
Ġfar gli
ĠW all
Ġcar tell
Ġlegg ende
Ġsicu re
ĠLo ca
Ġmedi tazione
Ġedi tori
Ġass u
Ġconta bile
EN A
Ġfina lizzata
ĠSal va
Ġfotogra fi
ĠVia ggio
Ġfanta sci
Ġtelef onata
Ġscar pa
viso ri
Ġagg an
Ġintra ttenimento
Ġbanca ri
Ġispi rata
Ġadatta rsi
Ġgol f
Ġscio gli
Ġslo gan
ĠNatura le
Ġsensibili zzazione
ado lesc
Ġvul cani
Ġesemp lare
Ġrom antica
Ġnottur na
Qual che
Ġarra mpi
Ġscul ture
Ġsettentri onale
ĠGaran zia
= "
C OR
S ce
m anti
m isti
Ġd osa
Ġa le
Ġa us
ta g
Ġdi ga
Ġi tin
Ġper sa
Ġt ena
Ġan onima
gg o
ĠM eri
ran ze
cia o
Ġtra vol
Ġci tati
ĠF uori
zz oni
Ġli tur
cu ssioni
Ġna te
ron ti
alizza re
ed erazione
Ġsti me
and omi
ghe si
Ġ15 00
Ġrice vi
tar ci
oo oo
ger s
Ġconfron tare
Ġfini ti
Ġpol trona
Ġdescri tte
Ġgiornali smo
ĠSte fania
Ġtea trali
Ġdiv initÃł
Ġ198 6
Ġeste so
Ġinn es
ĠMer ce
Ġdistru tto
Ġstri sce
Ġtransi zione
Ġscompar so
Ġgon fia
Ġang eli
Ġtelefoni ci
ĠAgri gento
Ġfotovolta ico
Ġindis cu
I P
S ele
a glio
Ġ ella
Ġs essi
Ġa prendo
ri ta
al ter
ĠP anta
Ġvi vamente
con di
Ġlo tte
Ġne gare
ĠV el
gu sto
Ġba ttere
Ġve dendo
Ġbu tta
Ġinc endi
ĠBa sso
imp eratore
Ġprote tti
Ġand Ã²
ĠX III
ĠTi tolo
Ġvio lazioni
Ġindividu a
ĠTer re
Ġdiscu sso
yo ut
Ġequi valente
Ġconosci ute
Ġap osto
Ġrinno vare
Ġspiri tuali
Ġpropor zionale
ĠCes ena
ĠEs teri
Imp ero
Ġinedi ti
Ġcolpe vole
ĠAssocia zioni
ĠNin tendo
Ġrifugia ti
ĠSnea ker
? ,
s ini
li cita
an der
ca bili
Ġla vare
Ġri fa
Ġo tter
Ġpro vengono
oni c
Ġca ttiva
ĠA us
ĠM ono
zza mento
Ġpa dri
ĠG EN
tta zione
Ġci e
ĠF rosinone
Ġdo ti
Ġsc ansione
ĠMa ture
ĠCon fer
Ġdire ttive
Ġ19 0
ĠMi r
Ġuni one
Ġspa mbo
ĠSa ba
ĠDo bbiamo
tter o
Ġlavora tive
Ġj u
ĠGen er
Ġeli mina
Ġsba glio
ĠâĤ¬ .
ĠAu toritÃł
Ġeste sa
Ġinti mi
ĠPrima vera
Ġsoff o
Ġpis cine
ĠPers one
dom ani
Ġbas ket
Ġdeposi ti
Bu ona
dei u
Ġsur f
Ġriusc Ã¬
immagina rio
nutri zionista
C S
V uoi
r Ã©
t Ã¡
ã Ģ
Ġ ya
la go
Ġe qua
one y
Ġde man
Ġpro vate
Ġda y
bi l
oni mi
che s
se la
Ġre moto
ĠI talo
Ġh orror
ga ro
con tin
Ġpar quet
Ġra pina
zz ese
Ġar ran
Ġfi ction
ĠO gn
Ġtro mb
Ġtro pi
ĠPa sso
ur to
ur rezione
ĠLe cco
ĠAl fre
Ġlib rerie
tati on
ĠRi ta
Ġtor tura
Per Ã²
ĠMo du
Ġ9 2
Ġk a
TI CA
ĠSu bito
Ġabi tato
gen io
ĠGio ve
Ġali mento
Ġdeli mi
Ġprotagon iste
Ġade sione
Ġcontinu e
Ġann uali
Ġpromo zionali
Ġresid ui
Ġ197 8
ndo si
Ġclini ci
Ġavver te
Ġela stici
Ġcomposi zioni
Ġracchi ude
Ġfinanzi are
Ġspambo ts
P RI
V isi
d an
h h
p orto
or mai
os p
al lu
Ġri fini
ĠS ri
Ġpre ziose
cia tura
Ġmo rali
ĠU NA
Qu ella
Ġven isse
Ġor gogli
ĠPer ciÃ²
sse gno
Ġspa ccia
ĠJ er
Ġini bi
Ġ8 6
Ġstati stica
Ġtele camera
Ġam alga
gen tino
Ġsegna re
Ġspi cca
Ġatte sta
ĠApp lica
ĠFranc ese
Ġusci ti
Ġesegui te
Ġassa po
Ġstimo lo
qua si
ĠCampi onati
Ġconven zionale
Ġappo ggio
Ġcapitali smo
ĠHol lywood
Ġpoch issimi
ĠCristi ano
Ġsonda ggio
Ġistitui to
Ġdisper sione
Ġmete oro
Ġpresupp osti
Ġincen dio
Q U
S pa
a ssolu
b as
b elle
b usto
v anni
Ġ one
Ġ Ãł
to so
si der
Ġv ar
Ġg ett
al meno
di ano
ma ggio
ma gne
Ġo dore
ĠC EI
ĠP VC
ĠM r
ĠL gs
sp ie
Ġtra m
ĠG LI
Ġtu torial
ver lo
... "
Ġve da
tt roni
ĠW W
Ġsin ergia
Ġinf ra
Ġrip osti
ĠPi an
mar ino
Ġ17 0
Ġmini me
ompa gna
Ġconfron ta
Ġtesta te
Ġnego zia
Ġcosto si
Ġcoper chio
Ġnecessi tano
Ġsinda cale
Ġapprezza ti
Ġglob alizzazione
ĠDani el
ĠCultura li
MEN TE
Ġprofu ghi
Ġsuggesti vo
Ġcass etta
ĠIngegn eria
ĠFort una
ĠCampa gna
ĠkW h
Ġeccet era
£ãģ £ãģ
sop rattutto
A ra
A li
G U
u gu
ï ¸
ri ller
le gge
Ġri cic
ĠC are
Ġl ino
gg eri
ĠM inistri
Ġre cante
Ġpre zzemolo
Ġpa rente
eri tÃł
ĠR eno
ĠE sistono
Ġmo gli
Ġme eting
Ġba cche
sc re
der ne
Ġna cque
Ġro cce
ĠRe gi
Ġ19 70
Ġpun tuale
ĠDi fesa
inter est
Ġtratta va
ĠGi ro
Ġscri sse
col tori
Ġricerca re
imp ossibilitÃł
cente mente
Ġand roid
An ti
Ġpote ssero
Ġprepa rate
Ġcommer cia
Ġinizi erÃł
ĠEn ter
Do wnload
Ġfrequ entemente
ĠOr ganizzazione
Ġemo tivo
Ġfavore voli
Ġgiusti fica
Ġvorre mmo
ĠFed erica
Ġtrasm essa
Ġdolce zza
Ġconsoli damento
Ġcarb one
Ġdona zione
ĠPsi cologia
Ġseg mento
Ġparall elo
ĠIllu stra
Ġintestina le
E conomia
c etto
Ġ elo
la tivo
Ġdi sti
li ani
an cora
ro me
Ġin chi
Ġcon tano
Ġg innastica
ol d
ĠP ensi
Ġpar li
Ġdo tto
glio si
olo go
Ġsen i
Ġsal vato
Ġgu ai
Ġlun gh
ĠPo polo
Ġ12 00
Ġcura ti
app are
Ġpara dos
Si cu
Ġ: -)
Ġsap rÃł
Ġinizi Ã²
EL LO
assi curazione
ĠCal zature
ĠJa co
Ġpresti ti
Ġscola stiche
Ġteo rico
Ã¡ n
ĠPers onale
Ġrinnova mento
Ġreca rsi
Ġarchitett onico
Ġcattura re
ĠPelle g
Ġsvizz eri
ĠPremi um
Ġfesti vitÃł
Ġfeed back
Ġsalvata ggio
Ġpalcosc enico
ĠMassimi liano
ï¸ ı
D el
P ren
S M
b log
Ġd arsi
Ġc ene
Ġs tyle
in dex
ri ana
ro so
Ġin fortuni
es tÃł
ar ing
Ġqu anta
ĠC d
Ġb olo
Ġle tt
Ġpro sciu
gli ando
ĠP ann
mi giano
Ġfa bbi
Ġsp eso
ĠF iore
Ġpu b
Ġcor diale
Ġta tua
Ġris ulti
Ġpersona lizzate
Ġfo ro
Ġmar ti
Ġinc inta
ok ia
Ġ9 6
ĠSan tuario
all enatore
ĠPar tner
est ere
Ġtran sazioni
Ġcorre ggere
IA LE
RO MA
Ġimpa ra
Ġistitu zione
Ġconsul ta
Ġset tanta
Ġusci rÃł
Ġdistrib uiti
Ġschi fo
Ġconce pt
Ġimposta zione
Ġcoltiva re
Ġporto ghese
Ġbev anda
Ġragi onamento
Ġseri etÃł
ĠBamb ino
ĠConos cere
ĠTerri torio
Ġrisie de
? âĢĿ.
C u
M er
S te
b rio
c ellu
h r
k el
o dio
on cini
Ġa va
Ġa ustra
in fiamma
Ġun dici
lo t
qu il
ĠC AR
ĠM AS
Ġpa pi
Ġtra iler
Ġra m
ff etti
cu lo
Ġsa ggi
lan desi
ĠSi gnora
âĢ¦ âĢĿ
ard enafil
ĠBa y
Ġren derlo
Ġstan chezza
Ġval enza
Ġsenti ta
Ġfer mi
dice sima
Ġnu di
pro te
vis mo
Ġcompren sibile
Ġdisa gi
ĠTer ni
Ġaffer mazione
Ġameri cane
Ġincre dibilmente
DI O
Ġ198 3
ĠCre mona
Ġfeste ggia
Ġreg isti
Ġere dita
Ġidro elet
blo ck
Ġsalva guar
Ġsinc eramente
Ġincu rio
Ġcinemato grafico
Ġpuni zione
Ġpenet razione
ĠSve zia
Ġcalib ro
ĠInser isci
Ġraggru ppa
Ġlogis tica
donto ia
tusias mo
K A
P D
T ale
d ero
l do
p orre
p ost
s tan
{ "
Ġe voca
Ġper enne
Ġg etta
Ġri forni
io li
Ġde grado
Ġan tropo
Ġma cina
che tti
ĠM ED
Ġpre messa
Ġpa y
cc etta
ĠMa gazine
Ġesp orta
st on
Ġinc omin
Ġ8 9
coli smo
Ġgrandi ssimo
ĠPar ro
Ġconfer mano
Ġlimi tazioni
ĠSp etta
Ġimpe ccabile
Ġali mentato
Ġis tanze
Ġeffetti vo
Ġdeli zioso
Ġfanta smi
Ġtelef onica
Ġrile vazione
Ġtar da
ĠCu lo
Ġmicro fono
Ġfres chezza
ĠAu dio
Ġ197 9
ĠAcqu ista
Ġconsider arsi
Ġmatura zione
Ba y
Ġder by
Ġtriste zza
Ġnasc osta
Ġpercepi re
Ġgradua torie
ĠâĦ ĥ
ĠâĦ ī
Ġassum ono
phi c
Ġcapsu le
ĠTok yo
s an
u ga
in va
bi ci
ĠM onica
se o
Ġnon chÃ¨
zza ro
ĠT anti
Ġu ve
Ġra mo
Ġad dio
Ġpri gione
Ġat tualitÃł
Ġto lto
Ġven uti
Ġvo lati
ĠCon so
inter ro
ĠRa ppres
ĠNo tte
Ġcompa tto
Ġinten do
Ġvari ano
Ġpubblica mente
Ġcolo rate
Ġpreci sare
cer che
ĠTor na
Ġdestina zioni
Ġeserci ta
ĠOr dine
Ġarre sti
Ġidenti ficazione
Ġemo zione
Ġrep utazione
Ġindustri e
Ġmeravi glie
Ġteo rica
ĠGian franco
Ġscio gliere
Ġdivi de
Ġappli cano
Ġinfluenza re
Ġvacc ino
ĠVisi ta
Ġitinera rio
Ġcentroca mp
A ggiun
A osta
s ette
Ġs qui
la tori
Ġdi cio
ra rsi
Ġin acc
Ġf etta
Ġri dosso
so rio
ĠC F
ĠS us
ĠS tiamo
Ġde fault
Ġle ssi
ĠL U
era zioni
ĠN UO
ĠV ar
Ġad destra
ĠMa tt
ĠCa vo
der ti
Ġbi ennio
Ġdire zioni
Ġcar telle
Ġuni tamente
Ġfu ggire
Ġcal care
Ġtre dici
ĠDa mi
Ġsegui te
Ġamm orti
onda ta
Ġcorre zione
Ġnorma tivo
Ġcam eri
Ġospi terÃł
ossi bili
ĠItali an
Ġpuli te
estra zione
Ġprovve de
Ġpericolo se
Pre ss
Ġcamm ina
Ġeccell enze
Ġrischi ano
Ġrinno vata
Ġmisteri osa
Ġterape utico
Ġnapole tano
Ven erdÃ¬
Ġproget tuale
Ġappi eno
Ġnostal gia
V orrei
W S
b ona
b ali
s car
u k
Ġd j
Ġs enatore
Ġi ter
Ġde gno
che tto
ĠM usei
Ġpi Ãº
ten na
ĠB A
Ġnuo v
pe ti
at her
Ġw e
ĠRi va
Ġten ute
Ġimpor re
ĠNa to
Ġinc ompa
ĠSa pienza
Ġ8 4
tr ingere
ĠCo ppia
Ġgo dersi
ĠLi fe
cen tro
gh erÃł
Ġrego laritÃł
Ġprofessi oni
Ġconsu eto
Ġdeli tto
Ġriso tto
Ġdestina tario
Ġfir mare
Ġamp liare
Ġbasta no
Ġconvin ta
Ġgas tro
Ġinda gare
Ġgre en
Ġcompeti tivitÃł
Ġmedicina li
Ġtelevisi vi
Ġferi to
Ġvice presidente
Ġrischia re
Ġgene tica
Ġsettiman ali
Ġsconosci uti
Ġassis tente
ĠXV III
Ġsoppor tare
Ġattraver sare
Ġperno ttamento
Ġimpermea bile
Ġpasticc eria
ĠDolo miti
trans form
Buon giorno
Ġtavol ino
Ġdiparti mento
c esco
i P
Ġa no
to si
Ġdi te
Ġi p
ĠA rena
ĠE rano
ĠV esti
ĠO ffice
ffi e
Ġtro ppa
ba g
Ġat ter
Ġmen talitÃł
Ġparti celle
and ro
Ġassi ste
Ġsui cidio
Ġscon tri
Ġcambia ta
Ġdia lo
ĠEn te
Ġero e
mor f
Ġvorre bbero
Ġsepa rata
Ġzucch eri
Ġsposta menti
Ġrifer iscono
Ġpremia to
Ġpredisp osto
Ġinfini ta
Ġconversa zioni
ĠTUT TI
imprendi tore
Ġeccle sia
Ġperple ssi
massa ggio
; ;
L ei
a ppo
c ti
f li
h on
en zano
Ġg elo
Ġri cicla
Ġb lin
ĠA SS
ĠE ur
Ġpri ve
ĠMa y
Ġcre diamo
bo ut
Ġpor tÃ²
at tre
Ġes cursione
ĠRe i
Ġstu pore
Ġbu sta
alizza ta
Ġtor to
Ġbamb ine
Ġcrea tive
Ġdetta gliato
Ġguida ti
EL E
Ġpreci sato
Ġintegra ti
Ġindividu azione
Ġcondivi de
ĠTri p
Ġtrasforma ta
viso re
Ġcolpi ta
Ġintera zioni
Ġstimo li
Ġsottoscri zione
ĠVir gin
Ne ws
Ġagevo lare
ĠUr ban
Ġconsegui mento
Ġpomo dori
lea se
incre mento
ĠTechno logy
ĠTeso ro
A sia
F ICA
c ze
k istan
r Ã¬
s App
t Ã©
v or
to sa
ca ro
Ġda pprima
Ġan teriori
bi m
ĠA ssa
Ġpo lizza
ĠD ele
Ġpa st
pa sso
ero e
Ġfi ere
Ġfi renze
as on
ĠO ttimo
Ġris tre
ĠCa pri
mma i
Ġdis carica
Ġor moni
Ġabb inamento
Ġ19 45
Ġga dget
Ġdopo guerra
Ġscri vania
ĠMar chi
Ġtras formarsi
Ġz enzero
Ġmili ardo
Ġren dersi
Ġpresso chÃ©
Ġimma gin
Ġaggiun ti
Ġlascia r
ĠMe ga
Ġaffi anca
Ġsignifica tivamente
Ġcorre late
ĠTa volo
ĠTa bella
Al ta
cola ta
lle la
Ġsosten ute
Ġinvi sibile
Ġmanif at
Ġcoper ti
Ġassocia te
Ġvolon tario
Ġcontinu ando
Ġtar do
Ġama ro
Ġintro dotta
CI O
Ġriten gono
SI ONE
Ġcari che
Ġdimin u
Ġaggi udi
Ġcapp ello
Ġosta colo
Ġdisegna re
Ġcirc uiti
ĠAni ma
Ġabitua to
Ġsoprav viss
Ale ssand
ĠRegis tro
! ),
G NO
on line
er la
er ino
ia te
sa pp
Ġpo ker
Ġpa lato
ĠR ol
ver gine
Ġci ta
po int
gi ene
ss in
ĠE ste
mb ria
Ġco pi
ĠO ver
Ġta xi
Ġvol um
olo gi
ett ina
Ġpoli cy
Ġimpor ti
Ġmis ericordia
ĠSa ss
Ġdeci sa
Ġraccon tata
Ġraggiun gono
Ġsopra ll
Ġnu tre
Ġsosten uta
Ġfrequ enze
Ġavven gono
Ġcollo cato
Ġgiusti ficare
Ġcresc endo
aria to
Ġavanza ti
Ġbasa te
Ġlava trice
Ġindu bbiamente
Ġproto colli
DE O
Ġdec lino
Ġinterven uto
Ġappren dere
Ġrecipro co
mol to
Ġpani co
esplo sione
ĠMuni cipio
Ġpronos tici
disciplina re
Ġriprist inare
P G
a gente
d rÃł
f ale
s tin
ra na
Ġe tico
Ġe tica
Ġm ista
es cursione
Ġcom mentare
Ġcom andante
vi go
bi te
che tta
ĠL inea
Ġvi venti
ĠB and
Ġapp en
Ġ3 20
Ġbi onda
Ġfo glia
Ġcen eri
Ġcomple te
Ġinforma tivi
Ġass unti
Ġmor Ã¬
Ġorganizza tivo
Ġsvol ti
ĠUni ted
Ġricon duci
Ġsor veglianza
Ġanti bio
ĠHo t
Ġdetta gliate
Ġautori zzazioni
Ġero gati
ĠGiu dice
Ġabbas sare
Ġdovre mo
Ġricev ute
Ġus ura
Ġcristi anesimo
Ġcoordina tore
Ġformu le
Ġsoff ri
ĠDom ani
Ġringra ziamento
Ġdar gli
ĠDani ela
Ġpreoccupa zioni
Ġber gamo
Ġgoverna tore
Ġarricchi re
Ġmasch ere
Ġcredi bilitÃł
Ġincom pren
fisi co
Ġdottore ssa
Ġfram menti
Ġbaga glio
Ġinden nitÃł
ĠPresid enza
Ġparen tesi
g eri
m ura
z ero
Ġd ente
Ġs esta
Ġdi ur
un te
or gani
Ġal fabe
ma ster
ĠS assari
Ġde v
Ġsi ero
Ġma esto
se y
Ġre mun
Ġpi xel
Ġpa trimoniale
ga ra
Ġtra vesti
ĠB ill
go rio
Ġsc etti
Ġno ce
Ġapp osta
ing rosso
Ġter ranno
enta zioni
Ġdis tretto
ĠSi mon
Ġpen denza
Ġprog ettata
Ġconc et
Ġconc essioni
ĠBa sti
ĠBa keca
Ġprin t
ĠCi vita
Ġperm essi
Ġfinanzia to
Ġfanta sie
ES SO
Ġprom esso
Ġpuli ti
ĠPoli tecnico
Ġsper ando
Ġindustri a
ĠPe chino
ĠGre co
Ġsom mato
Ġenerge tiche
Ġpio gge
Ġ197 6
Ġassicura rsi
Ġrico tta
Ġlie to
Ġmone taria
Ġguard ano
Ġsfo glia
Ġcamp ani
wit ch
Ġconiu ge
Ġaffascin anti
Ġgeom etri
Ġstor y
ZZ O
Ġbiblio teche
Ġaffres chi
Ġgom me
Ġinfil tra
Ġinfanti le
abband ono
fac tur
. *
I D
c esso
f y
n uovo
p osti
re ne
ca s
Ġl us
ĠS ui
ĠP OR
Ġre clu
Ġpre lievo
Ġfa una
ĠB O
ĠB et
ss er
Ġpu ramente
ĠCa mm
Ġser p
Ġesp orre
Ġtempo rali
ĠPro mozione
Ġsal di
ĠMar ti
tui to
feri mento
ĠChi rurgia
av vento
Ġcentra lizzata
Ġcosto so
Ġdescri tta
Ġcaratteri zzati
Ġsoddisfa cente
Ġconcre tamente
Ġimpegna te
ĠProvin ce
Ġprefer iscono
Ġalti ssimo
Ġsucce dere
informa tiva
Ġopp osta
Ġtiro cinio
Ġraccomanda ta
ÃŃ a
Ġtrasfor mando
Ġdisce poli
ĠCommissa rio
ĠEdo ardo
ĠMerce des
C RI
a se
b one
e missione
z ino
z ando
Ġ Ï
en tusiasmo
Ġdi ra
Ġi cona
ro ba
Ġin tona
Ġf b
or tazione
ĠA ziende
ĠM iss
Ġpa glia
eri es
Ġci tazioni
Ġgi ura
Ġmi tico
Ġmo bi
ĠV isto
Ġco ri
Ġgra ffi
ing he
ĠMa gistra
us cio
Ġ3 000
at le
Ġstra ne
ĠW ol
Ġservi rÃł
Ġw ill
Ġten go
Ġcal colato
lla ti
Ġmani co
ĠPo e
Ġmis sioni
ĠSo ccorso
Ġsegui ti
Ġassi mi
ll one
Ġanti cor
Ġtesta re
Ġtorna ti
ĠVal erio
Ġlibera le
Ġbal coni
Ġriti rare
Ġtrasc orsi
Ġapprofon dita
oro logio
ĠBlu etooth
ĠLin gua
Ġfissa ggio
Ġdidatti ci
Ġcircon dato
Ġ; )
Ġsemb rerebbe
Ġscopa re
Ġvertica li
Ġinaugu rata
Ġrom antici
Ġsoffi tto
Ġrisal ente
Ġrazzi smo
Ġadempi menti
Ġomos essuali
Ġfebb re
ĠSmi th
A na
C olo
J o
K E
a prile
b etti
Ġp lus
Ġe mble
Ġm et
Ġcon gresso
Ġri av
Ġse duto
ĠM ed
ĠI van
Ġso ia
Ġtra versa
zz one
Ġfi anchi
gra fi
der Ã²
Ġgio ventÃ¹
Ġsca ff
Ġau si
In f
Ġchia cchiere
tr ono
ĠSo cio
Ġricerca tore
Ġlascia rsi
Ġsor ti
". "
atti va
Ġpol moni
Ġterre mo
Ġtur ni
Ġmette te
Ġragione vole
Ġtrasferi menti
Ġcorrispon denti
ĠEmi lio
Ġsplendi di
Ġmigliora menti
Ġrea gire
Ġarricchi to
Ġaccura ta
ĠAni mali
Ġingegn eria
fisi ca
Ġsicili ana
Ġesau sti
apposi ta
Ġdelica tamente
Ġcardina le
Ġaccatti vante
âĸĪ âĸĪ
G LIA
b l
Ð ¼
la bile
ra ce
ra tura
li ght
ĠS on
ĠS ess
Ġse duti
ĠA mb
Ġre pubbli
ĠL etto
Ġvi sioni
ĠB OT
Ġte en
ĠE ri
sti mento
sso lini
Ġad detto
Ġapp orto
Ġapp alti
ĠO k
Ġspe zie
ĠAl ba
ck ing
Ġmis si
Ġ8 2
Ġ9 3
ER CA
Ġcolle ttivitÃł
Ġcrea tura
Ġtri ennio
Ġbar be
Ġdif ese
Ġtema tica
Ġacco ppia
Ġmanif esto
Ġpresen tando
Ġsugg erimento
Ġries ci
ĠGior nale
Ġripor tano
Ġfri end
ĠPoi chÃ©
Ġdef inis
Ġmaschi li
Ġdramma tico
ĠPrin cip
Ġtosc ano
Ġigi ene
Ġlicen ziamento
Ġpresupp osto
Ġingiu sti
arbi tro
ĠCarne vale
n g
o dore
to rale
Ġdi esel
Ġi spe
Ġt rio
ĠC uo
Ġde te
Ġre pressione
Ġvi vente
Ġci tazione
Ġra so
ĠN ostra
chi tÃł
ĠV IA
gu rt
ven ta
Ġcomp lice
ren al
ĠCon tempo
ĠQu anti
ĠPro to
ĠGi ann
line a
Ġ7 1
Ġmani ca
Ġattra zione
ho use
ĠDe vi
ĠAr ci
ĠAr gento
ĠMon s
gh ts
Ġmor tale
ĠTu tta
Ġesc ono
Ġrice vono
Ġam or
Ġeconomi camente
Ġpara metro
Ġfina lizzati
Ġlavora zioni
Ġge la
Ġur genti
Ġrica mbi
tera pe
rando si
Ġbe ta
Ġequi val
Ġmemo rie
Ġviol ento
Ġspazi ale
ĠPe ccato
ĠEdi tion
Ġapprofon dito
Ġformu lazione
Ġpian gere
Ġlaure ati
rona che
ĠAcqu istare
Ġafferma zioni
BI LE
Ġmura tura
Ġanticipa zioni
Ġprogressi va
ade sione
Ġgall erie
Ġinde sidera
Ġpas tore
Ġprecipi tazioni
Ġflo tta
Ġsogg ette
ĠRich ard
Ġconcomi tanza
Ġrand om
Ġpiemonte se
P RO
P OR
U omo
f inale
h l
j an
o f
Ġd eroga
re ad
ra di
Ġdel usione
do lo
Ġpro di
ch ange
Ġma ternitÃł
Ġre torica
ĠI denti
mi r
Ġpi ro
Ġtra man
ĠF ashion
cc oni
me dio
ana mento
Ġnuo to
ba ti
Ġacc osta
Ġindi ano
cch ine
Ġfu ggi
Ġconta bili
Ġtradi mento
Ġani mato
Ġfavo rendo
Ġpol so
gge zza
ĠApp ena
Ġgiornali ero
Ġprofi tti
Ġrispon dono
Ġaiuta rti
ĠRis petto
ĠBe h
Ġmu tui
Ġfortuna to
ction s
Ġsovra nitÃł
Ġmorbi di
Ġricord ando
Ġaere e
Ġpremia zione
Ġsacri fici
Ġallesti mento
Ġanali sti
Ġmesco lare
ĠAg rico
Ġelen chi
Ġelen cati
ĠTecni ca
ĠEner gy
Ġdiale tto
Ġesauri mento
ĠArchite ttura
ĠFranci sco
apposi to
A udi
F C
g l
Ġs cora
la vo
Ġn ul
al tri
ĠP osizione
vo re
na p
na zionale
Ġvi talitÃł
ĠG P
Ġsta mattina
con s
ĠB ad
ĠB rindisi
po ol
Ġli eti
Ġli scio
Ġli stino
ĠLa va
ziona ria
Ġchi mico
Ġsuo la
Ġch ar
Ġ4 50
Ġdisp erazione
ĠAl meno
ĠSe bbene
sci volo
Ġdov eri
tina to
ho u
ĠSa mp
Ġimma gino
Ġarti ficiali
ĠX II
au ten
ĠApp untamento
Ġstabili ta
Ġartico lato
Ġinse gui
Ġ= >
ĠGro tta
ĠSpe ciale
pposi zioni
Ġringra zi
Ġobbliga zioni
Ġallena menti
Ġrespi rare
ces tru
Ġscia me
Ġriba sso
Ġasciu tto
Ġdiscre to
Ġscopa ta
Ġstatuniten si
Ġcomposi tore
Ġarra bbia
ccol ta
Ġpregiudi zi
ĠRen zo
Ġperiodica mente
ĠGine vra
C K
S tra
d de
g una
p oso
ri care
Ġper dendo
Ġt in
Ġb la
na me
ve i
ĠT U
ĠT es
ui tÃł
Ġra vvi
ĠN okia
du sa
Ġco gli
Ġco ppa
Ġno le
sc ente
Ġsa lata
Qu ali
ba sso
Ġcontro l
ord en
Ġtras cura
Ġconten ti
orta ge
Ġk iller
cos Ã¬
Ġporta va
mar k
Ġsvol geranno
be fore
Ġpopo laritÃł
ĠFor ze
Ġstruttura to
Ġappar so
Ġanima ti
Ġpelle t
Ġlan ciata
lin gua
ĠSte ve
Ġrecu per
ĠEdi lizio
Ġconce dere
Ġtru cchi
ĠAssi cura
Ġout let
Ġinsi gni
ĠSiste mi
Ġchiari menti
Ġtradu ce
abi tudine
ĠOp ere
Ġcrista lli
Ġsatelli tare
Ġecolo gica
ĠManu tenzione
Ġtelefon ia
mbur go
ĠITA LI
ĠCata logo
ĠUM TS
E B
e mail
g ranza
p an
Ġd etra
Ġv on
Ġg lori
Ġt ondo
Ġb et
tu al
Ġpro le
Ġpro stitu
Ġca ser
ve d
ve y
ĠB rand
ĠF ine
ss ine
ĠN era
ul tato
ĠIn troduzione
der li
Ġgiu ris
ed ding
Ġarri vÃ²
Ġdom esti
Ġtras versale
cri tto
eli ce
Ġdiven uto
ĠSo fia
Ġsoli te
Ġval gono
ĠGa me
ĠGa etano
Ġproblema tica
ĠSal vo
IS S
ï¿½ ï¿½
Ġespre sse
Ġriconosci menti
Ġriman endo
ĠDire ttiva
zzano tte
Ġassicu rati
Ġsperi mentato
Ġcompeti tiva
Ġcontrolla te
Ġconsider ano
Ġcentina io
Ġinedi to
Ġappre so
Ġcel ia
Ġingegn eri
Ġaut un
ĠEner gia
Ġparag ona
Fin almente
ĠContin u
ĠVio la
Ġarchitettoni che
Ġ zia
to li
en tando
Ġla tti
Ġla dri
co pia
ĠS os
is sioni
ch erebbe
Ġma xi
ĠA bbigliamento
Ġfa cce
Ġpa lio
Ġsp lendo
ĠR ES
ĠG T
ĠG he
Ġtu ba
ĠâĢ º
Ġra ta
ĠN er
Ġno ia
Ġdu rare
Ġalle gati
ĠH ong
Ġacc ettazione
Ġor din
Ġmon tato
Ġro mpere
Ġho use
Ġ19 50
cci ando
arti cle
Ġsoli dale
anda li
Ġval vole
Ġprote ste
tar mi
Ġfavo rito
dina mica
Ġcompi uta
Ġregistra zioni
Ġstre tte
tur no
auto strada
Ġero gazione
Ġado ttata
cal damento
Ġintro dotte
ĠVo dafone
Ġsoddisfa zioni
ĠIs truzione
Ġbol li
Ġcoordina ta
Ġliqui dazione
Ġsoff rono
âĤ¬ .
ĠColo mbo
Ġvege tari
Ġsimbo lico
ĠAve te
Ġfronti ere
osser vazione
Ġproie zioni
Ġsvizz ero
Ġucra ine
Ġstupefa centi
A LE
I VA
c uo
i gno
l ene
u ff
re am
Ġla ghi
ĠC OS
ĠS tri
sa li
Ġca duto
ĠM alta
Ġh d
Ġpi ombo
ĠG hi
ĠF uoco
ru m
Ġne onato
ĠO ccorre
gra fe
Ġta ss
zzo la
ĠCon venzione
Ġsco l
ĠJ i
Ġsuper ando
ĠSo pra
Ġmod ena
Ġgrandi ssima
ĠMe tal
Ġtran sazione
versa li
Ġguar ni
mati te
tagon ista
ĠGen erico
Ġmanu fatti
Ġprovo cato
Ġprefer isci
Ġsve dese
Ġdef in
Ġcontribu ente
Ġaccer tamento
Ġlegi ttimo
Ġspre ad
wi ki
Ġcatto lico
bli sh
Ġconsecu tivo
Ġsuperm ercati
Ġattravers ando
ĠWhat sApp
ĠMad dal
Ġsag oma
appo ggio
! âĢĿ.
. ^
I mpre
c essione
f ron
f arma
l ena
p ti
r un
r Ã¨
u tenza
la rsi
ra zzi
Ġper lo
ĠC osi
ce e
Ġfa tture
enti tÃł
Ġno zioni
ele vata
Ġta mp
Ġris u
Ġat ting
Ġver nice
Ġna zionalitÃł
ĠH ua
Ġindi scre
indi pendenza
mina zioni
In contri
Ġstu fa
ĠK ar
Ġtre men
Ġcli p
Ġer gon
com pati
Ġag on
Ġlin fa
Se mbra
Ġclassi ficato
ĠLu isa
Ġrin vio
Ġprev io
ĠDon ald
Ġarre dare
Ġinclu dere
Ġries ca
Ġriman da
ĠVa canze
Ġmeravi gliosi
Ġbor ghi
ĠSpe zia
ĠFer dinando
Ġsve glia
Ġtrasparen ti
Ġavvicina re
ĠSU L
Ġaspi ranti
Ġparro co
Ġrece ption
Ġtab elle
Ġpolizio tti
ĠCoopera tiva
ĠFemmini le
cestru zzo
g Ã²
i ta
k g
Ġc ella
in n
la scia
Ġe fficienti
Ġe bay
di u
di ri
va glio
ĠP osta
ono ra
Ġca tte
Ġca denza
Ġpo zzo
ĠD an
ran io
Ġpa li
ĠG ino
tri te
gi an
sti citÃł
Ġco tta
zia menti
per ti
Ġta tti
Ġvol endo
Ġesp ro
Ġfo gna
st inesi
Ġtratta tive
Ġcu ccioli
Ġ10 5
ĠPo int
ĠDe vo
Ġannun ciare
Ġop tare
Ġpropria mente
Ġcitta dine
Ġseconda rio
ĠBo cca
Ġcoper te
Ġoccupa re
Ġatta ccare
Ġderi vano
ĠJo ur
Ġindipen denza
Ġecce zioni
ko v
Ġnucle ari
Ġritor n
Ġeccessi vamente
ĠYou tube
Ġacu stico
ĠUr bino
ĠSegre teria
ĠClassi co
Ġpertin enza
ĠGioca ttoli
G oogle
S D
c lini
l r
p ing
v ve
er ni
Ġin trinse
Ġv escovi
ĠC G
ĠS cu
ĠS PA
Ġle gu
vi ca
tra tto
Ġpre go
mi d
de sign
Ġvi tali
ĠG D
ĠG allo
Ġu tensili
Ġpar eri
ĠF ede
ĠE lenco
cu ssione
ĠIn tel
ĠMa ttia
Ġcor ta
ĠH it
Ġesp osta
Ġdisp ensa
ĠW eek
ĠRi ce
Ġprog re
Ġparti rÃł
Ġcri mine
Ġpotre ste
Ġsetti mo
Ġlimi tazione
th an
Ġdimen si
Ġillu stri
Ġatten zioni
ĠGo ri
assi s
Ġfir m
Ġinca pace
Ġtar ga
Ġrep ortage
inte gra
Ġinterpre tazioni
Ġrifi utato
Ġpal ermo
Ġsm alto
Pre sso
ĠLib era
ĠImp eria
IL ANO
Or ganizzazione
Ġtraccia re
ĠColo ri
Ġspagno li
Ġoper ante
Ġstri sci
Ġidone a
Ġaggre gazione
ĠContra tto
Ġsepol cro
Scri tto
ĠAward s
g almente
g by
u cher
er ando
si sti
Ġf r
Ġper venire
Ġo landese
Ã¨ re
ĠC S
sa i
Ġcom anda
bi che
Ġca ris
ĠA V
mi era
sp o
Ġtra spi
ĠG on
tta menti
Ġtu be
ĠE state
Ġimp asto
Ġgra mmatica
ĠCa sta
ĠCa mbia
ĠH alloween
Ġsca denze
Ġcan celli
Ġsal vi
Ġstan co
Ġgesti onale
Ġevi ta
ĠGa ra
tar vi
Ġlimi tati
ordina rio
Ġimpre ziosi
ĠEx tra
Ġdichia rare
Ġdia loghi
Ġas tro
ann el
Ġpubblici tarie
Ġrile vamento
ĠSta tuto
Ġobbli gato
Ġviol enti
Ġeli co
Ġleader ship
Ġ197 5
Ġzucch ine
ĠEle ttroni
ĠYo ga
Ġfiloso fo
Ġgiuri diche
van deria
tena rio
Ġles bo
Ġrivolu zionario
Ġnapole tana
Ġnazi sti
ĠDemocra tico
Attra verso
Ġdomesti che
A ni
B ER
L ui
U r
g esti
g onale
n ell
s burgo
u da
Ġa ste
ra ga
or te
Ġo bbe
Ġpro ro
Ġse gua
Ġsp ento
Ġtra gica
ĠB lan
Ġte glia
Ġlo s
ĠE va
Ġme tano
Ġdu plice
ĠMa g
ĠMa mma
ĠPa lo
il y
Ġes tro
Ġabb inato
ĠK u
Ġcomuni taria
Ġtras missioni
ĠSa cro
Ġ8 3
fo x
Ġconse guire
Ġbo om
Ġaggiun tive
Ġimpre scindi
ĠTo ro
Ġautori zza
cher Ã²
Ġmeri tano
Ġstabili te
ĠRis par
iss ero
Ġimpegna tivo
Ġsud detto
Ġyo gurt
ĠCons ulta
ĠEr n
So tto
Ġdri tto
ĠGar cinia
Ġevol uti
ĠPres entazione
Ġprivile gio
Ġbenefi ciare
ĠMac erata
Bi sogna
Ġsimu lazione
Ġriscontra to
Ġrina scita
Ġrisco prire
Ġpillo la
Ġje ans
A rea
A utore
M as
d et
o gni
on anza
Ġa sta
li ya
Ġe Bay
ro om
Ġla ma
ĠS RL
che ster
ĠA gli
ĠA udi
Ġpre ma
Ġpo tenze
ĠD PR
Ġci eli
ĠE gitto
Ġgi ta
pa tica
Ġsc eso
Ġimp ulso
ĠIn fra
Ġgra fiche
tico li
ele ganza
etta bile
mpo o
mpo tenza
Ġpor zioni
Ġto po
Ġro tolo
gn ani
res cita
ed do
mpa tia
Ġsui te
Ġk now
ĠGa sp
ĠX xx
Ġlimi tate
pu ter
Ġspie gano
ĠBo b
Ġpla tea
Ġur genza
Ġeserci to
tran si
Ġpensa va
Re ad
ya mb
Ġmicro onde
Ġadatta mento
Ġcoordina to
Ġripa ro
Ġpremi um
Ġavvia ta
Ġmeccani ci
Ġspon tanea
Ġsaper lo
Ġconsoli data
Ġgoverna re
Ġrivela rsi
Ġdiscre zione
affi damento
ascia tore
Ġtrion fo
ĠSper iamo
Ġdispon gono
Be h
Ġlumino si
Ġbesti a
Ġopportuna mente
c ene
i rente
s ino
u lette
Ã ª
Ġ !!
ti zzazione
ca pelli
di chÃ©
do w
ma tori
ĠC LI
ĠS truttura
sa mo
ĠP AS
Ġse me
ĠM estre
Ġre i
Ġre tribuzione
Ġpi ra
ĠD ettagli
ĠG or
ĠT hai
ĠB anco
gi un
gi Ãł
ĠV ed
âĢĿ ?
Ġfi deiu
Ġven dono
Ġvo tazione
Ġvo lanti
Ġcomple mentari
Ġpe si
gh an
Ġass etto
Ġporta tori
Ġorganizza tive
ĠGa mb
car d
Ġrice verÃł
Ġru rali
Ġmeta fora
Ġcorri spetti
umi ditÃł
Ġcic lismo
Ġriten ere
inf edele
ĠCer chi
ĠSci enza
Ġstimo la
Ġsve gli
Ġsoffer to
Ġgradu ale
Ġinterro mpere
ĠFla sh
Ġappo ggia
Ġflessi bili
trin elli
ĠPara diso
Ġarma dio
ĠMedio evo
Ġboni fica
ĠQuo tidiano
Ġcosme tici
Ġvideogio chi
Fo to
Ġalgorit mi
Ġesprimer si
L C
S TA
V EN
b ero
u er
Ġa la
Ġa cri
Ġa eroporto
en tina
Ġin verti
os tri
ar che
Ġb ed
Ġde moni
ĠL CD
mi t
mi zzazione
Ġpi etÃł
Ġpo chino
ĠG esti
Ġimp u
Ġapp orta
Ġdire ctory
ffer enza
Ġmar ino
Ġmar mella
gis ce
ĠMo ra
ĠDe gli
ĠLi vello
ĠFi loso
Ġscel gono
Ġsor preso
tar ti
Ġesclu sa
Ġcontinua zione
moni e
Ġfran chi
Ġcoinvol gendo
Ġrifle sso
ĠSta gione
Ġspecia lizzate
etter si
Ġbio diversitÃł
ĠMas chi
dire tti
Ġprovve derÃł
don ne
ĠGre gorio
ĠEdi lizia
Ġipo cri
Ġnomina le
Ġ196 8
Ġaggi ra
Ġpropor zioni
Ġsimpa tica
Ġdanne ggiato
Ġdisegna to
Gio vedÃ¬
Ġconveni enza
Ġsepol tura
Ġsacerdo ti
Ġraffred damento
ĠOro logi
Ġbaga gli
Ġcontraddistin gue
ĠTecno logia
Ġlumino sitÃł
ĠImpre se
Ġbrasili ano
Ġaccom una
Ġcentrocamp ista
1 50
p rono
Ġp ull
Ġa glio
ar ten
al fabe
ĠS qu
va ro
va torio
ĠA sp
Ġpre ss
Ġsp arsi
ĠT ette
ĠB ren
Ġgi ung
Ġpu rezza
Ġco upon
Ġli ke
Ġcomp orre
ĠU K
ĠIn fer
Ġchi c
Ġgen iale
Ġrisp ettando
ĠGi us
Ġcontra sti
Ġclassi fiche
Ġrin f
Ġabi tu
Ġru mori
An nun
Ġregistra te
Ġmeri ti
ES CO
Ġdedi zione
ĠGia llo
orti amo
Ġconcor rente
Ġdimenti chiamo
Ġdistin te
Ġmuo vono
Ġpresti giosi
Ġcompeti tivi
Ġinstalla ta
Ġth riller
Ġmatura ta
Ġcerte zze
ĠPrin cipe
Ġriass unto
Ġamb ula
Ġcami cia
Ġcala bre
Ġagis cono
ĠSel va
ĠSER VI
Ġcorrido io
Ġanom ali
R u
d enziali
m ette
Ġ Ø
Ġs guardi
Ġa ci
or lo
ca go
al bo
et y
ĠS he
ĠP un
Ġse cre
ĠA posto
fi citÃł
Ġfa ri
ga smo
Ġsta cca
ĠB y
ĠB est
ĠE bbene
Ġne bbia
Ġpos tato
Ġco ca
cco la
ĠO P
Ġto talitÃł
at tra
ĠRe lazione
Ġcons orzio
sci mento
ĠJ ones
gina li
ĠBa ssi
Ġ9 1
Ġpe core
arti gianato
mato logia
ll y
Ġamm ette
Ġlascia mo
alle stimento
Ġfanta stiche
Ġcarta ceo
Ġmal tempo
ĠAu ton
ĠCre ma
Ġacquisi te
Ġfan go
Ġsufficiente mente
Ġriserva te
Ġradica lmente
Ġproto tipo
Ġcass etti
Ġcucchia ino
Ġpas tori
Ġsinte tico
Ġbril lanti
ĠAve va
Ġpetro li
Ġquaran t
ĠSand ro
Ave te
ĠEconomi co
ĠJose ph
Ġbarbe cue
yamb liya
a ker
c ele
e vi
Ġc umu
Ġa ggior
in etti
en er
Ġdi mos
Ġe pub
Ġdel inqu
Ġv ettore
Ġv ardenafil
Ġcon vento
qu ello
ĠC ena
io ra
ĠP lu
Ġse cche
Ġca ttedrale
ĠA CC
ĠI X
de mocra
ĠB ang
Ġte sori
Ġdo ttori
Ġcos tanti
ĠV AL
me la
me ga
Ġapp e
Ġapp rendi
fica tori
Ġsa ggezza
Ġpres unto
ĠCa ttedrale
ĠLe e
Ġpossi bilmente
Ġpen i
Ġau trice
Ġdov essero
ĠJ an
Ġaff li
Ġmis eria
Ġricerca to
ĠDo u
ĠBi an
Ġimpre ssione
ĠCas telli
ĠNi ght
IS TI
Ġintegra lmente
Ġguar dato
Ġpresta to
Ġcomin ciÃ²
Ġfal lo
ori entamento
Ġimmedia te
Ġprevede va
Ġscom messa
Ġab uso
ĠTro feo
Ġripa razioni
Ġposiziona to
Ġille gale
Ġcompati bilitÃł
Ġpala zzina
Ġlingu istico
ĠIde ale
Ġback up
Ġzi p
ĠFarma cia
ĠFrat elli
Ġpoten ziamento
Ġtex ture
Ġoppor si
a zzardo
d ona
s ho
t d
ti sta
Ġm etterÃł
Ġg no
Ġri lievi
ĠC OL
gg iamo
ĠM AN
Ġh ol
Ġsp ol
con os
du ttore
Ġpu gliese
ĠIn contra
ĠMa da
Ġat tin
Ġver gine
Ġvo la
Ġacc orto
Ġes ca
ĠAn n
ĠSi m
Ġw hat
Ġcan nella
ĠPro mo
ĠPro duzione
ĠVi c
Ġscri vono
Ġcal ze
Ġfe ci
Ġfe cero
Ġben chÃ©
Ġ8 7
Ġutilizza bile
Ġspeci ficare
Ġconta ttato
Ġqualc un
AN TE
TI VA
ĠX IV
ĠX box
Ġaffi dare
Ġconfer isce
tar ono
gen ce
Ġesa tto
Ġcorpo reo
ĠTor ri
ĠTo uch
moni ca
ttare lla
ĠCos t
Ġrica vare
Ġpubblici taria
ĠApp artamento
Di re
ĠSta tale
Ġsba glia
Ġscher zo
Ġesperi mento
Ġintra preso
Ġmus colari
end one
ĠVol ta
Co dice
ĠÃ ī
Ġdiba ttiti
Ġplu gin
Ġanalizza to
Ra ga
Ġeduca tiva
ĠPubbli ci
Ġconiu gi
Ġimpos tato
Ġfunzion ante
tinera rio
Ġcrista llo
Ġbicicle tte
Ġlav or
Ġmagni fico
Ġlampa de
Ġindire ttamente
ĠMili tare
Ġflore ale
Ġcommerci anti
Ġsopran n
N uo
f onico
Ã ¥
Ù Ħ
Ġs arda
ia cu
ĠS m
ĠP el
vi co
bi zione
Ġpre fi
Ġpo vere
con om
ĠF ru
ĠF ull
Ġlo c
ĠE mo
pi re
Ġsc uote
ĠIn vesti
Ġai r
Ġric orre
ess ualitÃł
Ġes tera
lan gelo
Ġdire ttori
ĠRe la
ĠRe lazioni
Ġcar ton
Ġstu zzi
Ġinf issi
ĠChi ese
Ġaffi darsi
ĠNe go
Ġ11 5
ĠGio co
Si tuato
Ġprepa rata
Ġstre et
EL A
Ġcostrui te
Ġ28 5
Ġraff inati
Ġalterna tivo
ĠRom ania
Ġ197 7
Ġristruttura re
ĠPos so
Ġpreval ente
Ġcamp ana
Ġtelevisi ve
Ġsinc ero
Ġdec esso
Ġincu bo
Ġconsecu tive
Ġtassa zione
bet h
Acqu a
ĠChar les
ĠDar k
Ġcada vere
Ġmultimedia li
Ġrilan ciare
Ġrimos so
Ġetero gene
Ġadde bi
tain ment
D ia
F ER
N uovo
a ver
c tus
u cc
Ġ {
Ġ ron
en g
Ġin a
Ġo dori
ĠS enti
ere o
ĠM AT
tra sp
ĠI a
Ġpi zzo
Ġpa lo
ĠG IO
ĠT as
Ġlo giche
ali mentare
Ġme mbra
me zzi
pi ta
Ġad dor
zia te
ĠO spi
Ġva sti
ĠCa ffÃ¨
Ġesp one
lizza zioni
In terno
ett one
ĠMar coni
ĠFa x
ĠDa te
ĠRa dica
Ġfre ga
Ġperm etta
Ġscon si
ĠGra sso
Ġcolo sso
ĠTo tÃ²
Ġproprie taria
mor ra
Ġado ttate
Ġdipen dono
Ġfanta stici
Ġtar ta
Ġprogetti sti
Ġtrov ando
Ġinci dere
Ġscher mi
Ġsoggior ni
Ġchiama va
Ġfol k
Ġguada gni
Ġrico vero
ĠEsp osi
ĠBro wn
bita t
Ġriven di
Ġaccre dita
Ġintito lata
ĠRes ort
ĠPotre bbe
Ġsonda ggi
ĠEu genio
Ġgeno va
Ġequilib rata
Ġimbar cazioni
ĠLon go
Ġimpegn arsi
Ġincer tezza
Ġcampe ggio
ĠRoy al
Ġriposti glio
A g
C ari
a cido
u ria
z ar
z uela
Ñ Į
Ġ \
Ġ !!!
Ġa h
in es
in no
in fezione
ti zione
ti ene
un es
âĢ ¨
Ġper u
vi sion
Ġan eddo
ĠA de
ĠA ure
ĠA ssemblea
ĠR and
ĠT AR
ĠT XT
tan iss
Ġme zzanotte
ĠV ER
sso la
Ġpu gno
cu men
Ġinter cetta
ĠO fferta
Ġcre denti
Ġto lleranza
ĠH el
ĠCom ando
ĠPer u
Ġen i
ĠRe port
Ġbu ttare
ĠRi cerche
Ġten ore
Ġpoli estere
eni che
Ġcal cestruzzo
Ġsistema re
Ġsegui rÃł
Ġconse gue
Ġval li
IN IS
Ġcondivi dono
Ġesclusi vi
Ġritro viamo
Ġbal lare
Ġresid uo
Ġmino renni
Ġeli minato
udi enza
Ġsess ualitÃł
Ġcorrispon dono
Ġcostru ttori
enn is
Ġassicura zioni
Ġpale stinesi
Ġglob ali
ĠEle c
Ġpropor zione
Ġcass etto
Ġconsoli dato
Ġinven tato
Ġimprov vis
OLO GNA
Ġsensibili zzare
Ġsuggeri to
Vo le
Ġragi onare
Ġarche ologico
Ġridi mensi
Ġaiu tando
Sp esso
ĠProfessi onale
ĠBas ket
ĠCroci ere
Ġnuvolo so
Ġbisogn erebbe
Ġcriptoval ute
carb onato
taniss etta
O spedale
R EN
i ano
en tri
en ale
Ġe men
Ġe gu
os ting
ĠS hop
ol ini
ĠM eno
ĠL en
na zione
sp an
ĠD C
Ġci to
pa usa
ĠV ero
Ġpos tazione
cu a
Ġar ren
Ġchi p
Ġris anamento
ĠPa trimonio
ĠAn der
Ġman d
Ġau menti
Ġcu te
ĠJ im
ĠMar tini
ĠLo ro
Ġconsi dere
ĠMon diali
Ġfre no
ĠBi ke
Ġseconda rie
Ġnu bi
Ġesclu de
Ġinizi ando
ĠGu gli
Ġaggiorna te
Ġasse gnare
Ġemo tiva
Ġmal va
Ġinvia te
Ġdistrib uire
Ġoccupa ta
Ġstudi oso
Ġpom pino
Ġelettroni che
Ġdiv orzio
Ġconce de
Ġgre ci
Ġsvilupp ano
EG LI
ĠMetro poli
Ġtrib uto
Ġrivesti menti
Ġinterro tto
Ġaccon cia
Ġmuni cipale
Ġsuddi viso
Ġarche ologici
Ġaccel erare
Ġpon endo
Ġarma di
Ġped onale
Ġinnamo rato
ĠImpa ra
Ġflui do
Ġfragi litÃł
Ġasia tico
GLI O
Ġrisve glio
Ġdelica tezza
ĠEserci zi
Ġpelleg rina
ĠTera mo
Ġpiastre lle
Ġaperi tivo
L ascia
M W
N L
b w
v ella
Ġ ^
la in
Ġsu ss
Ġl yambliya
ĠP ronto
gg ente
ce mia
ĠA vi
se gue
ten nale
bb ri
ga mes
Ġsta di
ĠE PU
ĠN ar
pa s
pa le
Ġcomp ortare
Ġar mati
ĠU craina
ssa ti
mpo li
uti que
gn anti
esta mente
Ġfo ri
Ġpia stra
ĠRi ca
Ġprog ettati
Ġspa ccio
Ġinf ed
Ġfu mare
ĠVi vi
ell one
vin ce
ĠÂ« Â»
ĠLi gure
Ġmor tali
Ġcentro sinistra
TI ON
ĠCh rome
Ġrin via
Ġutili zzi
Ġfonda tori
Ma teriale
acc ento
osti tu
Ġcompre sse
Ġanzi ane
ĠSta dio
ĠAle ssia
ĠAle ssio
Ġraff ina
id s
Ġregola mentazione
Ġconsegna ta
Ġestra rre
Ġstudia ti
Ġaccor gimenti
ĠVen ere
Ġattre zzato
Ġliqui ditÃł
Ġpreventi va
Ġconi glio
ĠSh ar
ĠHe alth
Ġallesti to
ĠIndi rizzo
Ġsuddi visi
Gio vanni
Ġtrasfer isce
Ġincom ple
ĠStan dard
Ġcelebra zioni
web kit
ag ing
Ġrisc os
ĠManu el
Ġsicili ani
Ġmanifes tato
Ġsupple mento
ĠPay Pal
Ġmosa ico
Ġsalvaguar dare
M ON
N ello
S ca
m el
o vvero
w atch
ï ¼
Ġc um
er ne
in sa
Ġdi rti
Ġm use
qu ie
ar monia
Ġo va
ĠC ento
ĠS ino
ĠS inistra
Ġb in
Ġan gos
pp y
Ġvi v
Ġsp oso
ĠR an
Ġu bria
cc or
ĠV ale
ĠV escovo
Ġad do
ĠIn nova
Ġpres unta
ĠCa tanzaro
Ġver sato
Ġacc endere
uti ci
Ġdisp etto
Ġro bo
Ġcons ensi
Ġsca rsi
Ġcar ina
Ġatti vita
In n
Ġsal mone
Ġquesti onario
ĠK ey
Ġaff ettu
Ġlun gi
ĠDe cora
Ġk ey
Ġedi tore
Ġprote ina
Ġricon qu
ĠPar tico
Ġnu da
acc ettazione
au la
Ġospi talitÃł
Ġado tta
ĠGiu di
ĠOr lando
ĠGen naro
Ġgri do
Ġmos che
Ġtenta zione
ingra zio
Ġcostru isce
Ġucci si
Ġfissa ti
Ġsorri dere
Ġfili ale
Ġaro mi
Ġdenun ciare
Te ch
ĠXV II
imposta zione
ĠSet tanta
incre dibile
Ġimmen so
Ġdistribu tori
Ġpreser vare
" ).
E ppure
M od
U D
d elle
s etti
v arlo
Ã ®
Ġd arti
er mea
la ria
Ġin d
ia re
Ġcon tanti
Ġla vanderia
co lano
di sco
Ġri mo
ĠS k
ĠS is
mo z
Ġse dici
ĠL uogo
fi le
ran ce
ĠR ese
Ġlo tti
ĠE duca
Ġco py
Ġcomp ia
cu rio
cco le
as ciata
ĠMa ss
Ġto pi
enta ti
Ġbi rre
Ġdis tanti
Ġro cci
Ġman ga
uta te
Ġconf ezioni
st ini
Ġsin er
Ġcu bi
ĠCo op
Ġdiri ge
cos te
Ġmor f
Ġesi sta
Ġsera le
Ġdif ende
Ġsele zioni
Ġce duto
Ġillu minare
Ġsfi lata
Ġscar so
Ġsegre ta
ĠSpa ce
Ġcolpi te
ĠAnton ella
Ġfortuna tamente
Ġassa ggiare
Ġdesidera ta
Ġillustra zioni
ĠAL L
Ġperman enti
Ġmeravigli ose
Ġsedi le
Ġdivi dere
inten sitÃł
ĠDiri tti
Ġsconosci uta
Ġcel este
Ġrilass arsi
Ġapprofi tta
Ġnatali zio
Ġreper ti
ĠTrasp orti
Ġubi cato
ĠSetti mana
Ġoss essi
Ġcontrover sie
Ġdomicilia ri
ĠPisto ia
ĠXM PP
Ġsplendo re
ĠMaddal ena
B E
F ES
V ene
b uilding
b untu
t v
u fra
Ġ omeo
ra go
li ber
Ġm altra
Ġf uni
om ercato
Ġri media
Ġde ce
ĠA bra
Ġso urce
sp ot
ss ette
tori um
Ġcos tella
ĠV IS
ando le
Ġcor teo
Ġ5 000
ĠSi mona
Ġforma li
Ġcu ffie
Ġinf li
ĠK h
Â° .
fo bia
fo od
Ġori entato
Ġsoli sta
ĠDo c
Ġbiso gnerÃł
alle t
Ġcausa ta
Ġni cchia
Al tri
Ġprepa rando
Ġgioca ta
eti c
Ġfanta sy
Ġsto ck
Ġstabili menti
Ġmatt oni
Ġesclusi ve
Ġpotenzi are
Ġconvin ce
truttura zione
Ġpartecip ante
Ġorgani ci
Ġconce pito
Ġ197 3
Ġ197 4
Ġrico perto
Ġsosp etti
Ġcru ciale
Ġaccetta bile
En tra
Ġdramma tica
Ġinqu inamento
Ġidone e
ave vo
Ġmul ta
ĠRosa rio
Ġpredi li
Ġautonoma mente
Ġstup endo
fet tura
ĠWord Press
ĠCann es
C entro
M M
S h
V e
g ello
Ã Ĥ
Ġri pie
io do
ol ina
Ġvi eni
ga ma
ĠT oma
ĠN ulla
Ġcos mo
ĠV eni
ĠLa b
Ġris enti
Ġven dute
ĠRe cen
indi cazioni
Ġfo rex
Ġw elfare
In di
Ġstori camente
ĠMar rone
ĠMar tedÃ¬
mpa gne
Ġfra zioni
ĠMo tor
val utazione
ĠLo cale
ĠPre venzione
fini ta
Ġag ru
TI CO
Ġsetti ma
ĠBi anchi
ĠGra zia
Ġcorre tti
ĠSp A
Ġdocu mentari
Ġstre pito
Ġturi sta
ry s
Ġcomplessi vi
ĠJa zz
Ġconcentra rsi
Ġidea ta
Ġviss uti
Ġtrib Ã¹
ĠCA P
Ġcosid dette
Ġmeccani che
ĠLond on
ĠGol fo
Ġpelli cole
ĠPubbli cato
Ġinde boli
Ġuniversi taria
Ġcondomin iale
itali ana
Ġspo gliato
Tro va
ĠIde e
Ġnottur no
inse gnante
Ġadia cente
Ġriun isce
ĠRecord s
orden one
) ?
B elli
H anno
S in
p elle
Ġ uovo
er te
in cro
Ġe terno
te m
Ġm etta
Ġla yout
Ġal col
ĠC EN
ĠP ul
oni bili
ĠA mo
se e
Ġso vie
ĠT ess
ĠâĢ ĭ
ĠF IA
ĠF IS
ĠE X
hi p
Ġmi grazione
pi di
Ġapp or
ĠIn clu
ĠO vest
Ġdis to
ĠPa gine
vol ti
ur genza
Ġro busto
Ġdov essi
Ġincon sape
Ġos cu
Ġtratta te
ĠGi uri
Ġgenera tore
labo ra
Ġmolti pli
Ġpren di
Ġsenti vo
Ġrin chi
ĠPar la
Ġpartecipa zioni
acc el
Ġni ke
Ġdol laro
Ġfotogra fa
ĠNi col
Ġintegra te
Ġcro sta
Ġguar di
Ġpla yer
Ġfanta sma
Ġgiornali ere
Ġritro vano
Ġpreferi bilmente
ĠRis erva
Ġprovve duto
Ġcostitui ti
ĠPal ma
Ġorgani ca
Ġfres che
Ġinda gati
ĠFin almente
ðŁ ĺ
Ġ197 1
Ġdesidera re
Ġsottop osta
Ġinser isci
Ġnucle i
Ġdet razione
ore cchio
Ġoper anti
Ġaccen nato
Ġmagistra le
identi ficazione
Ġdeten zione
Ġpresc el
Ġpreli minari
ag osto
ĠSpor tivo
ĠIstitu ti
ĠGratui ti
Servi zi
Ġbreak fast
Ġcoa diu
Ġincante vole
Ġcerni era
A mici
H D
Ġd esta
Ġd onato
Ġdi vise
ro w
Ġfa le
ĠD etto
Ġpa gando
ĠT IM
ĠE ster
ani eri
ĠV la
Ġcomp oste
Ġinter lo
Ġess enza
ĠU tenti
ĠIn dica
ĠPa g
ĠPa ssi
rin t
tt ing
Ġman os
Ġfo ggia
ĠRi chi
Ġincon ta
ord ino
Ġ10 1
Ġvisi onare
Ġcolle gio
ĠPre ss
Ġfre ddi
Ġass et
ĠUni tÃł
Ġdiffer enzi
Ġrappresenta ti
au dio
Ġpoter lo
Ġguar do
Ġatten dono
ĠDis co
Ġritro varsi
Ġriten uti
Ġpreferi bile
ĠRis ultati
Ġdimenti ca
Ġgusto so
Ġmede simi
ĠLega mbiente
Ġcontribu endo
Ġextra vergine
Ġlegisla tore
Ġmatura to
Ġinqu inanti
Ġrefer ente
Ġimmer sa
Ġelettro magne
Ġappli cando
Ġmagistra to
Ġconforte voli
Ġscul tore
Ġattraver sato
Ġabbat tere
Ġdifen dersi
rinten denza
ĠScienti fico
ĠGiord ano
C ro
C ir
S ai
c oso
d eli
i che
m etto
w an
Ã ī
Ġ omici
Ġs vin
re tta
un ge
Ġper form
ci etÃł
di um
ĠS D
ĠS tile
Ġde vol
ĠA gn
Ġvi vanza
mb lr
Ġcos tanza
Ġar teri
Ġav an
gna te
Ġgra nata
ĠPa role
ĠLe gis
Ġen tri
Ġen ne
Ġabb inare
sto viglie
Ġatti ra
In terna
Ġprof e
Ġcir cola
ĠJ es
Ġfin anze
cci one
ĠLi do
Ġins ul
lar lo
Ġfina lizzate
Ġprece de
ĠTe mpio
Ġricos tru
ĠGiov anna
Ġstrate gici
Ġpass er
Ġpass erÃł
inte stino
Ġrifi utare
Ġgri da
Ġmos so
ĠCan di
Ġaccompagna mento
Ġsub isce
Ġacquisi ta
sili co
Ġsve la
shi rt
ĠAL LA
Ġclima tici
atta ccante
Ġinfini to
Ġacu ta
Ne w
ĠMess enger
Ġcasu al
Ġrub are
Ġmagazz ini
Ġsov rano
Ġesplici tamente
Ġcanta utore
Ġstup enda
ĠBell uno
Ġsogg etta
Ġsena tori
Ġbersa glio
ĠPesa ro
Ġindiscre zioni
; âĢĵ
E u
G H
G er
e go
g lu
g mail
l uo
s in
on to
Ġdi ro
ra l
or ra
or da
or veglianza
Ġg rin
Ġb alla
vi glia
ter rÃł
ĠM oni
Ġpi ttori
Ġsp onda
tta si
po tente
sti ma
ĠLa dy
sc etti
Ġven tina
ĠCon segna
ĠPa ris
lan tico
Ġabb onamenti
ĠAl fonso
sis ce
Ġfe con
ĠCor rado
ĠCo ppie
Ġrela tori
Ġfre ccia
Ġmin ia
ke y
Ġapplica bili
ĠEn el
ossi er
ĠCol diretti
Ġacca dendo
Ġrep erire
ĠVa lori
Ġtur bine
Ġabbas sa
ET TA
Ġinda gato
Ġprefer enza
Ġpad rona
Ġbol lo
Ġdecora re
Ġimmagina zione
Ġinser ti
Ġpreventi vamente
ĠComp ra
Ġere ditÃł
ĠMu ssolini
Ġdanne ggiare
Ġglu co
ĠAS L
Ġscorre vole
Ġigi enico
Ġprosegui to
Ġamplia mento
Ġantin cendio
ĠScola stico
Ġschiavi tÃ¹
ĠStori co
Ġverte brale
ĠMuse um
Natura lmente
ĠEPU B
D unque
H P
M B
M edi
U mbria
b ale
c ul
e f
h ere
j on
m t
t teri
t Ãĥ
u va
Ð ´
Ŀ ¤
Ġs bu
Ġp esti
Ġa po
re to
ra bili
qu anta
ma la
Ġri ciclo
ĠS EM
Ġle cce
gli anze
Ġma gazine
ĠM and
eri te
ĠG O
Ġci ca
ĠB ando
ĠF li
Ġdo vendo
sso l
Ġad circa
gna zione
ĠIn stitute
ĠO ttima
anti chitÃł
Ġpor tante
Ġver rebbe
Ġna use
Ġna ufra
Ġgen ero
Ġdove vo
Ġ10 7
Ġmis chia
Ġtor ner
Ġricor renza
Ġconta dino
Ġsenti te
RA R
bbi ano
Ġfotogra fiche
ossi p
ĠFo rex
ct s
Ġmus t
ĠPietro burgo
Ġspiri tualitÃł
ĠMis ure
Ġconven zionali
Ġpremia ti
ĠBon us
Ġconveni enti
ĠContra ssegnato
Ġsostitu isce
Ġstipu lato
Gu arda
Ġurban istico
Ġindimenti cabili
Ġequilib rato
Ġdebb ono
Ġcentroca mpo
Ġcessa zione
infer no
ĠWiki pedia
Ġcavali eri
Ġincarica ti
Ġidrauli co
Ġsusse gui
Ġantiossid anti
ĠMate matica
Sicu ramente
A G
F R
o ttenimento
r eranno
Ġ ~
Ġd oni
er tamento
ta ggi
Ġm anto
Ġf li
or chestra
os ter
ma tore
is tante
bi rin
Ġma tita
Ġca t
Ġre tto
ĠI sole
Ġpre fa
era tori
eri ci
ga menti
ĠN ino
for tuna
Ġsa lari
endo lo
Ġvo ucher
ĠCon fi
ĠCon sidera
fa ri
Ġpen nello
Ġcer cherÃł
Ġcan cello
ĠGi orno
Ġarri veranno
ĠPo k
usa to
Ġcit y
ĠMon t
fer ma
Ġasso gg
Ġpren diamo
ĠChi cago
ĠLu do
Ġabi tudine
Ġcap ello
Ġrappresenta zioni
Ġdeli cate
par t
ĠVal eria
ĠFo x
Ġpiace volmente
Ġchie dersi
Ġcomba tte
Ġmedio e
Ġchiede va
App ro
Ġsuppor tato
Ġcomun isti
Pu Ã²
Ġaccol ti
ĠNu de
oli va
Ġvedre te
Ġcontraddi zioni
Ġimple mentare
Ġsangu inamento
Ġcompor tano
Ġdiscri minazione
a f
c ture
u more
w is
â ĨĴ
la via
Ġin siste
Ġse te
Ġma mm
Ġca gliari
ĠA cco
ĠA cce
Ġpre avviso
ĠG allery
con tre
ĠE ast
Ġmi rati
chi lle
me d
du re
Ġli qu
Ġgli elo
Ġall inea
Ġtro mba
Ġtro veranno
pe o
enta l
ge o
ĠCon cor
Ġdire ttivo
ĠAl fa
Ġsca tole
Ġforma tive
Ġcomple menti
tua ria
Ġdeci mo
ĠBa tta
Ġdiven tate
ĠCo ordina
Ġpara bola
Ġnorma litÃł
Ġsosten uti
ĠAd riano
Ġpol trone
Ġperi metro
Ġaccompa gnano
ĠFranc es
Ġcapo gruppo
Ġaffron tano
CA R
ĠPas sa
Ġdiv ani
Ġ198 2
Ġgusto si
Ġespri mono
Ġsepa rato
Ġacquisi ti
Ġ197 2
Ġassicura tiva
Ġsemi finale
Ġperce pito
Ġana logo
Ġrisa lita
ĠGol den
Ġcaro te
Ġassegna zione
Ġazzur ra
Ġsva go
Ġaro ma
Ġgino cchia
ĠSpor tiva
Ġstipu la
ĠDigi tale
ĠAggiun gi
Ex po
Ġoccu perÃł
sm all
At tualmente
Ġribal ta
Ġparteci peranno
Ġimpo tenza
Ġsuba cqu
Ġassu mendo
Ġperplessi tÃł
G e
m usi
o pp
p ano
u dio
Ġa mori
in den
te zze
te ach
si ty
Ġper ch
Ġqu er
do ra
ma ri
ma gari
Ġo tta
ĠC lin
ĠP eri
ĠP ana
ch is
Ġse du
ĠA va
Ġre di
mi c
ĠD J
ĠE siste
Ġdo wn
ĠV ari
zz Ã²
sta bile
Ġinter vallo
Ġapp ortare
um ani
Ġver anda
Ġdis lo
Ġsia te
Ġrisp ose
Ġdisp oste
Ġservi va
pri se
Ġos curo
Ġsal ta
tua ta
Ġsuper ano
ffici le
Ġpe ccati
Ġtele matica
be sitÃł
Ġsegna lati
ĠFor mato
Ġbian cheria
fon ia
Ġfotogra fici
Ġfotogra fare
Ġorigina riamente
Ġdedica rsi
ES I
Ġprom et
ĠDis e
Ġdistrib utore
ĠStu denti
Ġschi uma
Ġsba ra
ĠCro tone
Ġsali to
Ġmobili tazione
Ġabband onati
Ġcompeti zioni
Ġ> >
ĠCha mp
Ġsposa te
ĠAcc esso
Ġarchi viazione
Ġsinto mo
Ġdar vi
Ġrespi razione
.âĢĿ âĢľ
Ġesser lo
Ġprivile gi
Ġstupi re
Ġdetermin ano
ĠRicor diamo
Ġmona stero
Ġrisal gono
Ġchitar rista
Ġscambia re
Ġhi gh
ĠDimen sione
Ġscienzia to
ĠHar ry
tea tro
Ġdeco ro
Ġpeper oncino
ĠDisponi bile
Ġosci lla
Ġcente simi
ĠCivita vecchia
F E
a pporto
b oni
m Ã¨
x a
ra d
Ġo ttanta
Ġsu cchi
is ex
ĠP ea
ĠP ranzo
Ġca lori
ĠA nale
ĠL ie
ina ri
Ġpa gati
Ġtu tor
con si
Ġdo lo
Ġra ting
ani ca
zz ine
zz erÃł
Ġall ine
Ġalle ato
Ġto ssine
ur y
Ġsca mb
Ġtratta ta
vere mo
Ġscri pt
ĠMar y
Ġ7 50
Ġcondi vise
cci oni
ggior no
Ġren do
Ġmin era
Ġfuo chi
EN D
Ġiscri tta
Ġtelef onate
ĠOr mai
Ġdigi uno
Ġtar tu
Ġdiscu te
Ġsugg erire
Ġequi libri
Ġriten iamo
Ġpercor re
ĠScar pa
inda co
ĠVen gono
cla sse
Ġventi lazione
Ad visor
Ġmede sime
Ġsfo go
Ġmanca va
Ġviva ci
Ġesten dere
Ġriven ditori
Ġassor b
Ġlarga mente
Ġdeca denza
Ġverb ali
ĠEss endo
ĠBan k
Ñģ ÑĤ
Ġsig la
Ġesplici to
Ġassur do
Ġebra ico
ĠClo ud
Ġvibra zioni
Ġtrapi anto
ĠDichia razione
ĠAlfre do
Ġbolo gnese
fli x
Ġcatte dra
1 000
D alle
S to
[ âĢ¦]
n za
s ky
er centi
ta lanta
Ġe man
Ġi oni
qu esta
ĠS IS
Ġde gra
Ġse mestre
ĠI va
Ġfa ro
Ġsp arti
Ġu man
ĠB ed
Ġte ch
Ġra ti
ĠV III
Ġar ci
Ġinter val
Ġgra dito
Ġsa una
Ġprima veri
Ġpossi edono
Ġabb a
ĠRe ga
Ġbu ccia
ĠRi le
pre mi
Ġscri ver
Ġlu bri
Ġmom en
ĠSa m
edi tore
ok o
Ġcontra ssegno
AN DO
TI C
Ġsor genti
Ġprogramma to
Ġaffi dati
tar le
Ġlavora va
ĠTa sso
atti vi
Ġcolo rata
cin ante
Ġpolitica mente
Ġado ttati
Ġcm q
Ġsto ffa
ES E
Ġlon tan
ex t
Ġcollo qui
Ġcomo de
Ġcond omini
ori gina
Ġtren tina
Ġir ro
ĠPe ppino
ĠCre dito
Ġapprezza ta
Ġpsicolo go
Ġobbliga tori
Ġdover oso
Ġtaglia te
Ġripet uto
Ġfalli to
Ġsuggesti oni
ĠNatura li
ĠCommer ciale
Ġarchitett onica
affi tto
Ġcoe sione
Ġbritanni ca
ĠCE O
Ġportafo gli
Ġafri cano
Ġwi ki
Ġisla mico
TM L
Ġstagi onali
ĠRegistra zione
Ġtaba cco
ĠSpia ggia
! .
N as
S port
f alto
Ù Ī
Ġs chel
Ġa stron
in finito
ra h
ci s
Ġde a
Ġpro sa
ĠP ossibilitÃł
ter si
Ġ2 10
ĠD eter
Ġtra pe
ĠT esti
ĠT rini
ĠE pi
Ġgi ganti
ĠV A
ven ute
Ġimp ossibili
cu tivo
ĠLa mpe
sc ano
ĠMa ttarella
Ġcol ti
Ġven ditori
ĠPa ge
Ġor m
Ġro vina
Ġpun tando
mina rio
Ġcan tanti
Ġmar ket
ett ini
ĠJ unior
ĠK le
Ġaff ini
Ġinc an
ho t
Ġcontra zione
Ġren derÃł
ĠFi ga
Ġedi toriali
Ġfer mar
Ġraggiun gendo
ĠLu x
Ġmano vre
au x
EL LE
Ġsingo larmente
Ġce ci
Ġcaratter istici
Ġpla ce
Ġdimostra ndo
Ġaffer mando
Ġlon ge
Ġanzi ano
ĠDis tanza
ĠCal tanissetta
Ġpom pe
estre ma
Ġorgani zzano
Ġmila nesi
Com uni
ĠWin d
Ġsve lato
Ġimb at
Ġscrive va
stre et
Ġtorn ando
Ġsimpa tici
Ġono ra
Ġselva ggia
ĠCerto sa
Ġcuri osa
Ġsoffi ce
Ġcavi glia
Ġlegitti mitÃł
ĠIr landa
Ġaran cione
Ġcilin dro
Ġperfeziona mento
Ġmultimedia le
Ġcompensa zione
Ġrimp ro
Ġtossico di
Ġlegu mi
M arco
S ia
U P
U e
c d
d ney
g ing
v one
er ini
Ġs trin
ri de
ia ta
Ġg ang
ma ria
Ġri mor
Ġo tte
Ġl ordo
Ġle sione
mo d
Ġan onimo
Ġpi ed
Ġtra i
ĠR us
ĠB ha
Ġsono ritÃł
ĠE ttore
Ġha ve
Ġmo ti
Ġmo tto
pi edi
Ġad ulta
rio lo
Ġsc orse
Ġdu ramente
Ġcor n
Ġbi ke
Ġcar ri
Ġcar tu
pen de
gre gazione
ĠFa ir
ĠLi ght
ber ry
Ġdiri genziale
dica p
gh ini
TI VO
Ġrif are
ĠNi co
Ġmeri te
IC HE
Ġfondamen talmente
ĠBar tolo
Ġstampa to
Ġscar to
Ġconn essa
ly n
Ġemer genze
Ġinci so
Ġconfor mi
Ġconsegna ti
Ġmicro foni
Ġappare cchio
Ġadegua mento
Ġarchite tto
spe dali
ĠÐ ¿
Ġaccer tare
Ġrichia mare
ĠCapo danno
ĠEntra mbi
Ġrigi da
Ġcresci uti
Ġder matite
Ġsfu ggi
Ġfabbrica ti
fun zionale
ĠGI OR
Ġmassimi zzare
Ġcasal inga
Ġmill ennio
ĠLar ghezza
Ġacqui renti
âĢĶ âĢĶ
ĠSum mer
ĠNapole one
Ġnoccio le
" ...
C e
D ai
G P
S tan
U tili
b ania
c ler
v arci
Ġs t
in ante
Ġdi zionario
li si
Ġin adempi
om ba
Ġo bi
ĠC ul
ĠC anna
ĠS TO
Ġpro cu
Ġda ranno
ĠP interest
vi lu
Ġma rea
Ġma estra
ĠM ann
Ġpre gare
ĠL ista
ran t
ran ge
ĠR assegna
Ġci tt
ĠB ei
Ġlo ve
cc one
Ġad ul
Ġinter fer
ĠIn dice
Ġalle gria
ĠCon ci
il lo
ĠH un
Ġor chestra
Ġspe dito
Ġpen n
Ġw orld
ggia tura
ggia tore
Ġcan dela
Ġos cura
Ġcomple tezza
Ġtre kking
dente mente
ĠPo ggio
ĠSa de
Ġr ing
Ġgiov ine
Ġtecni camente
ĠFran ca
TI N
Ġsenti va
app lica
Ġru bato
Ġcorre tte
Ġriusci te
Ġprov ando
Ġid rica
Ġid rico
Ġcorri sp
lin k
Ġpensa ti
Ġconfor t
ĠPas se
Ġiso lato
ĠVilla ggio
ĠVe gas
Ġillustra ta
Gi u
Ġversa te
Ġscari cato
ĠComp li
lui gi
asi lo
Ġesor dio
Ġdegu stazioni
Ġesposi tori
Ġevidenzi ando
Ġrecipro ca
Ġmetal lica
Ġmanifes tare
Ġaf ro
Ġintermedia ri
servi zi
ĠBia gio
Ġgem elli
Ġsensu ale
Ġincentra to
Ġfabbi sogno
m anno
o ver
t teria
in de
el sea
Ġf ess
Ġcon vocato
Ġde pre
Ġcom bin
gg istica
Ġca tali
Ġca pri
Ġca duti
ĠA zione
Ġre quisito
ĠI ran
Ġpi g
ran ghe
ĠR S
tta ggio
ali smo
cc esso
go ra
zz arlo
Ġfor mi
Ġinter p
Ġapp resta
ĠO tta
ĠO biettivo
ĠMa zz
Ġindi ana
gn arsi
ĠSi gnor
Ġconf erire
Ġcar toni
Ġservi ce
Ġchia rito
ed endo
Ġspa ghetti
Ġsol dato
Ġinforma tiche
tor ino
ĠPre sso
Ġambi entato
gh era
Ġval utando
ĠCh issÃł
Ġscon tra
veni enza
Ġpara llela
dice simo
Ġesa tta
Ġvero simi
Ġcompi uti
pro kti
Ġpol lice
Ġpla s
Ġdestina tari
ir ri
Ġasse mblea
ĠSte ph
Ġtess ere
Ġinterpre te
Ġconcor dato
Ġconsenti ta
Ġcostitui te
Ġdistin guono
Ġsottoline ando
rina le
Ġ198 1
Ġsho ck
ĠEurope i
Ġtrasm essi
Ġripa rare
Ġlasci Ã²
Ġlaure ato
ĠAcc essori
Ġspecifica mente
Ġza ino
Ġrimb or
appro fon
Ġasciu gare
ĠMari ttima
ĠNu tri
Ris posta
ĠSky pe
Ġbatte simo
Ġinnamo rata
Ġriparti zione
Ġurban istica
Ġparall ele
Ġsusci tato
Ġreda tto
Ġparlar ne
Ġrispe cchia
ĠCavo ur
) ...
F T
S car
f ei
h is
p r
v anta
x us
Ġd rink
Ġs na
Ġs ardo
re la
in vecchiamento
Ġdi vo
Ġi phone
Ġin chiesta
Ġin osser
si co
Ġdel uso
so lio
ĠC us
ĠS iete
Ġma ssime
Ġma terno
de d
ten siva
Ġpa diglione
Ġvi zio
Ġsp unta
gi to
gi onamento
Ġdo c
Ġra zze
ĠN eri
Ġne onati
Ġsc uri
Ġar mate
us colo
Ġcre dibile
Ġor na
ĠQu e
lan t
lan cia
Ġro vin
Ġ19 43
ccia i
ffer ano
Ġcar tello
Ġgu anti
Ġinf ezione
Ġfu or
sis tenze
Ġspeci ficitÃł
Ġterri bili
Ġaggiun te
Ġotten gono
ĠMe moria
Ma ria
Ġspie go
Ġprincip essa
Ġrappresenta te
Al cune
Ġ24 0
Ġdichia rati
cche tte
Ġatte stato
Ġtemp esta
ĠFo resta
omina to
Ġimm orta
ĠCal da
Ġosser vando
Ġequi vale
Ġmer da
ĠCan celli
ĠMedi co
Ġbol lente
Ġcircon data
Ġcru do
Ġaccetta te
Ġpreoccupa to
Ġspos tato
Ġspre chi
Ġaugu riamo
Ġacu stica
Ġdeposi tato
Ġsh are
ars ene
Ġcroci ere
ĠRicor do
manu factur
Ġvani glia
Ġnazi sta
Ġrivi vere
Ġcombusti one
Ġtraslo chi
Ġaddomina le
Otto cento
Ġintervis tato
Ġdisoccupa ti
Ġcing hia
A ttenzione
G IO
L US
V is
V illa
d ell
p ere
u bio
u fficiale
Ġ 000
Ġs gomb
ra m
an ella
Ġin ga
Ġo fficina
ĠS tiva
ĠS eni
is cano
ĠP ordenone
ch ele
ce la
Ġma es
che se
Ġre gge
ĠL ettere
ĠD onato
Ġtra gico
Ġsta ccare
ĠF anno
ani me
Ġcos tringe
zz le
Ġli tro
ven ture
Ġba ro
Ġti rato
ĠO h
for mer
Ġter mici
uro ra
ĠPa esa
uti litÃł
ĠDi plo
Ġfo reste
Ġconf essa
Ġservi ti
Ġservi te
Ġalc uno
Ġconc essa
ĠK enne
Ġlu ssu
ok e
Ġcontra pp
Ġfine mente
ĠBa ch
ĠSo und
Ġdiri genza
ĠFi g
fici e
Ġstan ca
Ġbo ttone
Ġcompa iono
car ci
Ġpara dosso
Ġmini mamente
esp ansione
Ġfisi o
tur ino
Ġriusci va
Ġinvi tare
Ġfanta si
Ġann ua
Ġcaratteri zzate
Ġtrov arci
Ġriten ute
ĠJo e
Ġmicro sco
Ġispi rati
Ġpiani ficare
ĠEurope an
Com une
Ġ196 9
Ġfeste ggiamenti
Ġmono po
Ġcombina to
ĠInforma zione
!!!! !!!!
Ġanda vano
Ġnarra tivo
ĠNu cle
Ġarricchi ta
ĠXX X
Ġdona zioni
Ġdiscre ta
Ġriven dica
Ġcinemato grafiche
Ġaccel erazione
Ġger archi
Ġamb u
Ġinnamo rati
ĠPatri zia
Ġsanti tÃł
Ġcomplica ta
Ġdig esti
Ġtempesti vamente
Ġpila stri
ĠAper tura
inoa cidi
infiamma zione
L un
M AN
O K
S are
k ini
p ista
u tiva
á »
Ġc elle
Ġa ceto
in ser
Ġdi rÃł
ri bile
Ġin ie
Ġin form
qu ella
Ġal pino
ci smo
ĠC anto
Ġde fe
Ġcom men
Ġcom missi
ĠP ali
Ġca sti
vo ia
ĠL um
Ġfa col
Ġpa ttu
Ġte ologia
ĠE sse
zia ria
per chÃ¨
ĠO spedali
ĠMa estri
Qu a
ren ce
Ġdis tre
Ġser va
Ġdue cento
Ġacc ende
ĠQu es
Ġsca ppa
ĠDi zionario
colo go
Ġsotto segretario
Ġquanto meno
Ġspa zzatura
Ġcomuni tario
Ġauto ct
ĠPi ane
mis e
Ġren dimenti
!! !!!
Ġbo u
Ġbo tani
Ġamm issi
car di
Ġvin centi
Ġtradi zionalmente
Ġpara prokti
Ġprece duto
dendo si
Ġ21 4
Ġado pera
ĠConsi gliere
Ġproba bili
Ġmeta bo
Ġingre diente
ĠâĢ¦ .
Ġemer gono
Ġtur co
Ġsba gliare
Ġspeciali stica
Ġfur gone
Ġdimenti cate
ĠGre y
ster anno
Ġsub entra
Ġtrasferi ti
Ġcata sta
Ġarchite tture
Ġ196 3
Ġcarica mento
Ġres tante
ĠPER S
Ġceleb rato
Ġsposta rsi
Ġsuggesti vi
Ġpiaci uta
Ġabbra ccia
Tor na
Ġandre mo
tecni ca
Ġapprofi ttare
Ġpresid enti
Ġraffi gura
Ġburocra zia
Ġparl erÃł
Ġconsta tare
ĠRicci one
ĠLou is
Ġines ora
ĠINF ORMA
ĠOlimpia di
ĠFiloso fia
P enso
S tar
Z O
n ese
s trutture
Ġd vd
Ġs etta
in dustri
Ġdi li
Ġm el
Ġcon vali
ci l
do la
Ġsi mm
ĠP M
Ġan este
gg a
Ġpre cari
Ġpre giati
Ġpre domin
ĠT uo
Ġu tenze
ĠB reak
ĠV all
ĠLa mb
ĠIn gresso
Ġsa ti
Ġpor si
enta te
ron os
ella to
ĠCon to
ess ert
ĠPer Ã¹
Ġindi zi
ĠSi ro
Ġau gura
ĠÂ ĸ
Ġcal za
Ġcapi tare
cci dentale
Ġtor ni
Ġsuper f
ĠRa y
ĠCi elo
gh ino
Ġentra ndo
ĠChi anti
Ġcompa gine
ĠTi cino
alle anza
Ġpron tamente
ĠBo e
Ġmanten gono
Ġcompet ere
Ġrep arti
Ġbru tte
Ġviol ino
Ġaspetta vo
Ġsociali sta
Ġmanu almente
Ġinci denza
uter anno
Ġmodifica ta
Ġab ru
Ġassicura no
Ġsosteni bili
Ġsolle vare
Ġsosp esa
Ġdar mi
Ġrisa te
Ġindos sato
ĠSul le
Ġmedie vali
ĠMis ura
Ġpresi di
ĠMil le
Ġara bi
Ġbandi ere
Ġgentile zza
ĠSor ren
Ġaffian cato
ĠMiglio re
Ġneu tra
ĠGiar dini
Ġrilassa mento
Ġsepara tamente
Ġimpressi onante
ĠCaro lina
Ġfotovolta ici
kes pe
ĠFrat ello
Ġimpermea bili
Ġviolenta te
Ġimpazzi re
Ġinqui renti
ĠParro cchia
cze ma
rys ler
) )
B lu
E ner
O ccidente
g ona
n ti
s ina
Ġd or
Ġs mo
re bbero
Ġdi cia
an as
ca use
Ġg g
ĠC AL
mp li
bi ke
che ggio
ĠM un
Ġpre ti
Ġpre messe
Ġpre ghiamo
Ġra sse
Ġgi rando
pa ssa
zz erie
ĠLa ure
Ġter male
der no
Ġven endo
ĠH il
tin enza
Ġ19 60
ĠDi ffi
ble mi
ĠPo trai
ĠPi gna
ĠBa bbo
cri sti
ĠCo ordinamento
Ġconten ta
Ġcrea tore
ccio la
Ġbo ttoni
esi ti
lar ge
Ġgia lli
Ġcin tura
su per
Ġcommer cializzazione
Ġinvi tano
ĠCol lo
ĠPri mi
ĠFo ro
Ġmacch in
Ġcondivi si
Ġdescri zioni
ang hai
Ġestre mitÃł
Ġtrov Ã²
Ġnota io
Ġpartecip ando
Ġalterna tivi
ĠSco tto
Ġsud detti
Ġauton omi
ĠImp osta
Ġguada gnato
Ġstimo lante
Ġface vo
Su per
zzur ro
Ġcast elli
aff etto
ĠPie ve
Ġaccer tato
Ġcopia re
Ġdri tta
pon iamo
Ġlumin ose
Ġpesante mente
Ġstamp ante
Ġpon gono
Ġferrovia rio
Ġgiudizia rio
Ġconsecu tivi
tell ina
Ġzo o
Ġcinqu an
Ġcere brale
Ġgastron omia
ĠMia mi
Ġafri cani
Ġpaci fica
gior nali
Ġelimin ando
Ġinquie tante
Ġconfigu rare
loc utore
ĠFire fox
Ġacconcia ture
' :
. â
> <
P M
R S
S il
U RE
a spi
g mi
o vest
s tru
u f
z h
Ġs quisi
in clusione
an ch
es perto
ca t
ca rio
Ġper va
ma ra
ĠC oni
Ġle one
ĠP elli
ĠA re
ĠA bi
Ġpre videnza
na v
Ġpi ccini
era tura
Ġsp um
Ġlo de
ĠE mail
pi ci
Ġimp atti
Ġav vin
for mi
Ġsa turazione
rin uncia
Ġatti visti
Ġw al
Ġgu sta
ĠGi ra
Ġmiglio rato
Ġmiglio rando
Ġdom and
tr ini
Ġval vola
Ġsare mmo
ĠRo ad
ĠRo dri
Ġline ari
Ġcompa rire
Ġsci ro
Ġforni ture
Ġspie g
Ġspie gando
ĠEn gine
den t
RO S
Ġgaranti ti
ora na
Ġatten diamo
ĠMan chester
Ġinca paci
Ġbio grafia
Ġconvin zioni
turi smi
date vi
Ġpiazza le
Vi deo
Ġfortuna ti
cla ss
Ġabband onata
Ġ196 2
** *
Ġvisualizza to
Ġvinci trice
ĠDani marca
Ġtaglia ta
Ġem essa
ĠGol f
Ġinau gura
Ġgon fiore
ĠMassa ggio
Ġportati li
Ġesemp li
ĠJe ans
inci denza
Ġinno centi
Ġcorto metra
Ġpreoccup ante
orbi mento
unda tion
Ġarricch isce
ĠVigi li
Pos siamo
ĠGugli elmo
Y o
a ge
g t
i c
l eria
o v
on anti
er li
Ġs man
Ġa zz
li ti
li tz
Ġe sta
Ġe ase
te tto
si ano
ci oni
za tion
ĠS tro
Ġca va
ĠA y
ĠA ria
ran ta
ran tino
Ġsp ensi
Ġsp ray
Ġu li
ĠF rie
ĠF red
ĠF oot
pi te
Ġad den
gu ri
Ġcomp ri
Ġven go
fa cebook
Ġro ad
Ġga solio
ĠW ars
colo gico
Ġfon tana
Ġcu scino
Ġsol enne
Â° ,
ha ra
ĠMo ri
Ġutilizza tori
Ġdiven uta
Ġren contre
ĠDo wn
gh ero
all en
mar gina
ĠChi eti
ĠCh rysler
ĠUni on
ĠTra ttato
Ġvin cendo
Ġrin cor
Un gheria
ĠGio ia
Ġesa minato
ĠEx press
ĠSer ena
mos so
av anza
ĠTo tale
Ġvis uali
Ġpiace va
Ġindividu ate
Ġsto rage
Ġcerti ficazioni
ĠHa w
Ġfaccia te
Ġasse mble
Ġsm ette
Ġmanu ten
Ġtea tri
Ġrisol ve
Ġsoddisfa tta
Ġestra nei
ĠAu tori
Ġrim ettere
Ġcircos tanti
ĠMer coledÃ¬
Ġsottop orre
Ġmetter lo
Ġlava stoviglie
Ġgeo grafiche
Ġfasci sti
Ġaltrettan ti
Ġdanne ggiati
Ġmesco lando
Ġja va
Ġbis ex
Ġragi on
kin son
Ġridi colo
Ġfabbri cazione
Ġarbi tra
icon s
Ġomogene o
ĠFel trinelli
Ġrad uno
Ġcardia co
ĠAmeri can
Ġcavali ere
Ġprovi der
Ġdisi mpegno
Ġputta ne
ĠCostitu zionale
Ġcy ber
ĠTrip Advisor
Impre sa
A ffi
G S
S cusa
g estione
o cchi
s ene
u an
Ġd arci
Ġs le
Ġdi rmi
Ġi st
he ad
Ġla c
Ġla menta
Ġla ici
Ġo ffi
is sa
Ġma ratona
ĠA utunno
ĠM erca
Ġpre me
fi r
ran e
ĠG om
ĠF ondi
Ġmi rino
Ġli pertensione
Ġimp ron
ĠU go
Ġta mb
Ġter minare
cca ggio
Ġbi mba
ĠCom in
fa tta
Ġesp erta
cch erÃł
Ġtempo raneo
Ġconf erito
ĠW ei
ĠRi voluzione
pri etÃł
vere te
Ġuni tario
Ġcal zature
Ġlu cro
Ġaff eziona
ĠNa zione
Ġz inco
Ġsempli ficazione
ĠAr no
mis ura
Ġmin erale
Ġvuo ti
Ġcompa ri
Con ta
ĠMe la
Ġsitua ti
Ġscon gi
ppi ano
ĠPu tin
Ġillu mina
Ġassolu ti
Ġcostitu zionali
Ġriconosci ute
Ġann ualmente
Ġcas co
AR D
Ġrive lano
Ġproveni re
Ġassicu ro
Ġbor ghe
Ġeste tici
ĠImp or
Ġillustra re
ĠÐ ¸
Ġ36 5
ĠMis ericordia
Ġriba dire
Ġidro ge
ecc essi
Ġviaggia tore
Ġterrori sti
Ġpesca tori
Ġallun gare
Ġaccre scere
Ã¼ r
Ġprete se
Ġporn ostar
Ġaggressi vo
---------------- ----------------
ĠModa litÃł
Ġappropria to
Ġdecor rere
ĠLine e
Ġflore ali
ĠMiche langelo
Ġveterina rio
iso lamento
Ġpota ssio
ĠRina scimento
Ġanomali e
E sistono
F are
N um
f lo
u ttosto
Ġ ome
Ġa gra
or um
Ġg at
di ssime
Ġqu esiti
no ve
ĠS TRA
Ġle gh
ĠP EC
ĠA sti
ĠM B
mi ere
Ġ2 30
ga tivo
ss ina
ĠE lla
Ġdell Ê¼
ĠU il
Ġdu rato
Ġdu rerÃł
for za
Ġcor rono
Ġbi b
Ġor me
Ġcons enta
Ġsca vi
res ca
Ġstra vol
ghi ere
Ġspa gna
lla te
Ġrip ar
Ġinc rina
ĠPo p
Ġcri tto
Ġprodu ttrice
Ġfra granza
glie te
Ġopera io
qui le
ĠCo un
mis sion
Ġconten imento
ĠFi del
gua y
Ġsoci eta
Ġazi onisti
gue z
TA LE
Ġsor gere
ĠCar ro
ĠBi ennale
Ġcorre lati
19 99
Ġconsu mato
ĠEn tro
Ġorigina litÃł
Ġdimostra ta
Ġdistrib uite
ĠDire ttivo
ĠJo bs
Ġfur ti
Ġordina mento
Ġsport elli
ĠTre vi
dali zio
ĠVe cchia
Ġsolle vato
Ġoli mpi
Ġcircon dano
ĠCir c
Ġcompli citÃł
Ġsconfi tto
Ġmole colare
Ġallesti menti
Ġscopa te
ĠAltri menti
Ð½ Ð¸
ĠAda tta
Ġrisc uo
Ġmassi ccio
ĠTrasp orto
Ġinsedia menti
ĠDol ce
ĠITA LIA
Ġindiffer ente
Ġcaus ando
Ġprigioni eri
Ġmultina zionali
Ġepo che
ĠClini ca
Ġgiovine zza
C it
u dere
ä ¸
Ġi va
Ġin veste
Ġg etto
Ġsu go
io lo
Ġl enz
Ġpro vano
ch issima
gg ini
da i
da meri
ĠA bito
ĠM ali
Ġre fri
ĠI d
Ġpa tch
ĠG ood
Ġpar tori
ĠF ro
pa te
Ġav rÃ²
Ġdu ca
as ing
Ġta tto
Ġalle viare
bo ur
um ano
enta glio
Ġacc esa
Ġspe cial
Ġsca tena
Ġpen sion
alizza ti
Ġstru mentale
ĠMar si
Ġcal ce
Ġinforma le
Ġauto matici
ĠSa b
ĠLi ons
Ġconta dina
Ġconta minazione
Ġorganizza tivi
ĠGa mes
Ġappro vare
Ġtesta to
ĠCol or
Ġmeri tato
Ġgioca ttolo
Ġmas turbazione
Ġpreve dibile
Ġscar se
Ġritro vata
Ġridu cono
Ġorgani zzando
Ġfed erali
ĠRom ana
ĠJu li
Ġcomm essi
ĠAL LE
Ġcancella to
Ġprincipi anti
Ġagri coltori
Ġ195 4
Ġrecupera to
Ġaere a
ĠInforma tica
Ba sta
Ġbenefi cenza
acco unt
Is truzione
Ġsis ma
Ricor diamo
Ġcasta gne
ĠOff riamo
Ġconfigura zioni
Ġcontes tualmente
Ġpolizio tto
Ġsy stem
dimensi onale
acca duto
Ġassapo rare
Ġprosciu tto
iP hone
ĠRese arch
* )
, âĢ¦
N uova
a uti
s or
u tri
re y
Ġi di
ro sis
es tino
Ġper sistente
Ġal ba
Ġal lievo
Ġqu esito
Ġpro vata
vi er
ch ond
Ġse ppure
Ġma ria
ĠM et
tra s
se x
ĠI na
ni ti
ĠD omini
Ġtra me
ĠT uni
Ġu siamo
Ġmi rata
ul li
ĠV era
Ġpos tali
Ġfor malmente
Ġall or
Ġimp osti
Ġba ia
Ġfi tta
Ġdis ar
ĠQu elli
Ġsca tta
ĠW at
gui tÃł
inter vallo
Ġbene dizione
Ġcri mini
Ġraga zzini
Ġdeci siva
gre ssione
Ġassi st
Ġasp ettato
Ġedi le
Ġconta bilitÃł
ĠTra spi
ĠMe eting
Ġscon f
-- -
atti mento
su fficienza
Ġcompren sivo
Ar ma
ĠOr gani
Ġrapi de
Ġrifle ttori
Ġcollo cati
ĠSte ven
Ġpreferi re
ĠCro ss
Ġassicu rata
Ġstudia ta
mando si
[...]
