{"<s>":0,"<pad>":1,"</s>":2,"<unk>":3,"<mask>":4,"!":5,"\"":6,"#":7,"$":8,"%":9,"&":10,"'":11,"(":12,")":13,"*":14,"+":15,",":16,"-":17,".":18,"/":19,"0":20,"1":21,"2":22,"3":23,"4":24,"5":25,"6":26,"7":27,"8":28,"9":29,":":30,";":31,"<":32,"=":33,">":34,"?":35,"@":36,"A":37,"B":38,"C":39,"D":40,"E":41,"F":42,"G":43,"H":44,"I":45,"J":46,"K":47,"L":48,"M":49,"N":50,"O":51,"P":52,"Q":53,"R":54,"S":55,"T":56,"U":57,"V":58,"W":59,"X":60,"Y":61,"Z":62,"[":63,"\\":64,"]":65,"^":66,"_":67,"`":68,"a":69,"b":70,"c":71,"d":72,"e":73,"f":74,"g":75,"h":76,"i":77,"j":78,"k":79,"l":80,"m":81,"n":82,"o":83,"p":84,"q":85,"r":86,"s":87,"t":88,"u":89,"v":90,"w":91,"x":92,"y":93,"z":94,"{":95,"|":96,"}":97,"~":98,"¡":99,"¢":100,"£":101,"¤":102,"¥":103,"¦":104,"§":105,"¨":106,"©":107,"ª":108,"«":109,"¬":110,"®":111,"¯":112,"°":113,"±":114,"²":115,"³":116,"´":117,"µ":118,"¶":119,"·":120,"¸":121,"¹":122,"º":123,"»":124,"¼":125,"½":126,"¾":127,"¿":128,"À":129,"Á":130,"Â":131,"Ã":132,"Ä":133,"Å":134,"Æ":135,"Ç":136,"È":137,"É":138,"Ê":139,"Ë":140,"Ì":141,"Í":142,"Î":143,"Ï":144,"Ð":145,"Ñ":146,"Ò":147,"Ó":148,"Ô":149,"Õ":150,"Ö":151,"×":152,"Ø":153,"Ù":154,"Ú":155,"Û":156,"Ü":157,"Ý":158,"Þ":159,"ß":160,"à":161,"á":162,"â":163,"ã":164,"ä":165,"å":166,"æ":167,"ç":168,"è":169,"é":170,"ê":171,"ë":172,"ì":173,"í":174,"î":175,"ï":176,"ð":177,"ñ":178,"ò":179,"ó":180,"ô":181,"õ":182,"ö":183,"÷":184,"ø":185,"ù":186,"ú":187,"û":188,"ü":189,"ý":190,"þ":191,"ÿ":192,"Ā":193,"ā":194,"Ă":195,"ă":196,"Ą":197,"ą":198,"Ć":199,"ć":200,"Ĉ":201,"ĉ":202,"Ċ":203,"ċ":204,"Č":205,"č":206,"Ď":207,"ď":208,"Đ":209,"đ":210,"Ē":211,"ē":212,"Ĕ":213,"ĕ":214,"Ė":215,"ė":216,"Ę":217,"ę":218,"Ě":219,"ě":220,"Ĝ":221,"ĝ":222,"Ğ":223,"ğ":224,"Ġ":225,"ġ":226,"Ģ":227,"ģ":228,"Ĥ":229,"ĥ":230,"Ħ":231,"ħ":232,"Ĩ":233,"ĩ":234,"Ī":235,"ī":236,"Ĭ":237,"ĭ":238,"Į":239,"į":240,"İ":241,"ı":242,"Ĳ":243,"ĳ":244,"Ĵ":245,"ĵ":246,"Ķ":247,"ķ":248,"ĸ":249,"Ĺ":250,"ĺ":251,"Ļ":252,"ļ":253,"Ľ":254,"ľ":255,"Ŀ":256,"ŀ":257,"Ł":258,"ł":259,"Ń":260,"Ġd":261,"on":262,"Ġc":263,"er":264,"Ġs":265,"Ġp":266,"Ġa":267,"re":268,"to":269,"in":270,"en":271,"ta":272,"ti":273,"la":274,"Ġdi":275,"ri":276,"el":277,"ra":278,"li":279,"Ġe":280,"te":281,"le":282,"Ġm":283,"an":284,"un":285,"Ġi":286,"ro":287,"zi":288,"Ġn":289,"Ġin":290,"si":291,"Ġdel":292,"he":293,"Ġf":294,"ia":295,"or":296,"âĢ":297,"Ġun":298,"es":299,"one":300,"ca":301,"Ġv":302,"lo":303,"Ġcon":304,"Ġper":305,"Ġla":306,"os":307,"om":308,"qu":309,"Ġg":310,"Ġal":311,"Ġt":312,"Ġche":313,"co":314,"ci":315,"Ġil":316,"ar":317,"men":318,"al":319,"di":320,"Ġqu":321,"et":322,"zione":323,"âĢĻ":324,"do":325,"ma":326,"Ġri":327,"so":328,"Ġo":329,"Ãł":330,"za":331,"no":332,"Ã¨":333,"Ġsu":334,"ĠC":335,"io":336,"Ġl":337,"ĠS":338,"Ġb":339,"ere":340,"ĠÃ¨":341,"is":342,"Ġde":343,"tu":344,"va":345,"Ġle":346,"Ġpro":347,"sa":348,"Ġda":349,"ol":350,"Ġcom":351,"mp":352,"mo":353,"gli":354,"Ġsi":355,"ĠP":356,"vi":357,"Ġan":358,"ono":359,"ch":360,"bi":361,"gg":362,"tto":363,"ce":364,"ter":365,"oni":366,"da":367,"Ġse":368,"Ġma":369,"che":370,"tÃł":371,"Ġca":372,"pp":373,"Ġdella":374,"ĠA":375,"ĠM":376,"Ġuna":377,"tra":378,"se":379,"Ġre":380,"ĠI":381,"Ġnel":382,"vo":383,"Ġnon":384,"Ġpre":385,"ĠL":386,"ni":387,"tti":388,"na":389,"ve":390,"mi":391,"Ġh":392,"Ġpi":393,"de":394,"era":395,"fi":396,"ina":397,"Ġso":398,"mente":399,"Ġfa":400,"Ġ(":401,"Ġpo":402,"ano":403,"ona":404,"Ġ1":405,"sp":406,"Ġ2":407,"ĠD":408,"uo":409,"ran":410,"zza":411,"cia":412,"tro":413,"ten":414,"bb":415,"Ġpa":416,"Ġdal":417,"eri":418,"Ġvi":419,"Ġsp":420,"ga":421,"mento":422,"Ġtra":423,"ĠR":424,"ĠG":425,"tta":426,"ssi":427,"Ġtu":428,"Ġsta":429,"ĠT":430,"ver":431,"Ġques":432,"ui":433,"Ġci":434,"ĠâĢ":435,"Ġu":436,"zioni":437,"con":438,"ĠB":439,"Ġdei":440,"Ã¹":441,"ini":442,"tri":443,"po":444,"enti":445,"..":446,"Ġpar":447,"gi":448,"ĠF":449,"Ġte":450,"Ġlo":451,"ine":452,"ss":453,"ente":454,"tan":455,"Ġsono":456,"ĠE":457,"ali":458,"ĠpiÃ¹":459,"tori":460,"tre":461,"ru":462,"Ġha":463,"Ġdo":464,"Ġra":465,"enza":466,"ff":467,"Ġdell":468,"ino":469,"Ġgi":470,"cc":471,"ĠN":472,"hi":473,"mb":474,"pa":475,"go":476,"Ġmi":477,"Ġalla":478,"Ġcome":479,"Ġdelle":480,"ani":481,"Ġmo":482,"Ġne":483,"Ġsul":484,"ul":485,"Ġme":486,"chi":487,"Ġcos":488,"sti":489,"Ġanche":490,"ĠV":491,"ale":492,"tura":493,"me":494,"pi":495,"du":496,"ggi":497,"Ġpos":498,"zz":499,"ero":500,"sso":501,"Ġ20":502,"ando":503,"Ã²":504,"lu":505,"Ġpu":506,"Ġad":507,"rio":508,"etto":509,"sta":510,"âĢĿ":511,"gu":512,"Ġco":513,"Ġli":514,"Ġpri":515,"bili":516,"anno":517,"Ġfor":518,"ria":519,"Ġsc":520,"Ġquel":521,"uto":522,"Ġgli":523,"ĠâĢľ":524,"are":525,"ven":526,"tali":527,"Ġcomp":528,"Ġall":529,"Ġimp":530,"tare":531,"cu":532,"bile":533,"Ġba":534,"ene":535,"ggio":536,"Ġar":537,"etti":538,"ĠLa":539,"Ġav":540,"Ġfi":541,"Ġinter":542,"esso":543,"gna":544,"Ġess":545,"glio":546,"ne":547,"Ġno":548,"Ġ-":549,"ĠU":550,"Ġapp":551,"Ġprop":552,"cco":553,"sione":554,"Ġed":555,"Ġdu":556,"zia":557,"00":558,"as":559,"Ġquesto":560,"ĠIn":561,"fica":562,"ziona":563,"tte":564,"Ġgra":565,"iamo":566,"tico":567,"per":568,"uni":569,"dere":570,"menti":571,"Ġnella":572,"gni":573,"tato":574,"Ã©":575,"Ġti":576,"ing":577,"sc":578,"ele":579,"Ġai":580,"gno":581,"Ġessere":582,"ĠO":583,"Ġchi":584,"Ġ201":585,"ĠMa":586,"us":587,"for":588,"ĠIl":589,"glia":590,"Ġcol":591,"gra":592,"Ġ3":593,"Ġsa":594,"Ġva":595,"Ġcor":596,"Ġta":597,"Ġcui":598,"Ġmol":599,"Ã¬":600,"Ġter":601,"ssa":602,"tru":603,"anti":604,"zio":605,"Ġalle":606,"Ġric":607,"Ġris":608,"etta":609,"Ġpers":610,"Qu":611,"ffi":612,"Ġsemp":613,"Ġparte":614,"ren":615,"mpo":616,"ana":617,"Ġcre":618,"tica":619,"cio":620,"ze":621,"...":622,"Ġsuo":623,"Ġpres":624,"Ġvol":625,"bo":626,"Ġnuo":627,"lare":628,"Ġtro":629,"um":630,"Ġnos":631,"Ġgior":632,"ba":633,"bbli":634,"ĠCa":635,"Ġpor":636,"cca":637,"essi":638,"Ġat":639,"zzo":640,"Ġto":641,"pe":642,"dia":643,"erca":644,"Ġdegli":645,"ello":646,"esti":647,"der":648,"tore":649,"Ġ\"":650,"Ġver":651,"Ġdalla":652,"Ġna":653,"Ġlavo":654,"endo":655,"enta":656,"chÃ©":657,"ese":658,"ante":659,"Ġven":660,"Ġvo":661,"mma":662,"Ġbi":663,"Ġsolo":664,"Ġtutti":665,"ge":666,"ron":667,"Ġdis":668,"ella":669,"Ġgio":670,"ĠâĢĵ":671,"uro":672,"Ġanni":673,"ĠCon":674,"Ġser":675,"Ġprima":676,"Ġhanno":677,"ena":678,"elli":679,"tiva":680,"ĠPa":681,"il":682,"vol":683,"Ġloro":684,"ĠH":685,"Ġdue":686,"bbe":687,"Ġacc":688,"Il":689,"ur":690,"ppo":691,"gia":692,"ess":693,"ura":694,"at":695,"Ġgen":696,"uti":697,"Ġor":698,"anto":699,"ĠCom":700,").":701,"),":702,"La":703,"ĠPer":704,"mm":705,"Ġqual":706,"Ġmon":707,"ĠLe":708,"Ġch":709,"Ġes":710,"Ġindi":711,"Ġ4":712,"Ġve":713,"Ġsia":714,"cqu":715,"Ġsempre":716,"Ġsua":717,"Ġste":718,"fa":719,"dio":720,"Ġquesta":721,"Ġrisp":722,"Ġmolto":723,"tivo":724,"essa":725,"ista":726,"zzi":727,"Ġ5":728,"Ġgran":729,"sid":730,"ie":731,"ĠQu":732,"Ġstato":733,"Ġpossi":734,"Ġtutto":735,"Ġmen":736,"ĠpuÃ²":737,"Ġen":738,"lan":739,"Ġesp":740,"Ġdisp":741,"man":742,"sse":743,"Ġdire":744,"Ġro":745,"tin":746,"cch":747,"pera":748,"forma":749,"gn":750,"rin":751,"Ġuno":752,"ĠAn":753,"Ġabb":754,"lizza":755,"ĠRe":756,"tt":757,"Ġman":758,"bilitÃł":759,"Ġpubbli":760,"Ġspe":761,"Ġsenza":762,"ento":763,"ette":764,"tante":765,"cora":766,"Ġho":767,"Ġfar":768,"Ġtempo":769,"ĠAl":770,"Ġsulla":771,"esta":772,"Ġpersona":773,"Ġ19":774,"indi":775,"Ġpun":776,"uta":777,"cor":778,"Ġogni":779,"ĠSi":780,"mbi":781,"Ġcons":782,"Ġfare":783,"Ġdiver":784,"inis":785,"Ġuti":786,"Ġsca":787,"ĠSe":788,"rat":789,"Ġlib":790,"Ġvia":791,"ĠDi":792,"Ġpen":793,"osa":794,"ccia":795,"Ġga":796,"res":797,"Ġquali":798,"Ġstra":799,"ffer":800,"Ġfo":801,"rie":802,"vitÃł":803,"Ġconf":804,"Ġcer":805,"ghi":806,"ttura":807,"Ġfatto":808,"rÃł":809,"Ġpoi":810,"ĠW":811,"Ġdopo":812,"tale":813,"une":814,"Ġnei":815,"elle":816,"Ġcar":817,"que":818,"vano":819,"Ġsecon":820,"sto":821,"via":822,"Ġau":823,"zionale":824,"Ġdall":825,"Ġservi":826,"rare":827,"ĠMi":828,"ĠperchÃ©":829,"talia":830,"iste":831,"Ġnell":832,"Ġquello":833,"zo":834,"st":835,"Ġpia":836,"ĠÂ":837,"Ġcontro":838,"Ġera":839,"anza":840,"etÃł":841,"Ġatti":842,"ad":843,"gui":844,"Ġalc":845,"mpi":846,"olo":847,"Ġw":848,"Ġdove":849,"âĢ¦":850,"Ġquando":851,"colo":852,"Ġsos":853,"ome":854,"mina":855,"Ġancora":856,"Ġaltri":857,"ggia":858,"In":859,"Ġcen":860,"Ġforma":861,"cato":862,"Ġstori":863,"Ġstu":864,"ltre":865,"Ġvita":866,"vare":867,"tati":868,"sci":869,"Ġmodo":870,"Ġbu":871,"zie":872,"Ġgiu":873,"ĠRi":874,"Ġcan":875,"Ġdon":876,"Ġmar":877,"alizza":878,"Ġdov":879,"litÃł":880,"Ġsotto":881,"ĠcosÃ¬":882,"cchi":883,"Ġproprio":884,"almente":885,"Ġfon":886,"??":887,"Ġprog":888,"enze":889,"Ġconc":890,"isti":891,"inter":892,"Ġincon":893,"pri":894,"ord":895,"sia":896,"ture":897,"Ġchia":898,"Ġnelle":899,"ppor":900,"Ġ6":901,"omo":902,"Ġsen":903,"razione":904,"Ġos":905,"tamente":906,"Ġprof":907,"ggiun":908,"Ġtratta":909,"ck":910,"Ġcomple":911,"Ġitali":912,"it":913,"Ġlegg":914,"pre":915,"Ġquanto":916,"ĠPro":917,"arÃł":918,"Ġsco":919,"elo":920,"ed":921,"vere":922,"Ġsal":923,"omi":924,"lazione":925,"Ġgu":926,"Ġacqu":927,"Ġtan":928,"tivi":929,"Ġlavoro":930,"Ġmondo":931,"ĠGi":932,"isto":933,"Ġprodo":934,"Ġquesti":935,"anta":936,"rante":937,"Ġsin":938,"ranno":939,"osta":940,"esto":941,"Ġcir":942,"ett":943,"Ġuni":944,"oma":945,"lmente":946,"Ġcu":947,"Ġel":948,"Ġparti":949,"mer":950,"osi":951,"Ġsop":952,"Ġten":953,"tua":954,"Ġposs":955,"Ġspa":956,"ĠJ":957,"ane":958,"mbre":959,"Ġinf":960,"Ġfun":961,"ciale":962,"Ġfu":963,"tive":964,"amo":965,"Ġini":966,"gina":967,"Ġsol":968,"ĠK":969,"ĠgiÃł":970,"Ġpoli":971,"esa":972,"Ġave":973,"âĢĿ.":974,"eni":975,"Ġquindi":976,"Ġstru":977,"gono":978,"Ġtec":979,"rato":980,"Ġcaso":981,"denti":982,"ĠVi":983,"Ġmiglio":984,"Ġscri":985,"col":986,"ĠMar":987,"tui":988,"Ġgrande":989,"ure":990,"Ġnum":991,"Ġquella":992,"ĠsarÃł":993,"rsi":994,"unque":995,"Ġcasa":996,"line":997,"Ġarri":998,"Ġcomuni":999,"tazione":1000,"ostra":1001,"Ġcal":1002,"Ġdom":1003,"gione":1004,"Ġimpor":1005,"Ġlu":1006,"Ġon":1007,"ulti":1008,"ble":1009,"Ġfino":1010,"20":1011,"Ġfoto":1012,"teria":1013,"tenza":1014,"gani":1015,"lica":1016,"Ġeuro":1017,"Ġ200":1018,"Ġese":1019,"ssimo":1020,"etro":1021,"Ġdai":1022,"Ġcapi":1023,"Ġdes":1024,"lore":1025,"Ġsiste":1026,"Ġ7":1027,"Ġnec":1028,"cina":1029,"sis":1030,"sioni":1031,"Ġtre":1032,"Ġfin":1033,"nun":1034,"ell":1035,"Ġbene":1036,"Ġul":1037,"osto":1038,"Â»":1039,"Ġvolta":1040,"tina":1041,"uno":1042,"Ġcosa":1043,"Ġconos":1044,"tici":1045,"lla":1046,"Ġaff":1047,"Ġ10":1048,"ĠNa":1049,"mon":1050,"Ġtutte":1051,"dente":1052,"Ġpassa":1053,"chia":1054,"Ġinforma":1055,"tor":1056,"Ġprimo":1057,"feri":1058,"enda":1059,"oso":1060,"ĠNon":1061,"Ġcondi":1062,"Ġsti":1063,"Ġlun":1064,"Ġpicco":1065,"Ġdalle":1066,"Ġtras":1067,"Ġeff":1068,"Ġpartico":1069,"Ġpersone":1070,"vato":1071,"Ġrip":1072,"Ġz":1073,"cip":1074,"mpa":1075,"Ġquale":1076,"Ġmom":1077,"Ġsito":1078,"Ġinc":1079,"truzione":1080,"Ġnostro":1081,"Ġfe":1082,"Ġallo":1083,"usi":1084,"Ġmani":1085,"dare":1086,"Ġauto":1087,"Ġattra":1088,"Ġsicu":1089,"ho":1090,"ĠPo":1091,"citÃł":1092,"Ġcri":1093,"Ġmis":1094,"Ġ,":1095,"ON":1096,"ĠSa":1097,"Ġprodu":1098,"Ġoggi":1099,"ard":1100,"gis":1101,"lia":1102,"llo":1103,"Â°":1104,"Ġoltre":1105,"tano":1106,"ei":1107,"pen":1108,"edi":1109,"cci":1110,"Ġviene":1111,"Ġnuovo":1112,"una":1113,"ĠUn":1114,"Ġpossono":1115,"Ġmaggio":1116,"ĠPi":1117,"Ġstata":1118,"vin":1119,"usa":1120,"tiche":1121,"Ġfra":1122,"care":1123,"Ġraga":1124,"Ġrichi":1125,"ggior":1126,"Ġstesso":1127,"Ġdello":1128,"trib":1129,"Ġben":1130,"Ġrealizza":1131,"Ġcli":1132,"Ġgiorno":1133,"tten":1134,"Ġ.":1135,"verso":1136,"inistra":1137,"Ġdeci":1138,"Ġtuo":1139,"glie":1140,"scia":1141,"ha":1142,"deo":1143,"ok":1144,"gre":1145,"âĢĿ,":1146,"Ġsecondo":1147,"Ġcontra":1148,"Ġ8":1149,"Ġfine":1150,"Ġmai":1151,"Ġopera":1152,"Ġpossibile":1153,"fo":1154,"Ġrisul":1155,"Ġtor":1156,"ĠÂ«":1157,"gine":1158,"and":1159,"cere":1160,"ĠBa":1161,"qui":1162,"lari":1163,"Ġgiorni":1164,"Ġele":1165,"Per":1166,"gio":1167,"Ġcla":1168,"lano":1169,"Ġcontin":1170,"ĠMo":1171,"fatti":1172,"ĠItalia":1173,"Ġsuper":1174,"ĠFa":1175,"tr":1176,"Ġproble":1177,"ĠDa":1178,"ssione":1179,"cri":1180,"Ġore":1181,"torio":1182,"Ġfami":1183,"Ġcit":1184,"tata":1185,"ĠDe":1186,"Ġaltre":1187,"val":1188,"eli":1189,"Ġutilizza":1190,"ĠRa":1191,"tion":1192,"Ġprin":1193,"Ġ9":1194,"ĠLo":1195,"Ġdiven":1196,"logi":1197,"Ġdati":1198,"dre":1199,"ER":1200,"ffici":1201,"ĠcittÃł":1202,"Ġsucc":1203,"sie":1204,"Ġpe":1205,"vero":1206,"Ġmili":1207,"Ġmedi":1208,"ĠCor":1209,"tutto":1210,"Ġpotre":1211,"Ġvisi":1212,"lato":1213,"Ġsempli":1214,"ĠCo":1215,"ĠSo":1216,"Ġnoi":1217,"Ġora":1218,"mpio":1219,"cazione":1220,"dita":1221,"Ġsvi":1222,"ganizza":1223,"Ġrela":1224,"cce":1225,"Ġricerca":1226,"Ġori":1227,"Ġnatura":1228,"erie":1229,"Ġer":1230,"tis":1231,"Ġagli":1232,"eb":1233,"ĠCi":1234,"Ġsistema":1235,"Ġgo":1236,"ton":1237,"ua":1238,"Ġqua":1239,"tanza":1240,"Ġbamb":1241,"ĠSan":1242,"ĠAr":1243,"cipa":1244,"Ġmomento":1245,"ĠLi":1246,"imp":1247,"Ġsegui":1248,"ser":1249,"mici":1250,"arti":1251,"eno":1252,"vole":1253,"mis":1254,"ultura":1255,"venti":1256,"Ġassi":1257,"Ġren":1258,"vece":1259,"Ġsui":1260,"Ġcolle":1261,"Ġconsi":1262,"Ġloca":1263,"ccon":1264,"Ġnumero":1265,"Ġpunto":1266,"teri":1267,"ĠMon":1268,"Ġgiorna":1269,"Ġconten":1270,"iore":1271,"Ġdonne":1272,"ttore":1273,"Ġaltro":1274,"ĠPre":1275,"Ġliv":1276,"Ġsuoi":1277,"ber":1278,"orta":1279,"mato":1280,"Ġfre":1281,"cen":1282,"ppres":1283,"Ġnostra":1284,"Ġasp":1285,"guar":1286,"orre":1287,"Ġdiri":1288,"Ġgenera":1289,"ĠFi":1290,"tando":1291,"Ġposi":1292,"Ġ0":1293,"esse":1294,"smo":1295,"ghe":1296,"use":1297,"Ġmeno":1298,"Ġsvilu":1299,"Ġstati":1300,"Ġnuova":1301,"Ġperm":1302,"rica":1303,"Ġnecessa":1304,"Ġk":1305,"Ġqualche":1306,"Ġcrea":1307,"Ġmentre":1308,"fer":1309,"arsi":1310,"ort":1311,"Ġedi":1312,"!!":1313,"lio":1314,"Ġpes":1315,"Ġsoli":1316,"Ġinvece":1317,"Ġstoria":1318,"onale":1319,"ccio":1320,"rezza":1321,"vvero":1322,"ciali":1323,"Ġdice":1324,"ÃĪ":1325,"Ġbase":1326,"Ġscel":1327,"Ġr":1328,"ĠRoma":1329,"Ġabbiamo":1330,"Ġrappres":1331,"Ġmio":1332,"dica":1333,"tanti":1334,"Ġavere":1335,"ute":1336,"Ġannun":1337,"Ġ15":1338,"Ġricor":1339,"fici":1340,"ssima":1341,"com":1342,"Ġqui":1343,"ĠattivitÃł":1344,"lori":1345,"vento":1346,"Ġrispetto":1347,"Ġattraverso":1348,"Ġambi":1349,"ea":1350,"Ġfil":1351,"Ġoff":1352,"Ġgiov":1353,"Ġtutta":1354,"Ġ18":1355,"Ġdeve":1356,"Ġulti":1357,"isce":1358,"ĠDo":1359,"Ġtecni":1360,"anda":1361,"dono":1362,"Ġvideo":1363,"gh":1364,"Ġalcuni":1365,"fini":1366,"erÃł":1367,"ppa":1368,"Ġasso":1369,"Ġgru":1370,"gua":1371,"cono":1372,"zze":1373,"Ġconse":1374,"Ġtipo":1375,"Ġstan":1376,"Ġsulle":1377,"Ġmateria":1378,"meno":1379,"scri":1380,"Ġgesti":1381,"Ġass":1382,"labo":1383,"bre":1384,"sitÃł":1385,"Ġio":1386,"mbra":1387,"Ġprogra":1388,"Ġcerca":1389,"Ġaver":1390,"Ġrego":1391,"Ġanno":1392,"Ġcosti":1393,"tari":1394,"Ġspeci":1395,"Ġins":1396,"Ġnor":1397,"Ġterri":1398,"Ġval":1399,"Ġmin":1400,"sidera":1401,"ĠperÃ²":1402,"Ġcamb":1403,"gere":1404,"Ġag":1405,"Ġbo":1406,"este":1407,"cos":1408,"Ġbiso":1409,"Ġconta":1410,"Ġmor":1411,"Ġpresso":1412,"rattutto":1413,"tuale":1414,"zionali":1415,"Ġpresenta":1416,"tente":1417,"Ġinfatti":1418,"uzione":1419,"Ġcirca":1420,"Ġmia":1421,"Ġlin":1422,"ddi":1423,"Ġevi":1424,"Ġtele":1425,"Ġdurante":1426,"Ġmod":1427,"anni":1428,"coli":1429,"Ġcentro":1430,"Ġprezzi":1431,"Se":1432,"Ġsare":1433,"all":1434,"sieme":1435,"ĠRo":1436,"Ġline":1437,"Ġqualc":1438,"Ġgrazie":1439,"Ġprodotti":1440,"Ġservizio":1441,"ll":1442,"dÃ¬":1443,"rebbe":1444,"bito":1445,"Ġsoci":1446,"Ġide":1447,"Ġmerca":1448,"tolo":1449,"etri":1450,"Ġprote":1451,"Ġ12":1452,"ĠNo":1453,"Ġmolti":1454,"Ġfuo":1455,"Ġporta":1456,"AN":1457,"ghie":1458,"Ġesi":1459,"spon":1460,"Ġpren":1461,"sare":1462,"Ġ|":1463,"tino":1464,"ĠFran":1465,"Ġincontri":1466,"ai":1467,"Ġlega":1468,"cchia":1469,"mar":1470,"esco":1471,"TI":1472,"cano":1473,"Ġazi":1474,"ccu":1475,"Ġcura":1476,"Le":1477,"tter":1478,"eter":1479,"Ġverso":1480,"Ġsoprattutto":1481,"Ġamm":1482,"Ġsenti":1483,"Ġentra":1484,"dato":1485,"Ġtanto":1486,"Ġorganizza":1487,"stica":1488,"Ġecon":1489,"ĠChi":1490,"EN":1491,"ose":1492,"Ġfer":1493,"201":1494,"sidente":1495,"Ġraccon":1496,"gue":1497,"enzi":1498,"ĠZ":1499,"Ġvuo":1500,"Ġcultura":1501,"Ġconte":1502,"denza":1503,"ĠqualitÃł":1504,"Ġprogetto":1505,"app":1506,"Ġaveva":1507,"Ġcompa":1508,"Ġluo":1509,"Ġqueste":1510,"Ġparticolare":1511,"stitu":1512,"uso":1513,"Ġop":1514,"Ġservizi":1515,"Ġdisponi":1516,"orso":1517,"Ġpra":1518,"Ġdisposi":1519,"ut":1520,"poli":1521,"dini":1522,"ĠTu":1523,"Ġcarat":1524,"usto":1525,"Ġsetti":1526,"Ġterm":1527,"Ġmusi":1528,"Ġimma":1529,"Ġpoco":1530,"Ġmeglio":1531,"Ġspesso":1532,"Ġinformazioni":1533,"Ġsvol":1534,"bbero":1535,"rata":1536,"Ġcorso":1537,"rre":1538,"ĠGa":1539,"ĠCh":1540,"TA":1541,"ĠSu":1542,"Ġappro":1543,"Ġnas":1544,"mana":1545,"Ġnegli":1546,"Ġsemplice":1547,"Ġprofessi":1548,"Ġparo":1549,"erra":1550,"rico":1551,"Ġveri":1552,"Ġperio":1553,"Ġban":1554,"Ġfaci":1555,"Ġunghie":1556,"Ġesempio":1557,"pporto":1558,"ĠUni":1559,"Ġsue":1560,"TO":1561,"cro":1562,"Ġclassi":1563,"car":1564,"ppure":1565,"ĠTra":1566,"Ġraggiun":1567,"ranti":1568,"Ġarti":1569,"Ġsull":1570,"ĠLu":1571,"000":1572,"Ġinte":1573,"Ġecc":1574,"Ġquasi":1575,"Ġaggiun":1576,"Ġ[":1577,"ettere":1578,"esi":1579,"ĠciÃ²":1580,"posi":1581,"Ġvin":1582,"am":1583,"gistra":1584,"Ġlivello":1585,"Ġsiamo":1586,"Ġinsieme":1587,"Ġricon":1588,"uola":1589,"Ġposto":1590,"fia":1591,"vono":1592,"chio":1593,"Ġquelli":1594,"Ġvolte":1595,"Ġtri":1596,"Ġsembra":1597,"Ġrin":1598,"tenzione":1599,"âĢľ":1600,"tenti":1601,"Ġlascia":1602,"lar":1603,"Ġotten":1604,"Ġgui":1605,"Ġotti":1606,"Ġlui":1607,"Con":1608,"stra":1609,"Ġesc":1610,"Ġsor":1611,"Ġinterna":1612,"Ġgrandi":1613,"ĠMe":1614,"Ġtrova":1615,"cente":1616,"vamente":1617,"Ġ14":1618,"Ġprogramma":1619,"ĠCar":1620,"Ġsitua":1621,"ĠPar":1622,"ticolo":1623,"min":1624,"Ġserie":1625,"Ġabi":1626,"eria":1627,"gliere":1628,"RI":1629,"Ġutili":1630,"Ġscon":1631,"corso":1632,"veni":1633,"gini":1634,"Ġsci":1635,"gare":1636,"ttamente":1637,"ĠBi":1638,"Ġgia":1639,"vesti":1640,"ettore":1641,"Ġdefini":1642,"Ġfonda":1643,"Ġtradi":1644,"cchio":1645,"erci":1646,"LI":1647,"Ġnostri":1648,"tero":1649,"Ġpropria":1650,"Ġand":1651,"Ġinizia":1652,"Ġquelle":1653,"ĠX":1654,"be":1655,"Ġrice":1656,"Ġcambia":1657,"Ġvic":1658,"est":1659,"Ġvos":1660,"orto":1661,"iori":1662,"gato":1663,"tario":1664,"gnifica":1665,"Ġfos":1666,"Ġim":1667,"Ġaffi":1668,"30":1669,"Ġam":1670,"Ġpropri":1671,"Ġaper":1672,"Ġeconomi":1673,"Ġ#":1674,"onda":1675,"Ġfilm":1676,"unta":1677,"Ġdiversi":1678,"Ġpiano":1679,"Ġperf":1680,"--":1681,"Ġ2017":1682,"ĠÃĪ":1683,"ari":1684,"chÃ¨":1685,"Ġconfer":1686,"Ġproc":1687,"Ġmodi":1688,"Ġpartecipa":1689,"\".":1690,"Ġpara":1691,"Ġbambini":1692,"Ġcose":1693,"trice":1694,"ĠsocietÃł":1695,"Ġtran":1696,"interno":1697,"ĠNe":1698,"ĠpossibilitÃł":1699,"Ġweb":1700,"omini":1701,"ede":1702,"Ġlegge":1703,"altro":1704,"Ġru":1705,"tuali":1706,"dine":1707,"Ġsf":1708,"Ġimportante":1709,"Ġfina":1710,"tar":1711,"vati":1712,"Ġ16":1713,"ĠTi":1714,"Ġvelo":1715,"ulla":1716,"Ġmercato":1717,"Ġ30":1718,"Ġcitta":1719,"Ġtua":1720,"Ġstessa":1721,"Ġtrovare":1722,"Ġlimi":1723,"Ġsopra":1724,"Ġgruppo":1725,"gen":1726,"ĠMilano":1727,"dice":1728,"Ġprev":1729,"terna":1730,"ĠUna":1731,"gle":1732,"Ġamici":1733,"Ġonline":1734,"Ġquo":1735,"ĠGra":1736,"pu":1737,"Ġannunci":1738,"erienza":1739,"Un":1740,"Ġlavora":1741,"acqu":1742,"Ġseconda":1743,"tel":1744,"Ġden":1745,"Ġforni":1746,"Ġreal":1747,"anzia":1748,"Ġinten":1749,"Ġmusica":1750,"Ġproblema":1751,"Ġgratui":1752,"Ġani":1753,"Ġ11":1754,"Ġgrado":1755,"ĠEuro":1756,"usci":1757,"Ġpopo":1758,"Ġprodotto":1759,"ĠNel":1760,"Ġprece":1761,"oo":1762,"Ġvari":1763,"Ġpresente":1764,"Ġracco":1765,"Ġness":1766,"Ġnu":1767,"Ġsignifica":1768,"sato":1769,"fico":1770,"Ġsaranno":1771,"Ġvisto":1772,"Ġ...":1773,"ende":1774,"An":1775,"Ġcorre":1776,"Ġvista":1777,"Ġconsidera":1778,"issi":1779,"\",":1780,"Non":1781,"logia":1782,"Ġcap":1783,"oste":1784,"stico":1785,"RE":1786,"rati":1787,"Ġcollabo":1788,"Ġsette":1789,"ĠGio":1790,"Ġcapa":1791,"Ġ2018":1792,"Ġfuori":1793,"Ġdiffer":1794,"Ġmedia":1795,"tanto":1796,"Ġdonna":1797,"vata":1798,"Ġsegna":1799,"lli":1800,"verno":1801,"Ġanti":1802,"more":1803,"Ġpubblico":1804,"tere":1805,"ste":1806,"Ġnome":1807,"ĠrealtÃł":1808,"Ġbra":1809,"Ġseguito":1810,"stri":1811,"alle":1812,"Si":1813,"ĠFor":1814,"Ġnuovi":1815,"ĠSp":1816,"Ġmesi":1817,"rea":1818,"Ma":1819,"bietti":1820,"Ġsera":1821,"Ġterra":1822,"Ġspie":1823,"Ġnorma":1824,"Ġprincip":1825,"tate":1826,"roni":1827,"th":1828,"RA":1829,"vio":1830,"Ġesa":1831,"ordina":1832,"spi":1833,"Ġcausa":1834,"ner":1835,"entra":1836,"Ġregi":1837,"Ġpotrebbe":1838,"Ġriferi":1839,"Ġfamiglia":1840,"Ġvedere":1841,"acc":1842,"Ġblo":1843,"Ġlibro":1844,"Ġdetto":1845,"mare":1846,"Ġriguar":1847,"Ġsenso":1848,"ke":1849,"Ġ17":1850,"10":1851,"Ġmano":1852,"Ġimpre":1853,"Ġperiodo":1854,"opera":1855,"Â».":1856,"ggetti":1857,"Ġdiverse":1858,"ww":1859,"gon":1860,"ĠâĢĺ":1861,"mentare":1862,"Ġpote":1863,"Ġstrada":1864,"Ġvengono":1865,"Ġvero":1866,"Ġ13":1867,"Ġcontrib":1868,"tezza":1869,"Ġmostra":1870,"ĠTa":1871,"Ġterritorio":1872,"Ġdesi":1873,"Ġsesso":1874,"Ġrappresenta":1875,"versa":1876,"siasi":1877,"altra":1878,"ttori":1879,"Ġfavo":1880,"Ġdavvero":1881,"ĠEx":1882,"Ġcomunque":1883,"Ġcam":1884,"Ġcuo":1885,"Ġuomo":1886,"Ġ2016":1887,"ĠCas":1888,"Ġgratis":1889,"atti":1890,"fiche":1891,"au":1892,"Ġni":1893,"cendo":1894,"Al":1895,"Ġlungo":1896,"Ġsarebbe":1897,"rire":1898,"media":1899,"Ġimpe":1900,"Ġcin":1901,"Ġtanti":1902,"ger":1903,"Ġ:":1904,"ĠCome":1905,"cra":1906,"dendo":1907,"uoi":1908,"Ġproce":1909,"Ġdato":1910,"quad":1911,"sponsa":1912,"Ġriconos":1913,"Ġmese":1914,"Ġ25":1915,"Ġesclu":1916,"Ġprepa":1917,"Ġalcune":1918,"ĠY":1919,"zzazione":1920,"Ġsan":1921,"Ġotto":1922,"ccupa":1923,"Ġruo":1924,"Ġsettore":1925,"mico":1926,"Ġfron":1927,"Ġapri":1928,"nova":1929,"dina":1930,"su":1931,"Ġstruttura":1932,"rito":1933,"mai":1934,"cola":1935,"Ġdeter":1936,"Ġmini":1937,"Ġcorpo":1938,"Ġeffet":1939,"Ġapplica":1940,"ssimi":1941,"Ġsei":1942,"Ġqualsiasi":1943,"Ġbian":1944,"Ġsegu":1945,"Ġali":1946,"Ġdocu":1947,"osti":1948,"Ġfis":1949,"Ġcompi":1950,"IN":1951,"ramente":1952,"Ġsubito":1953,"Ġcommer":1954,"ĠTe":1955,"Ġtale":1956,"Ġsuccessi":1957,"ĠQuesto":1958,"Ġresponsa":1959,"19":1960,"Italia":1961,"Ġbar":1962,"Ġnuove":1963,"Ġregistra":1964,"Ġerano":1965,"Ġzona":1966,"Ġgioco":1967,"ty":1968,"ppi":1969,"ompa":1970,"net":1971,"Ġconfron":1972,"ĠHo":1973,"Ġ24":1974,"terÃł":1975,"mane":1976,"ppia":1977,"Ġsap":1978,"ft":1979,"Ġmigliori":1980,"Ġgiovani":1981,"Ġis":1982,"Ġitaliano":1983,"Ġvera":1984,"pro":1985,"sion":1986,"Ġfini":1987,"Ġmilioni":1988,"attro":1989,"mica":1990,"Ġpubblica":1991,"rono":1992,"Ġmoda":1993,"Ġtecno":1994,"Ġalmeno":1995,"Ġdichia":1996,"Ġstudio":1997,"Ġricos":1998,"Ġcampo":1999,"ficazione":2000,"Ġprezzo":2001,"Ġpersonale":2002,"Ġdare":2003,"Ġrivol":2004,"Ġdetta":2005,"Ġnecessario":2006,"Ġtroppo":2007,"Ġpunti":2008,"rale":2009,"Ġsicurezza":2010,"Ġrif":2011,"tal":2012,"Ġpoter":2013,"Ġener":2014,"Ġstre":2015,"Ġinizi":2016,"ĠSer":2017,"ambi":2018,"Ġdagli":2019,"Ġospi":2020,"alla":2021,"Ġfunziona":2022,"Ġ/":2023,"Ġtrasp":2024,"Ġeurope":2025,"Ġscelta":2026,"Ġcio":2027,"fon":2028,"Ġguida":2029,"onato":2030,"Ġcolo":2031,"Ġpiu":2032,"scita":2033,"cre":2034,"Ġdif":2035,"Ġ'":2036,"ĠDon":2037,"esp":2038,"oltre":2039,"Ġluogo":2040,"torno":2041,"Ġnove":2042,"Ġappar":2043,"Ġpron":2044,"Ġtrattamento":2045,"Ġdata":2046,"duzione":2047,"ĠSal":2048,"Ġpare":2049,"ĠPu":2050,"Ġdia":2051,"bbi":2052,"Ġqualcosa":2053,"ppe":2054,"ĠBo":2055,"Ġforse":2056,"lina":2057,"Ġuffi":2058,"Ġconsu":2059,"EL":2060,"roi":2061,"....":2062,"lle":2063,"Ġoffer":2064,"ccasione":2065,"Ġuomini":2066,"cin":2067,"unto":2068,"mia":2069,"IA":2070,"mos":2071,"ordo":2072,"Ġprovin":2073,"av":2074,"Ġsosten":2075,"ggetto":2076,"arte":2077,"len":2078,"bri":2079,"Ġ21":2080,"Ġeffetti":2081,"Ġanima":2082,"Ġsiano":2083,"Ġindivi":2084,"Ġnoti":2085,"Ġvalore":2086,"trimon":2087,"Ġfisi":2088,"Ġdol":2089,"Ġpreci":2090,"sce":2091,"Ġsviluppo":2092,"Ġforte":2093,"cenza":2094,"mano":2095,"Ġcontinua":2096,"bbiamo":2097,"Ġchat":2098,"essione":2099,"Ġge":2100,"Ġmessa":2101,"bilmente":2102,"vis":2103,"ĠEn":2104,"Ġex":2105,"Ġpolitica":2106,"Ġdeli":2107,"ĠSono":2108,"Ġtema":2109,"tur":2110,"segna":2111,"Ġspazio":2112,"Ġproduzione":2113,"Ġriusci":2114,"tendo":2115,"11":2116,"trui":2117,"Ġcomune":2118,"voli":2119,"Ġsce":2120,"ttere":2121,"Ġ2015":2122,"Ġpeso":2123,"Ġminuti":2124,"Ġ100":2125,"ĠVer":2126,"ĠBer":2127,"book":2128,"Ġvio":2129,"cando":2130,"Ġparole":2131,"Ġgiugno":2132,"Ġinseri":2133,"lata":2134,"azione":2135,"Ġfotogra":2136,"ĠNi":2137,"Ġindica":2138,"Ġinvi":2139,"Ġcucina":2140,"IS":2141,"bu":2142,"Ġspi":2143,"Ġpresenza":2144,"Ġvendita":2145,"Ġbisogno":2146,"mite":2147,"Ġcampi":2148,"Ġas":2149,"versitÃł":2150,"Ġfanno":2151,"Ġinoltre":2152,"Ġpresenti":2153,"Ġcoin":2154,"Ġintegra":2155,"Ġsettembre":2156,"cer":2157,"ĠTor":2158,"ĠperchÃ¨":2159,"Ġfinanzia":2160,"cche":2161,"Ġoppure":2162,"turo":2163,"Ġsuccesso":2164,"Ġvuole":2165,"ork":2166,"gne":2167,"dustri":2168,"Ġriso":2169,"Ġacco":2170,"Ġbre":2171,"Ġquest":2172,"den":2173,"Ġada":2174,"ciato":2175,"50":2176,"Ġsele":2177,"ĠTo":2178,"Ġcondizioni":2179,"Ġtesta":2180,"Ġlei":2181,"gan":2182,"Ġproblemi":2183,"ossi":2184,"ĠCol":2185,"Ġsingo":2186,"ddis":2187,"Ġproprie":2188,"tego":2189,"RO":2190,"dino":2191,"Ġscuola":2192,"Ġorigina":2193,"ato":2194,"Ġdiritto":2195,"Ġcompren":2196,"Ġcentra":2197,"Ġmanif":2198,"gente":2199,"pia":2200,"Ġelet":2201,"Ġ199":2202,"Ġsquad":2203,"omma":2204,"bra":2205,"ĠGli":2206,"Ġtipi":2207,"Ġprimi":2208,"auto":2209,"Ġandare":2210,"Ġgenerale":2211,"ĠQ":2212,"Ġmezzo":2213,"Ġcro":2214,"Ġatte":2215,"Ġparla":2216,"Ġautori":2217,"gamento":2218,"Ġtorna":2219,"ws":2220,"Ġdiff":2221,"Ġgestione":2222,"Ġfru":2223,"Ġquattro":2224,"Ġacqua":2225,"Ġ50":2226,"Ġsensi":2227,"Ġce":2228,"Ġhai":2229,"Ġinvesti":2230,"Ġsiti":2231,"Ġpur":2232,"Ġdim":2233,"par":2234,"ggiorna":2235,"ZI":2236,"Ġâ":2237,"zion":2238,"Ġero":2239,"ĠAd":2240,"istiche":2241,"dimento":2242,"Ġpratica":2243,"missione":2244,"mor":2245,"Ġcaratter":2246,"anze":2247,"Ġfosse":2248,"moni":2249,"Ġraccol":2250,"LE":2251,"Ġconclu":2252,"ssocia":2253,"Ġgiornata":2254,"taria":2255,"Ġavvi":2256,"uomo":2257,"Ġavuto":2258,"Ġnazionale":2259,"ĠVal":2260,"toria":2261,"Ġforza":2262,"bbra":2263,"mu":2264,"ttare":2265,"Ġlinea":2266,"Ġallora":2267,"cher":2268,"Ar":2269,"Ġmeri":2270,"ide":2271,"Nel":2272,"Ġstate":2273,"onali":2274,"Ġguar":2275,"vimento":2276,"Ġrapporto":2277,"Ġpresen":2278,"Ġcerto":2279,"Ġamministra":2280,"Ġrete":2281,"Ġricostruzione":2282,"Ġpol":2283,"mati":2284,"Ġitaliana":2285,"12":2286,"Ġconto":2287,"Ġtitolo":2288,"Ġado":2289,"omia":2290,"ditÃł":2291,"Ġtermine":2292,"Ġbuon":2293,"Ġpla":2294,"dici":2295,"zzare":2296,"Ġsettimana":2297,"Ġpercorso":2298,"orse":2299,"Ġdedica":2300,"TE":2301,"vanti":2302,"ficare":2303,"Ġvoi":2304,"Ġdie":2305,"siste":2306,"mio":2307,"ĠDio":2308,"ĠComune":2309,"Ġvis":2310,"Ġperi":2311,"Ġmisura":2312,"IC":2313,"Ġpresidente":2314,"ann":2315,"centi":2316,"Ġcia":2317,"Uni":2318,"Ġtramite":2319,"entale":2320,"Ġdiffici":2321,"Ġpochi":2322,"tagon":2323,"Ġletto":2324,"mata":2325,"Ġgioca":2326,"Ġmaggior":2327,"lamento":2328,"mentazione":2329,"Ġmolte":2330,"Ġmigliore":2331,"Ġleggere":2332,"bato":2333,"Ġultimi":2334,"Ġspetta":2335,"gazione":2336,"Ġriferimento":2337,"tamento":2338,"cura":2339,"Ġtemp":2340,"ismo":2341,"ĠPri":2342,"Ġur":2343,"Ġpresta":2344,"Ĥ¬":2345,"Ġdimen":2346,"Ġottobre":2347,"Ġimpi":2348,"Ġdipen":2349,"Ġsociale":2350,"tture":2351,"Ġnovembre":2352,"gura":2353,"Ġpagina":2354,"ĠFo":2355,"cale":2356,"cal":2357,"Ġformazione":2358,"Ġ2014":2359,"unale":2360,"Ġporno":2361,"Ġnulla":2362,"Ġpiace":2363,"Ġmare":2364,"Ġx":2365,"ume":2366,"Ġcasi":2367,"Ġpaese":2368,"Ġquanti":2369,"Ġpartire":2370,"Ġpelle":2371,"zienda":2372,"Ġviaggio":2373,"dito":2374,"Ġsosti":2375,"Ġormai":2376,"erto":2377,"Ġletter":2378,"Ġnego":2379,"Ġdisa":2380,"Ġof":2381,"Ġprov":2382,"Ġfronte":2383,"Ġcivi":2384,"uri":2385,"Ġresta":2386,"mbo":2387,"ĠDI":2388,"Ġacca":2389,"Ġmala":2390,"gge":2391,"Ġbuona":2392,"Ġov":2393,"Ġmas":2394,"Ġluce":2395,"Ġfran":2396,"gica":2397,"Ġcuore":2398,"Ġtempi":2399,"naio":2400,"Ġpreve":2401,"diamo":2402,"erva":2403,"eti":2404,"Ġmoder":2405,"enica":2406,"pport":2407,"Ġdimostra":2408,"ĠVia":2409,"Ġimpa":2410,"omina":2411,"Ġrichiesta":2412,"ultimo":2413,"Ġpiccolo":2414,"ciare":2415,"LA":2416,"Ġdisposizione":2417,"Ġgenere":2418,"ass":2419,"Ġmacch":2420,"Ġstile":2421,"Ġlocali":2422,"Ġcoinvol":2423,"Ġcontrollo":2424,"Ġillu":2425,"Ġdetermina":2426,"Do":2427,"Ġmanten":2428,"Ġfondamen":2429,"Ġassolu":2430,"Ġposizione":2431,"lie":2432,"Ġstagione":2433,"Ġdevono":2434,"uale":2435,"Ġsede":2436,"Ġdestina":2437,"Ġfondo":2438,"Ġtesti":2439,"fe":2440,"ffica":2441,"Ġ22":2442,"ĠBar":2443,"ĠConsi":2444,"Ġvostro":2445,"Ġimportanti":2446,"Ġottenere":2447,"ĠCorsi":2448,"Ġindividu":2449,"Ġid":2450,"biettivo":2451,"Ġinsta":2452,"Ġlingua":2453,"Ġcompre":2454,"Ġprocesso":2455,"Ġitaliani":2456,"ingle":2457,"Ġcondivi":2458,"ĠGu":2459,"ficato":2460,"II":2461,"Ġmeto":2462,"Ġfarma":2463,"Ġgaranti":2464,"Ġcreare":2465,"Ġrisultati":2466,"Ġsituazione":2467,"Ġbelle":2468,"Ġpersonali":2469,"Ġistitu":2470,"ĠCos":2471,"mmo":2472,"Ġcm":2473,"Ġpensi":2474,"ora":2475,"unitÃł":2476,"Ġragazzi":2477,"gom":2478,"ree":2479,"Ġcosto":2480,"Ġatto":2481,"Ġdicembre":2482,"Ġthe":2483,"Ġaccesso":2484,"Ġdisc":2485,"Ġaziende":2486,"Ġprotagon":2487,"Ġcompet":2488,"ttan":2489,"Ġeserci":2490,"Ġpsi":2491,"Ġinteress":2492,"vera":2493,"Ġcolore":2494,"ĠGiu":2495,"Ġfanta":2496,"art":2497,"Ġciglia":2498,"Ġazienda":2499,"Ġdirettamente":2500,"Ġrica":2501,"200":2502,"cle":2503,"Ġpubblici":2504,"Ġimmagini":2505,"Ġlan":2506,"ĠcapacitÃł":2507,"OR":2508,"mani":2509,"iscono":2510,"Ġluglio":2511,"Ġpari":2512,"Ġvalori":2513,"gano":2514,"Ġpossa":2515,"Ġcatego":2516,"Ġsoddis":2517,"Ġiscri":2518,"Ġtelef":2519,"tidi":2520,"Una":2521,"Ġmarzo":2522,"Ġ23":2523,"anna":2524,"mmi":2525,"Ġquad":2526,"coltÃł":2527,"cial":2528,"Ġsto":2529,"Ġvisita":2530,"ĠApp":2531,"ir":2532,"ct":2533,"Ġentro":2534,"Ġfrequ":2535,"acqua":2536,"Ġconsegu":2537,"ostante":2538,"ĠTer":2539,"costruzione":2540,"Ġeven":2541,"Ġappena":2542,"Ġcapire":2543,"Ġturi":2544,"Ġcoper":2545,"cati":2546,"ĠCen":2547,"Ġpost":2548,"Ġmale":2549,"ph":2550,"tran":2551,"Ġpermette":2552,"Ġoffre":2553,"ES":2554,"Ġvoglia":2555,"Ġdescri":2556,"Ġriguarda":2557,"Ġgiornali":2558,"Ġaccompa":2559,"tension":2560,"Ġatten":2561,"ware":2562,"ssociazione":2563,"Ġconsul":2564,"des":2565,"ellu":2566,"bbraio":2567,"ĠChe":2568,"Ġproba":2569,"zzato":2570,"telli":2571,"Ġaffer":2572,"tazioni":2573,"Ġspor":2574,"Ġpassato":2575,"ĠOr":2576,"erti":2577,"Ġruolo":2578,"Ġcomunicazione":2579,"Ġcine":2580,"Ġeventi":2581,"Ġrile":2582,"tera":2583,"ĠRicostruzione":2584,"Ġsfi":2585,"Ġdigi":2586,"Ġmaggiore":2587,"Ġlibera":2588,"tenzi":2589,"tuto":2590,"Ġstabili":2591,"gico":2592,"rando":2593,"ĠStato":2594,"Ġlon":2595,"genza":2596,"gari":2597,"ĠExtension":2598,"Ġcollaborazione":2599,"Ġmatt":2600,"rlo":2601,"logie":2602,"Ġesclusi":2603,"Ġcerti":2604,"ĠFranc":2605,"sistenza":2606,"versi":2607,"chite":2608,"Ġdedi":2609,"Ġnostre":2610,"Ġincontra":2611,"Ġfuturo":2612,"ĠMan":2613,"ĠGiov":2614,"ĠHa":2615,"Ġcapo":2616,"tesi":2617,"Ġcomin":2618,"ĠBu":2619,"Ġaffron":2620,"ĠCri":2621,"Ġinteressa":2622,"Ġanzi":2623,"lati":2624,"Ġvaluta":2625,"Ġbella":2626,"data":2627,"duto":2628,"ĠDu":2629,"Ġnello":2630,"ettare":2631,"Ġavven":2632,"Ġalta":2633,"ï¿":2634,"Ġfinale":2635,"enso":2636,"Ġgennaio":2637,"Ġfaccia":2638,"ZION":2639,"bblica":2640,"Ġnecessi":2641,"Ġinternazionale":2642,"Ġdomanda":2643,"Ġprom":2644,"Ġrischio":2645,"tualmente":2646,"Di":2647,"Ġrapi":2648,"MA":2649,"ï¿½":2650,"ardi":2651,"Ġmeta":2652,"Ġprofi":2653,"Ġcostrui":2654,"Ġmodello":2655,"telle":2656,"rere":2657,"tana":2658,"Ġassocia":2659,"Ġalto":2660,"Ġlavori":2661,"Ġ2013":2662,"Ġabbia":2663,"dati":2664,"Ġade":2665,"ĠItali":2666,"rano":2667,"Ġrispon":2668,"trimonio":2669,"zzando":2670,"Ġset":2671,"Ġcorri":2672,"Ġespre":2673,"ĠInter":2674,"Ġstessi":2675,"Ri":2676,"ĠDis":2677,"Ġtal":2678,"Ġclienti":2679,"ĠGo":2680,"Ġesperienza":2681,"Ġrifle":2682,"Ġrappresen":2683,"Ġvole":2684,"ĠGia":2685,"utare":2686,"Ġstampa":2687,"Ġterre":2688,"Ġfatti":2689,"Ġlocale":2690,"Ġcittadini":2691,"Ġgara":2692,"Ġgoverno":2693,"Ġcara":2694,"SA":2695,"ang":2696,"Ġpuoi":2697,"assi":2698,"diale":2699,"Ġfase":2700,"vate":2701,"Ġpuli":2702,"Come":2703,"ĠAnche":2704,"dotto":2705,"Ġcolori":2706,"Ġmanifesta":2707,"Ġsimi":2708,"Ġfile":2709,"Ġrila":2710,"Ġbe":2711,"Ġvolon":2712,"Ġpazi":2713,"gnato":2714,"Ġaggiorna":2715,"Ġscena":2716,"logo":2717,".,":2718,"orsa":2719,"lando":2720,"damento":2721,"Ġester":2722,"late":2723,"Ġfacile":2724,"15":2725,"Ġscar":2726,"Ġcontinu":2727,"Ġscorso":2728,"canza":2729,"Ġsinda":2730,"volo":2731,"ĠSta":2732,"Ġversione":2733,"Ġbelli":2734,"Ġchie":2735,"Ġutilizzare":2736,"cine":2737,"Ġutenti":2738,"Ġmettere":2739,"ĠmodalitÃł":2740,"Ġarre":2741,"Ġopere":2742,"Ġrisultato":2743,"Ġconn":2744,"rate":2745,"cita":2746,"mail":2747,"Ġocchi":2748,"Ġmassimo":2749,"Ġsegre":2750,"Ġcrescita":2751,"Ġ40":2752,"Ġcostitu":2753,"Ġidenti":2754,"Ġdisponibile":2755,"Ġimm":2756,"ĠTri":2757,"Ġdovrebbe":2758,"Ġpiccoli":2759,"onte":2760,"Ġconoscere":2761,"Ġdesign":2762,"dos":2763,"colare":2764,"ĠGran":2765,"genti":2766,"Ġfir":2767,"Ġtotale":2768,"Ġriconosci":2769,"18":2770,"uzioni":2771,"Ġfebbraio":2772,"Ġcarta":2773,"cebook":2774,"Ġvarie":2775,"orno":2776,"illa":2777,"Ġfal":2778,"trici":2779,"metri":2780,"Ġj":2781,"Ġacquis":2782,"Ġartico":2783,"Ġtito":2784,"Ġasse":2785,"noltre":2786,"Ġavrebbe":2787,"Ġlettera":2788,"Ġusci":2789,"azienda":2790,"Ġamp":2791,"alisi":2792,"Ġinca":2793,"ĠDopo":2794,"Ġtar":2795,"ĠcioÃ¨":2796,"ki":2797,"Ġprincipali":2798,"vendo":2799,"ĠIN":2800,"Ġritro":2801,"Ġsola":2802,"CA":2803,"Ġobbli":2804,"Ġaprile":2805,"Ġprovincia":2806,"Tu":2807,"ts":2808,"gioni":2809,"Ġprecedente":2810,"Ġsquadra":2811,"Ġama":2812,"Ġtrasforma":2813,"Ġprogetti":2814,"Ġnaturale":2815,"ĠSpa":2816,"ee":2817,"sola":2818,"ĠAle":2819,"Ġinclu":2820,"Ġcomporta":2821,"Ġdiscu":2822,"Ġspecia":2823,"Ġgeni":2824,"Ġquotidi":2825,"anche":2826,"lin":2827,"Ġsoluzione":2828,"yo":2829,"ĠRu":2830,"aren":2831,"rente":2832,"vista":2833,"Pro":2834,"Ġgaran":2835,"cata":2836,"Ġmetri":2837,"Ġnotte":2838,"viamente":2839,"Ġann":2840,"larmente":2841,"Ġvaria":2842,"Ġsugg":2843,"Ġingre":2844,"Ġpot":2845,"Ġ&":2846,"Ġmalatti":2847,"prire":2848,"Ġperdere":2849,"Ġstrumenti":2850,"Ġscritto":2851,"Ġgiudi":2852,"ket":2853,"Ġrega":2854,"bbia":2855,"ggiare":2856,"Ġ28":2857,"Ġavre":2858,"Ġstrate":2859,"Ġdiffi":2860,"Ġgiovane":2861,"Ġemo":2862,"Ġcele":2863,"cy":2864,"mministra":2865,");":2866,"Ġparlare":2867,"Ġmaniera":2868,"Ġmorte":2869,"ĠCal":2870,"Ġrisposta":2871,"up":2872,"Ġtesto":2873,"ĠVene":2874,"alitÃł":2875,"Ġprendere":2876,"Ġsapere":2877,"Ġrelazione":2878,"Ġsalute":2879,"Ġcontempo":2880,"Ġcaratteri":2881,"genze":2882,"ond":2883,"camente":2884,"viso":2885,"pren":2886,"Ġries":2887,"Ġliber":2888,"Ġ2012":2889,"Ġstorico":2890,"Ġincontro":2891,"Ġragazze":2892,"Ġpass":2893,"Ġeffica":2894,"eso":2895,"Ġvivere":2896,"Mi":2897,"Ġdunque":2898,"Ġcas":2899,"Ġcaratteristiche":2900,"ĠâĢ¦":2901,"Ġfacendo":2902,"Ġridu":2903,"samente":2904,"Ġlibri":2905,"ande":2906,"Ġprova":2907,"ding":2908,"Ġeffettua":2909,"eo":2910,"Ġmal":2911,"Ġvanta":2912,"ĠMaria":2913,"Ġfunzione":2914,"matica":2915,"Ġusa":2916,"Ġovvero":2917,"Ġinvia":2918,"ly":2919,"Ġuso":2920,"Ġdifficile":2921,"rizzo":2922,"Ġpassi":2923,"non":2924,"ultima":2925,"ex":2926,"Ġrep":2927,"lini":2928,"bar":2929,"ondo":2930,"Ġ+":2931,"cipale":2932,"stiche":2933,"lici":2934,"Ġsuperiore":2935,"son":2936,"Ġosser":2937,"Ġequi":2938,"etter":2939,"ologna":2940,"Ġelementi":2941,"Ġcollo":2942,"ĠPia":2943,"erazione":2944,"Ġgente":2945,"Ġmassa":2946,"Ġmemo":2947,"Ġscoper":2948,"lora":2949,"ĠGen":2950,"Ġ26":2951,"Ġoccasione":2952,"ssime":2953,"Da":2954,"Ġtuoi":2955,"Ġsole":2956,"ĠNapoli":2957,"Ġcinque":2958,"ĠServi":2959,"Ġpensa":2960,"Ġcompletamente":2961,"Ġinse":2962,"attivitÃł":2963,"Ca":2964,"Ġbio":2965,"Ġvicino":2966,"anca":2967,"Questo":2968,"Ġdistrib":2969,"Ġriman":2970,"miche":2971,"idea":2972,"mone":2973,"Ġ27":2974,"condo":2975,"gri":2976,"visione":2977,"ĠSte":2978,"inizio":2979,"ĠConsiglio":2980,"rai":2981,"area":2982,"Ġvali":2983,"Ġsingle":2984,"Ġoccupa":2985,"Ġmer":2986,"Ġvede":2987,"ĠpotrÃł":2988,"Ġcampa":2989,"OS":2990,"Ġbasta":2991,"Ġnote":2992,"inte":2993,"istica":2994,"Ġinfer":2995,"Ġatta":2996,"Ġpiedi":2997,"Ġmateriale":2998,"ry":2999,"Ġbreve":3000,"Ġristo":3001,"Lo":3002,"Ġpossiamo":3003,"Ġbru":3004,"Ġguerra":3005,"Ġpotenzi":3006,"Ġdisponibili":3007,"ĠnÃ©":3008,"ffa":3009,"ĠMas":3010,"tella":3011,"Ġviol":3012,"Ġqualcuno":3013,"----":3014,"ĠÂ·":3015,"Ġunico":3016,"Ġsicuramente":3017,"cali":3018,"visi":3019,"Ġbal":3020,"sh":3021,"Ġniente":3022,"Ġtempera":3023,"Ġcomo":3024,"ĠStati":3025,"16":3026,"Ġattenzione":3027,"ĠQuesta":3028,"tini":3029,"ĠStu":3030,"AR":3031,"Ġspazi":3032,"utili":3033,"Ġrealizzazione":3034,"gati":3035,"Ġderi":3036,"onati":3037,"vazione":3038,"Ġrive":3039,"op":3040,"Ġscegliere":3041,"menta":3042,"Ġstudi":3043,"mere":3044,"Ġvostra":3045,"Ġmiei":3046,"Ġfilo":3047,"Ġfemm":3048,"ficio":3049,"ĠThe":3050,"ĠVa":3051,"ka":3052,"cana":3053,"Ġemer":3054,"tone":3055,"Ġsche":3056,"Ġvoce":3057,"ker":3058,"umi":3059,"arci":3060,"etra":3061,"Ġtur":3062,"Ġimprese":3063,"ĠPoli":3064,"Ġrecu":3065,"morroi":3066,"Ġcliente":3067,"Ġdeciso":3068,"Ġsoggetti":3069,"Ġavanti":3070,"Ġopport":3071,"Ġtess":3072,"mobili":3073,"Ġtante":3074,"simo":3075,"orti":3076,"contro":3077,"Ġpromo":3078,"Ġnessuno":3079,"Ġaiuta":3080,"Ġschi":3081,"Ġcompon":3082,"Ġinterpre":3083,"sco":3084,"gata":3085,"Ġconvin":3086,"Ġraff":3087,"Ġfigli":3088,"ting":3089,"ĠSc":3090,"Ġconcor":3091,"articolo":3092,"Ġbianco":3093,"Ġsezione":3094,"Ġsani":3095,"Ġarticolo":3096,"Ġestre":3097,"Ġascol":3098,"Ġveloce":3099,"ettroni":3100,"tuna":3101,"teriore":3102,"Ġstudenti":3103,"24":3104,"Ġresid":3105,"Ġintro":3106,"gie":3107,"CI":3108,"Ġcontenuti":3109,"lib":3110,"Ġveni":3111,"Ġreli":3112,"Ġperfetta":3113,"stenza":3114,"lazioni":3115,"dersi":3116,"Ġedizione":3117,"essere":3118,"Ġprofession":3119,"Ġmino":3120,"esperienza":3121,"Ġcond":3122,"ĠCla":3123,"Ho":3124,"Ġinnova":3125,"Ġconosci":3126,"Ġpiccola":3127,"Ġspia":3128,"Ġagosto":3129,"Ġstanno":3130,"Ġmateriali":3131,"ĠRegione":3132,"Sono":3133,"uole":3134,"Ġrifi":3135,"Ġeli":3136,"dire":3137,"Ġaspetta":3138,"Ġpal":3139,"Ġdavanti":3140,"duta":3141,"Ġportare":3142,"amore":3143,"Ġbasso":3144,"Ġamore":3145,"pubblica":3146,"ĠproprietÃł":3147,"mera":3148,"ccato":3149,"Ġfavore":3150,"Ġpart":3151,"Ġpom":3152,"Ġconsigli":3153,"Ġprime":3154,"ment":3155,"isi":3156,"Ġabbas":3157,"lazzo":3158,"Ġmassima":3159,"Ġtrov":3160,"Ġgro":3161,"OM":3162,"Ġcomplessi":3163,"Ġsupera":3164,"Ġevitare":3165,"Ġarriva":3166,"14":3167,"bina":3168,"Ġraggiungere":3169,"mbe":3170,"Ġconti":3171,"vra":3172,"turi":3173,"Ġmotivo":3174,"stici":3175,"Ġcic":3176,"Ġkm":3177,"Ġprossimo":3178,"Ġsper":3179,"Ġcase":3180,"Ġdomenica":3181,"Ġpoe":3182,"date":3183,"ttiva":3184,"Ġpensare":3185,"Ġesigenze":3186,"Ġameri":3187,"Ġgiusti":3188,"Ġprincipale":3189,"ttivo":3190,"Ġpagamento":3191,"???":3192,"VA":3193,"Ġgri":3194,"80":3195,"renze":3196,"ĠverrÃł":3197,"ght":3198,"nale":3199,"cilia":3200,"Ġpasso":3201,"Ġdip":3202,"enziale":3203,"Ġmos":3204,"estra":3205,"dri":3206,"Ġagg":3207,"ori":3208,"Ġdovre":3209,"60":3210,"Ġdiritti":3211,"ĠQuando":3212,"ĠdifficoltÃł":3213,"Ġdemo":3214,"Ġluoghi":3215,"Ġimmedia":3216,"Ġrima":3217,"Ġblog":3218,"ĠTorino":3219,"Ġelettroni":3220,"lizzazione":3221,"Ġriten":3222,"Ġbisogna":3223,"Ġmette":3224,"ĠCan":3225,"ranea":3226,"ĠPresidente":3227,"ttosto":3228,"Ġsociali":3229,"toriale":3230,"Ġtermini":3231,"Ġ?":3232,"Ġfeli":3233,"ĠcomunitÃł":3234,"Ġgiusto":3235,"Ġsm":3236,"Ġsba":3237,"Ġbat":3238,"inistro":3239,"ader":3240,"Ġ29":3241,"ĠMonte":3242,"ettato":3243,"Ġmanu":3244,"Ġingle":3245,"lay":3246,"Ġgiar":3247,"Ġfiglio":3248,"ĠDire":3249,"Ġcrisi":3250,"Ġdedicato":3251,"Ġsoluzioni":3252,"Ġsistemi":3253,"Ġdiventa":3254,"Ġcomma":3255,"Ġcamera":3256,"Ġcellu":3257,"Ġindustri":3258,"ĠCu":3259,"nunci":3260,"ĠFrancesco":3261,"contri":3262,"Ġpreferi":3263,"ania":3264,"vid":3265,"Ġom":3266,"Ġcentrale":3267,"meri":3268,"sape":3269,"25":3270,"ĠGer":3271,"Ġprocedu":3272,"SI":3273,"Ġragione":3274,"Ġclasse":3275,"Ġprevede":3276,"NA":3277,"Ġpaesi":3278,"enne":3279,"inf":3280,"Ġmacchina":3281,"oogle":3282,"tivamente":3283,"arlo":3284,"Ġinci":3285,"mazione":3286,"Ġinterventi":3287,"derÃł":3288,"Ġpure":3289,"Ġbagno":3290,"Ġcolpi":3291,"//":3292,"Ġrecente":3293,"ĠJo":3294,"Ġbambino":3295,"ĠChiesa":3296,"Ġutile":3297,"id":3298,"Ġalb":3299,"Ġregola":3300,"ĠCli":3301,"Ġmonta":3302,"Ġspeciali":3303,"unica":3304,"ps":3305,"Ġnero":3306,"Ġpartecipazione":3307,"Ġroman":3308,"Ġinterno":3309,"Ġrisorse":3310,"Ġ31":3311,"ĠnecessitÃł":3312,"ld":3313,"cole":3314,"Ġsinistra":3315,"Ġfur":3316,"Ġmovimento":3317,"Ġ2011":3318,"Dopo":3319,"Ġmetodo":3320,"Ġproveni":3321,"estival":3322,"udi":3323,"ĠdovrÃł":3324,"Ġscopo":3325,"Ġmagari":3326,"tanze":3327,"Ġtren":3328,"Ġfatta":3329,"sca":3330,"Ġresto":3331,"gliato":3332,"Ġregionale":3333,"zzano":3334,"Ġnota":3335,"ĠmetÃł":3336,"truttura":3337,"rone":3338,"Ġquestione":3339,"Ġsuperfici":3340,"ftware":3341,"Ġtea":3342,"cella":3343,"Ġordina":3344,"AL":3345,"Ġieri":3346,"Ġgas":3347,"morroidi":3348,"ĠRis":3349,"Ġtrovato":3350,"Ġgiro":3351,"Ġpiacere":3352,"Ġaspetti":3353,"13":3354,"Ġsport":3355,"Ġvorre":3356,"mart":3357,"renti":3358,"cino":3359,"Ġsviluppa":3360,"Ġcresc":3361,"Ġdentro":3362,"troppo":3363,"Ġmesso":3364,"ĠGiovanni":3365,"Ġprevisto":3366,"Ġtali":3367,"ĠPaese":3368,"Ġsoltanto":3369,"gro":3370,"Ġtecniche":3371,"://":3372,"Ġrendere":3373,"gante":3374,"Ġarrivare":3375,"ĠâĤ¬":3376,"land":3377,"Ġpiazza":3378,"ĠDel":3379,"ĠCasa":3380,"Ġnonostante":3381,"eranno":3382,"Ġlegno":3383,"Ġconoscenza":3384,"ghezza":3385,"Ġpiuttosto":3386,"Ġricev":3387,"Ġsecolo":3388,"Ġprovve":3389,"Ġstrumento":3390,"Ġscienti":3391,"ĠEuropa":3392,"Ġimpianti":3393,"Ġpotere":3394,"17":3395,"Ġperdita":3396,"mentari":3397,"Ġmulti":3398,"essore":3399,"Gli":3400,"Ġconsenti":3401,"âĢ¦]":3402,"erico":3403,"Ġpercor":3404,"Â«":3405,"dizione":3406,"ĠGior":3407,"Ġ=":3408,"Ġaree":3409,"wn":3410,"Ġcontratto":3411,"Ġcandi":3412,"Ġfamiglie":3413,"ZIONE":3414,"Ġcoloro":3415,"Ġreali":3416,"Ġlunga":3417,"Ġcostruzione":3418,"Euro":3419,"tria":3420,"ensa":3421,"Ġelettri":3422,"Ġconsiglio":3423,"Ġsale":3424,"ardo":3425,"berto":3426,"Ġinternet":3427,"dale":3428,"Ġposti":3429,"Ġdifferenza":3430,"Ġemorroidi":3431,"Ġnavi":3432,"Ġpubblicato":3433,"ap":3434,"Ġstand":3435,"Ġvir":3436,"Ġappunta":3437,"Ġvanno":3438,"Ġpadre":3439,"Ġcategoria":3440,"Ġtecnica":3441,"ersi":3442,"Ġparola":3443,"Ġeconomico":3444,"Ġglo":3445,"OL":3446,"don":3447,"imma":3448,"Ġdimenti":3449,"Tra":3450,"Ġbri":3451,"Ġpartecip":3452,"isco":3453,"Ġesegui":3454,"Ġculturale":3455,"creto":3456,"Ġoggetti":3457,"Ġprose":3458,"Ġir":3459,"Ġlar":3460,"Ġdiventare":3461,"Ġgenitori":3462,"Ġterzo":3463,"ĠInoltre":3464,"Ġincre":3465,"Ġscom":3466,"ttima":3467,"Ġseguire":3468,"Ġtradizione":3469,"Ġcapelli":3470,"iale":3471,"ĠAnton":3472,"ccare":3473,"ĠCentro":3474,"Ġprotezione":3475,"ĠGes":3476,"Ġscor":3477,"Ġinteresse":3478,"Ġconfor":3479,"ambito":3480,"Ġsess":3481,"Ġreale":3482,"ĠGoogle":3483,"ĠFacebook":3484,"bio":3485,"Ġscher":3486,"Ġdietro":3487,"Ġspeciale":3488,"Ġstraordina":3489,"Ġmera":3490,"ĠVo":3491,"anzi":3492,"Ġcostitui":3493,"ĠvelocitÃł":3494,"Ġrealizzato":3495,"Ġmecc":3496,"Ġposso":3497,"Ġusare":3498,"venzione":3499,"Ġgiochi":3500,"llare":3501,"pol":3502,"zzata":3503,"Ġadulti":3504,"Ġripor":3505,"Ġmadre":3506,"Ġportato":3507,"ttoria":3508,"Ġcostante":3509,"Ġdistin":3510,"Ġconsegna":3511,"Ġmangia":3512,"Ġmattina":3513,"Ġdovuto":3514,"ĠresponsabilitÃł":3515,"ris":3516,"endere":3517,"ET":3518,"estre":3519,"Ġdistanza":3520,"Ġesperi":3521,"fficiente":3522,"uter":3523,"ĠPe":3524,"pporti":3525,"ciamo":3526,"mba":3527,"Ġbilan":3528,"din":3529,"Ġaddi":3530,"ddo":3531,"rendi":3532,"issimo":3533,"ggere":3534,"ĠAndre":3535,"Ġ60":3536,"Ġfam":3537,"Ġconfronti":3538,"Ġricetta":3539,"Ġmodelli":3540,"Ġcomposto":3541,"Ġpartita":3542,"Ġzu":3543,"ent":3544,"ĠPaolo":3545,"Ġsocial":3546,"Ġfigura":3547,"Ġfondamentale":3548,"Ci":3549,"Ġseguenti":3550,"ĠsÃ©":3551,"Ġdimensioni":3552,".âĢľ":3553,"Ġfen":3554,"Ġmemb":3555,"utilizzo":3556,"alto":3557,"Ġcarico":3558,"Ġgua":3559,"Ġspecie":3560,"Re":3561,"Ġrealizzare":3562,"lub":3563,"Ġseleziona":3564,"Ġalterna":3565,"Ġcontatto":3566,"glior":3567,"ranza":3568,"Ġrende":3569,"Ġaccompagna":3570,"Ġmente":3571,"Ġrisol":3572,"Ġsoggior":3573,"Ġpericolo":3574,"Ġadesso":3575,"iss":3576,"Ġconsente":3577,"Ġciasc":3578,"ya":3579,"Ġragazza":3580,"ambiente":3581,"AS":3582,"Ġufficiale":3583,"bora":3584,"und":3585,"ĠCro":3586,"ĠGre":3587,"Ġcredo":3588,"Ġassicu":3589,"ĠScar":3590,"ĠBe":3591,"ĠRepubblica":3592,"Ġintra":3593,"onare":3594,"Ġavete":3595,"ster":3596,"rand":3597,"Ġsali":3598,"Ġofferte":3599,"detto":3600,"rci":3601,"Ġcondu":3602,"golo":3603,"Ġrispar":3604,"anco":3605,"Ġriti":3606,"Ġsupporto":3607,"mila":3608,"lante":3609,"Ġecco":3610,"Ġmu":3611,"Ġintorno":3612,"Ġpieno":3613,"Ġspese":3614,"aria":3615,"Ġtrasc":3616,"uire":3617,"ĠEdi":3618,"Ġoggetto":3619,"Ġsicuro":3620,"ĠSesso":3621,"mpe":3622,"Ġsottoline":3623,"grafia":3624,"useo":3625,"Ġquei":3626,"ĠRos":3627,"Ġoriginale":3628,"ĠNuo":3629,"Ġveramente":3630,"ĠNazionale":3631,"Ġmus":3632,"ĠIo":3633,"into":3634,"Ġbus":3635,"ĠPas":3636,"Ġbel":3637,"ĠTre":3638,"Ġparticolari":3639,"Ġeffettu":3640,"Ġanimali":3641,"22":3642,"Ġidee":3643,"Ġtranqu":3644,"lizzato":3645,"VI":3646,"Ġmicro":3647,"Ġsabato":3648,"Ġmondiale":3649,"Ġcercare":3650,"ĠPal":3651,"Ġpartner":3652,"razioni":3653,"Ġprofessionale":3654,"Ġacquistare":3655,"Pi":3656,"ĠBologna":3657,"Ġraccolta":3658,"Ġfrat":3659,"):":3660,"ĠetÃł":3661,"ins":3662,"teriori":3663,"Ġpiatta":3664,"Ġdestra":3665,"DI":3666,"Ġsom":3667,"Ġdallo":3668,"usura":3669,"rina":3670,"ĠMarco":3671,"Ġorgani":3672,"Ġ[âĢ¦]":3673,"minare":3674,"mini":3675,"Ġsemplicemente":3676,"Vi":3677,"vamo":3678,"gimento":3679,"inda":3680,"ĠÂ»":3681,"Pre":3682,"ĠCer":3683,"tranno":3684,"Ġpreso":3685,"Ġlibero":3686,"Ġdiv":3687,"Ġdise":3688,"Ġforme":3689,"Ġsoddisfa":3690,"Ġabbastanza":3691,"Ġspiega":3692,"mministrazione":3693,"lis":3694,"ermo":3695,"Ġsub":3696,"Ġtute":3697,"Ġenergia":3698,"ĠlÃ¬":3699,"Ġfortuna":3700,"Ġ2010":3701,"Ġbanca":3702,"Ġconsape":3703,"Ġmodifica":3704,"Ġcampagna":3705,"ati":3706,"Ġpiena":3707,"Ġchiu":3708,"Ġfenom":3709,"Ġinglese":3710,"Ġacce":3711,"Ġsoftware":3712,"Ġtrasferi":3713,"Ġimpie":3714,"Ġripro":3715,"Ġtenta":3716,"Ġsala":3717,"ĠJa":3718,"40":3719,"Ġsolito":3720,"Ġverde":3721,"Ġpan":3722,"ressi":3723,"Ġcoppia":3724,"ettazione":3725,"Ġchiama":3726,"uito":3727,"monia":3728,"Ġproposta":3729,"erdÃ¬":3730,"Ġtecnico":3731,"gin":3732,"ordine":3733,"mme":3734,"Ġus":3735,"Ġcodice":3736,"Po":3737,"uma":3738,"Ġapprofon":3739,"Ġmodu":3740,"ĠnovitÃł":3741,"Ġsfru":3742,"ĠnonchÃ©":3743,"Ġ198":3744,"Ġovviamente":3745,"gs":3746,"Ġsperi":3747,"ĠNella":3748,"Ġpassare":3749,"Ġambiente":3750,"Ġconcre":3751,"Ġcorsi":3752,"ĠGesÃ¹":3753,"ĠDEL":3754,"ĠEcco":3755,"Ġispi":3756,"!!!":3757,"posito":3758,"Ġmuo":3759,"Ġlivelli":3760,"Ġdiscip":3761,"Ġfed":3762,"Ġriser":3763,"Ġpotranno":3764,"__":3765,"Ġfres":3766,"ĠTea":3767,"poca":3768,"Ġpagine":3769,"Ġpropone":3770,"quisi":3771,"uncia":3772,"Ġestra":3773,"Ġideale":3774,"Ġfri":3775,"Ġgusto":3776,"ĠlibertÃł":3777,"omin":3778,"inistero":3779,"Ġavevano":3780,"Ġpresto":3781,"Ġsho":3782,"gnia":3783,"keting":3784,"Ġconce":3785,"Ġpiani":3786,"evento":3787,"Ġconcentra":3788,"Ġitaliane":3789,"Ġaperto":3790,"Ġurb":3791,"Ġparticolarmente":3792,"Ġdedicata":3793,"Ġscuole":3794,"rori":3795,"ualizza":3796,"voro":3797,"Ġet":3798,"Ġintera":3799,"fficio":3800,"Ġdiretta":3801,"No":3802,"Ġchiaro":3803,"Ġfemmini":3804,"arto":3805,"ĠquantitÃł":3806,"Ġlavorare":3807,"Ġbello":3808,"Ġmaggiori":3809,"ĠAu":3810,"Ġappare":3811,"Ġpassaggio":3812,"ĠCre":3813,"Ġdanno":3814,"dite":3815,"Ġtecnologia":3816,"volta":3817,"Ġtera":3818,"ĠPoi":3819,"Ġmeravi":3820,"Ġepi":3821,"Ġstudia":3822,"Ġcreazione":3823,"ttato":3824,"Ġwww":3825,"Ġinda":3826,"Ġgay":3827,"minazione":3828,"Ġcamm":3829,"ple":3830,"ÂĴ":3831,"tinua":3832,"ĠGrazie":3833,"ĠLui":3834,"impor":3835,"Ġenerge":3836,"liare":3837,"ĠsÃ¬":3838,"rov":3839,"ĠAnnunci":3840,"Ġimpegna":3841,"mamente":3842,"Ġaccor":3843,"Ġgruppi":3844,"Ġmerito":3845,"ler":3846,"ssand":3847,"Ġespri":3848,"tello":3849,"Ġnaturali":3850,"Ġalcun":3851,"venire":3852,"Ġvalutazione":3853,"vale":3854,"Ġmoto":3855,"Ġpolitiche":3856,"work":3857,"Ġlato":3858,"dano":3859,"Ġprovo":3860,"Ġpresentazione":3861,"Ġpressione":3862,"Ġritorno":3863,"ĠIs":3864,"ĠSco":3865,"ĠSanta":3866,"Ġregione":3867,"70":3868,"mble":3869,"unti":3870,"Ġpassione":3871,"Ġstrani":3872,"Ġcorrispon":3873,"Ġsud":3874,"Ġstrutture":3875,"Ġsepa":3876,"Ġdisco":3877,"Ġimmobili":3878,"Ġpotenza":3879,"Ġdolore":3880,"Ġnega":3881,"Ġlettura":3882,"Ġcalcio":3883,"rla":3884,"Ġpiccole":3885,"ete":3886,"Ġcata":3887,"Ġdurata":3888,"ensi":3889,"vita":3890,"raggio":3891,"Ġcomba":3892,"Ġprotagonista":3893,"Ġeventuali":3894,"Ġdirezione":3895,"spetti":3896,"Ġesiste":3897,"Ġantici":3898,"ĠVen":3899,"lino":3900,"Ġpreno":3901,"Ġordine":3902,"Ġscoprire":3903,"fra":3904,"Ġab":3905,"Ġsugli":3906,"ĠOn":3907,"Ġprobabilmente":3908,"90":3909,"bal":3910,"mbio":3911,"cipi":3912,"conomia":3913,"Ġfarlo":3914,"ĠFirenze":3915,"Ġsettimane":3916,"Ġnumerosi":3917,"ĠEurope":3918,"cla":3919,"pero":3920,"ĠMedi":3921,"Ġgarantire":3922,"dy":3923,"ettono":3924,"Ġpresti":3925,"Ġpaura":3926,"presa":3927,"Ġpotete":3928,"CO":3929,"Ġrosso":3930,"Ġmila":3931,"Ġrelativi":3932,"Ġfranc":3933,"Ġauton":3934,"Ġcari":3935,"riamo":3936,"Ġapparten":3937,"Ġcivile":3938,"Ġsoggiorno":3939,"ĠTro":3940,"Ġsoste":3941,"Ġscola":3942,"Ġarticoli":3943,"ĠAll":3944,"Ġsoldi":3945,"Ġdanni":3946,"Ġformato":3947,"Ġcontenuto":3948,"mmeno":3949,"Ġedu":3950,"Ġbellezza":3951,"Ġcul":3952,"Ġdiverso":3953,"Ġvino":3954,"Ġstare":3955,"Ġforn":3956,"Ġdomande":3957,"Ġutilizzato":3958,"zzati":3959,"Ġmemoria":3960,"Ġsuperficie":3961,"ĠBra":3962,"Ġserata":3963,"ingra":3964,"ĠProvin":3965,"Ġmobili":3966,"ĠveritÃł":3967,"obiettivo":3968,"Ġpersonaggi":3969,"Ġlavoratori":3970,"estro":3971,"Ġpreo":3972,"Ġabbi":3973,"Ġfesta":3974,"Ġbor":3975,"Ġprefer":3976,"verti":3977,"Ġclassifica":3978,"Ġadegua":3979,"Ġmigliorare":3980,"end":3981,"ĠRom":3982,"Ġpotrebbero":3983,"Ġassa":3984,"fil":3985,"Ġcolla":3986,"Ġdra":3987,"veri":3988,"Ġap":3989,"Ġvogli":3990,"UniversitÃł":3991,"mania":3992,"Ġverifica":3993,"Ġprestazioni":3994,"pore":3995,"Ġminimo":3996,"Ġazioni":3997,"ĠII":3998,"Ġrisulta":3999,"Ġdevo":4000,"ĠMol":4001,"ĠGro":4002,"ĠFed":4003,"boli":4004,"Ġtrasm":4005,"Ġipo":4006,"Ġlink":4007,"sazione":4008,"Ġpomeri":4009,"Ġtue":4010,"ĠLib":4011,"Ġrimane":4012,"lendi":4013,"anora":4014,"Ġfacilmente":4015,"Ġprivati":4016,"Ġrie":4017,"Ġcomunale":4018,"vie":4019,"fano":4020,"Ġindipen":4021,"ĠUniti":4022,"clu":4023,"Ġnar":4024,"Ġcinema":4025,"bbio":4026,"ĠVol":4027,"Ġdettagli":4028,"cento":4029,"Ġmoglie":4030,"Ġeste":4031,"vola":4032,"Ġtru":4033,"Ġmiliardi":4034,"cate":4035,"ssioni":4036,"Ġassolutamente":4037,"Ġarchite":4038,"Ġtemperatura":4039,"Ġnecessaria":4040,"Ġecce":4041,"Ġmedico":4042,"Ġpolitico":4043,"Ġcristi":4044,"Ġadatta":4045,"}.":4046,"Ġevento":4047,"Ġpad":4048,"ĠFin":4049,"Ġnasce":4050,"Ġnumeri":4051,"Ġmomenti":4052,"AM":4053,"ĠImp":4054,"ĠDal":4055,"come":4056,"usione":4057,"Ġcook":4058,"Ġtenere":4059,"Â»,":4060,"fare":4061,"Com":4062,"ĠNew":4063,"Ġspettacolo":4064,"Ġpresentato":4065,"resso":4066,"dotta":4067,"Ġresponsabile":4068,"onica":4069,"Ġmiglior":4070,"ĠEmi":4071,"Ġmezzi":4072,"ĠDonne":4073,"phone":4074,"ĠWeb":4075,"enzia":4076,"Ġcostru":4077,"Ġregistrazione":4078,"rittura":4079,"Ġgre":4080,"stono":4081,"Ġdesider":4082,"Ġgiardino":4083,"ction":4084,"Ġfol":4085,"Ġdiretto":4086,"genzia":4087,"Ġcompleto":4088,"Ġdolce":4089,"Ġargom":4090,"posizione":4091,"Ġeconomica":4092,"Ġrapporti":4093,"Ġnomina":4094,"ĠSpe":4095,"Ġbol":4096,"Ġinti":4097,"ganizzazione":4098,"ĠAndrea":4099,"tuzione":4100,"ĠAt":4101,"Ġabband":4102,"Ġdieci":4103,"ĠPrima":4104,"ĠavrÃł":4105,"Ġleader":4106,"Ġdirettore":4107,"stituto":4108,"Ġnegozio":4109,"oro":4110,"Ġmedio":4111,"Europa":4112,"Ġeffetto":4113,"ssia":4114,"cani":4115,"Ġessi":4116,"Ġcompleta":4117,"inta":4118,"ziale":4119,"dibile":4120,"damente":4121,"mitÃł":4122,"Ġnemmeno":4123,"ms":4124,"Ġriesce":4125,"fort":4126,"occasione":4127,"Ġcambiare":4128,"Ġvuoi":4129,"Ġcoordina":4130,"Ġocc":4131,"Ġnessun":4132,"Ġcento":4133,"ĠOra":4134,"tine":4135,"Ġvesti":4136,"Ġintervento":4137,"Questa":4138,"Ġpensiero":4139,"tivitÃł":4140,"anima":4141,"Ġgratuito":4142,"ĠSci":4143,"Ġefficace":4144,"Ġtrovano":4145,"sistente":4146,"Ġpasse":4147,"Ġinteressante":4148,"logico":4149,"Ġfunzioni":4150,"Ġavevo":4151,"Ġtest":4152,"Ġcompeti":4153,"ðŁ":4154,"guardo":4155,"Ġcamere":4156,"Ġattre":4157,"cone":4158,"Ġmediante":4159,"aper":4160,"dazione":4161,"Ġvei":4162,"lizzata":4163,"iness":4164,"Ġsmart":4165,"verna":4166,"Ġscelto":4167,"vali":4168,"Ġcibo":4169,"Ġlista":4170,"Ġacquisi":4171,"Ġguada":4172,"biettivi":4173,"Ġmalattia":4174,"Ġsostegno":4175,"soli":4176,"Ġoro":4177,"guard":4178,"Ġfrancese":4179,"Ġconqu":4180,"chiamo":4181,"CH":4182,"Ġcontributo":4183,"Ġpio":4184,"Ġventi":4185,"dali":4186,"Ġzone":4187,"Ġfiori":4188,"Ġpartenza":4189,"Ġart":4190,"rl":4191,"Ġserve":4192,"xy":4193,"Ġvale":4194,"ung":4195,"tus":4196,"erale":4197,"Ġcapitale":4198,"Ġpromuo":4199,"inare":4200,"ĠIncontri":4201,"Ġtuttavia":4202,"Ġsplendi":4203,"Ġaffrontare":4204,"IL":4205,"Ġcontesto":4206,"Ġformu":4207,"Ġ196":4208,"Ġappassi":4209,"Ġfeste":4210,"Ġtrasporto":4211,"Ġ2009":4212,"ĠDonna":4213,"Ġquota":4214,"Ġmiglia":4215,"Ġdiverti":4216,"DA":4217,"Ġcarattere":4218,"Ġ197":4219,"ĠFer":4220,"Ġpace":4221,"Ġvie":4222,"Ġcur":4223,"Ġospiti":4224,"Ġumani":4225,"Ġsvilupp":4226,"Ġinn":4227,"Or":4228,"Ġpoche":4229,"ĠMich":4230,"Ġmessaggio":4231,"ko":4232,"immagine":4233,"Ġaddirittura":4234,"utente":4235,"stere":4236,"ĠJu":4237,"Ġscrivere":4238,"Ġgratuiti":4239,"Ġsangue":4240,"Ġson":4241,"Ġanalisi":4242,"lievo":4243,"enn":4244,"Ġconfi":4245,"ĠAv":4246,"Ġyo":4247,"ĠCON":4248,"matico":4249,"Ġucci":4250,"Ġ2008":4251,"Ġidea":4252,"Ġassicura":4253,"Ġesso":4254,"tudine":4255,"Ġteo":4256,"ĠVenezia":4257,"Ġfuoco":4258,"rti":4259,"Ġessa":4260,"ppio":4261,"Ġlabora":4262,"Ġrecen":4263,"Ġregole":4264,"incontro":4265,"Ġinsegn":4266,"Ġpale":4267,"ĠWin":4268,"Ġrichieste":4269,"Ġvet":4270,"Ġtelefono":4271,"Ġiso":4272,"Ġliqui":4273,"ĠScarpe":4274,"Ġvive":4275,"Ġinfine":4276,"Ġposta":4277,"wa":4278,"Quando":4279,"useppe":4280,"Ġsfor":4281,"cuzione":4282,"Ġnoto":4283,"arda":4284,"Ġripa":4285,"Ġinizio":4286,"Ġcapito":4287,"Ġfornire":4288,"Ġsemplici":4289,"Anche":4290,"sero":4291,"Ġrico":4292,"Ġmarito":4293,"gate":4294,"Ġchiede":4295,"Ġinflu":4296,"Ġtrans":4297,"Pa":4298,"Ġpanora":4299,"ĠFrancia":4300,"NO":4301,"asp":4302,"rÃ²":4303,"ue":4304,"Ġsoff":4305,"Ġpartecipare":4306,"get":4307,"ruppo":4308,"Ġchiave":4309,"ĠQui":4310,"ĠVilla":4311,"Ġentrare":4312,"uali":4313,"Ġgiocare":4314,"liari":4315,"llazione":4316,"Ġbro":4317,"Ġmotivi":4318,"Ġpopolazione":4319,"Ġprofessionisti":4320,"Ġferro":4321,"isa":4322,"Ġavanza":4323,"Ġstorie":4324,"ras":4325,"Ġsovra":4326,"Ġvoluto":4327,"ĠCarlo":4328,"rore":4329,"sivo":4330,"ĠBor":4331,"Ġlasci":4332,"Ġapprezza":4333,"gnore":4334,"Ġinternazionali":4335,"Ġdina":4336,"riera":4337,"ĠPerchÃ©":4338,"Ġeletto":4339,"Ġdigitale":4340,"Ġ)":4341,"**":4342,"ĠGe":4343,"Ġmanifestazione":4344,"Ġprovare":4345,"Ġstesse":4346,"Ġeuropea":4347,"Ġesperienze":4348,"dro":4349,"sili":4350,"Ġmie":4351,"Ġdemocra":4352,"SO":4353,"mando":4354,"Ġ35":4355,"45":4356,"Ġstimo":4357,"Ġmono":4358,"39":4359,"mentato":4360,"ith":4361,"www":4362,"Ġmm":4363,"Ġcarica":4364,"Ġ2007":4365,"Ġracconta":4366,"Ġcommerciale":4367,"Ġfarmaci":4368,"unzione":4369,"ĠGui":4370,"Ġcomputer":4371,"App":4372,"Ġchilo":4373,"Ġprecedenti":4374,"Ġdieta":4375,"Ġmq":4376,"âĢĵ":4377,"Ġpeggio":4378,"Ġalti":4379,"Ġappunto":4380,"Ġ>":4381,"Ġfidu":4382,"Ġeffettuare":4383,"Ġportata":4384,"Ġoffrire":4385,"canze":4386,"Ġradio":4387,"Ġvacanza":4388,"qua":4389,"Ġhtt":4390,"ĠFonda":4391,"Ġmotore":4392,"Ġnotizie":4393,"Ġdesidera":4394,"Ġsve":4395,"allo":4396,"Ġquell":4397,"ĠNatale":4398,"Ġragazzo":4399,"ĠSoci":4400,"ĠColle":4401,"Ġstandard":4402,"ant":4403,"Ġquarti":4404,"ĠCit":4405,"Ġvisione":4406,"cciaio":4407,"Ġmantenere":4408,"Ġinferiore":4409,"dova":4410,"unedÃ¬":4411,"Ġacquisto":4412,"Ġfinalmente":4413,"ĠWi":4414,"Ġconferma":4415,"lice":4416,"toriali":4417,"Ġriguard":4418,"Ġpossibili":4419,"Ġcercando":4420,"Ġ70":4421,"ĠChat":4422,"sima":4423,"Ġvoglio":4424,"Ġperfetto":4425,"blio":4426,"ĠSca":4427,"Ġproposte":4428,"Ġchiedere":4429,"Ġfan":4430,"Ġmigliora":4431,"PP":4432,"ĠStra":4433,"Ġsemi":4434,"ppie":4435,"Ġvilla":4436,"ĠOggi":4437,"ĠunitÃł":4438,"ons":4439,"scio":4440,"Ġcarne":4441,"Ġgiusta":4442,"Ġsosteni":4443,"Ġdecreto":4444,"Ġteam":4445,"Ġforti":4446,"pposi":4447,"cchie":4448,"Ġzucch":4449,"Ġpomeriggio":4450,"ers":4451,"erato":4452,"ĠDom":4453,"Ġprende":4454,"dimenti":4455,"etwork":4456,"ĠSuper":4457,"Ġvisualizza":4458,"fferta":4459,"ĠAlessand":4460,"Ġconsapevole":4461,"enco":4462,"Ġpotuto":4463,"ĠAntonio":4464,"impre":4465,"Ġpsicolo":4466,"Ġleggi":4467,"iao":4468,"Ġricordo":4469,"Ġpremi":4470,"fie":4471,"Ġinteressi":4472,"Ġnumer":4473,"EG":4474,"by":4475,"ĠPor":4476,"Ġessendo":4477,"eremo":4478,"23":4479,"ĠÃ©":4480,"Ġpazienti":4481,"Ġmamma":4482,"Ġpie":4483,"ĠTutti":4484,"ĠAlla":4485,"Ġrelative":4486,"Ġaspetto":4487,"Ġottimo":4488,"rali":4489,"Ġcredito":4490,"dotti":4491,"ettendo":4492,"Ġapposi":4493,"Ġesperti":4494,"Ġaffa":4495,"Ġconsiglia":4496,"Ġentrambi":4497,"Ġinsegna":4498,"ĠVe":4499,"Ġultime":4500,"Ġtestimoni":4501,"ĠPiazza":4502,"Ġagi":4503,"fera":4504,"ico":4505,"Ġdef":4506,"Ġcondizione":4507,"Che":4508,"ĠLuca":4509,"ttavia":4510,"Ġlasciare":4511,"Ġutilizzo":4512,"Ġtornare":4513,"Ġpaesa":4514,"Ġtemi":4515,"Ġattesa":4516,"ciano":4517,"ĠGiuseppe":4518,"cni":4519,"enziali":4520,"entemente":4521,"ĠCommissione":4522,"Ġmoni":4523,"gnano":4524,"Ġiniziative":4525,"Ġsindaco":4526,"disp":4527,"stare":4528,"âĤ¬":4529,"Ġblu":4530,"Ġcaff":4531,"Ġutilizzati":4532,"ĠpoichÃ©":4533,"spe":4534,"Ġcentri":4535,"Ġpartito":4536,"Ġreg":4537,"Ġspesa":4538,"Ġinstalla":4539,"Ġres":4540,"Ġdisciplina":4541,"ĠCristo":4542,"ĠUomo":4543,"Ġutilizzando":4544,"Ġillustra":4545,"rmi":4546,"Ġconserva":4547,"Ġeccell":4548,"Ġriguardo":4549,"Ġcomponenti":4550,"Ġmatrimonio":4551,"Ġfisica":4552,"Ġcreato":4553,"Ġvogliono":4554,"Ġcomm":4555,"onico":4556,"Ġterreno":4557,".\"":4558,"die":4559,"Ġavvia":4560,"Ġrim":4561,"Ġrischi":4562,"Ġth":4563,"ĠVideo":4564,"ull":4565,"Ġconfronto":4566,"Ġvostri":4567,"omici":4568,"Ġbeni":4569,"Nella":4570,"datti":4571,"Ġumano":4572,"Ġchiesa":4573,"Ġmisure":4574,"forme":4575,"Ġobiettivi":4576,"ĠMetro":4577,"Ġsentire":4578,"Ġconsuma":4579,"Ġselezione":4580,"Ġtitoli":4581,"Ġglob":4582,"Ġprossimi":4583,"ĠComuni":4584,"Ġcolon":4585,"ĠSil":4586,"Ġtraccia":4587,"minato":4588,"Ġface":4589,"Ġvittoria":4590,"Ġpensato":4591,"Ġsostitui":4592,"arri":4593,"Ġdecora":4594,"Ġsoggetto":4595,"Ġusato":4596,"Ġdifesa":4597,"isola":4598,"Ġcanz":4599,"Ġcompagnia":4600,"cante":4601,"Ġperce":4602,"ciÃ²":4603,"Ġogn":4604,"ĠOgni":4605,"Ġnegozi":4606,"IO":4607,"Ġchiusura":4608,"Ad":4609,"ky":4610,"Ġsiete":4611,"Ġamico":4612,"Ġvas":4613,"torie":4614,"Ġambito":4615,"Io":4616,"ĠColo":4617,"ĠPalazzo":4618,"ĠdÃł":4619,"Ġpiatto":4620,"ĠEle":4621,"Ġunica":4622,"vile":4623,"anitÃł":4624,"state":4625,"voluzione":4626,"Ġesclusivamente":4627,"ĠInterna":4628,"Ġoperazioni":4629,"Ġcomplesso":4630,"ĠRaga":4631,"ĠvolontÃł":4632,"UN":4633,"ĠCapi":4634,"Ġcontemporanea":4635,"detti":4636,"rendo":4637,"Ġcircos":4638,"Ġriuni":4639,"Ġtecnici":4640,"Ġpoteva":4641,"Ġindirizzo":4642,"ĠAng":4643,"ĠProf":4644,"Ġbasa":4645,"Ġartisti":4646,"can":4647,"lab":4648,"Ġringra":4649,"Ġracconti":4650,"Chi":4651,"Ġconcorso":4652,"ĠCha":4653,"Ġpian":4654,"Ġcomprare":4655,"shi":4656,"terno":4657,"Ġvolume":4658,"99":4659,"lus":4660,"Ġcorsa":4661,"Ġconseguenza":4662,"rne":4663,"orme":4664,"sciu":4665,"Ġnascita":4666,"Ġcommerciali":4667,"Ġquadro":4668,"acquisto":4669,"accordo":4670,"hia":4671,"esca":4672,"Ġconser":4673,"Ġdevi":4674,"Ġlegis":4675,"Ġsegno":4676,"Ġnotizia":4677,"ĠCosÃ¬":4678,"Ġsimile":4679,"uli":4680,"gliare":4681,"ĠEd":4682,"unico":4683,"Ġprofilo":4684,"26":4685,"Associazione":4686,"Ġchiesto":4687,"Ġhotel":4688,"Ġdocumenti":4689,"Ġluci":4690,"ccup":4691,"visa":4692,"Ġpartecipanti":4693,"epoca":4694,"Ġottima":4695,"Ġorigine":4696,"Gi":4697,"Ġelabo":4698,"vimenti":4699,"Ġbigli":4700,"ĠvenerdÃ¬":4701,"Su":4702,"ĠAnd":4703,"Gra":4704,"vacy":4705,"Ġcambio":4706,"Ġnutri":4707,"28":4708,"Ġdecisione":4709,"Ġfede":4710,"autore":4711,"Ġenti":4712,"IM":4713,"teo":4714,"Ġlaure":4715,"Ġculturali":4716,"ĠTutto":4717,"ĠYo":4718,"ĠScuola":4719,"Ġlotta":4720,"zzur":4721,"Ġsituazioni":4722,"operazione":4723,"ĠBlu":4724,"cini":4725,"eff":4726,"ranzo":4727,"stato":4728,"Ġcaldo":4729,"Ġaperta":4730,"ĠPD":4731,"Ġimmagina":4732,"teca":4733,"ttamento":4734,"Ġnazionali":4735,"Ġdiversa":4736,"Ġolio":4737,"Ġgamma":4738,"ĠBene":4739,"Ġesti":4740,"Ġreso":4741,"inato":4742,"Ġlinee":4743,"Ġmaschi":4744,"Ġfiducia":4745,"Ġpaio":4746,"ĠPER":4747,"Ġdubbio":4748,"Ġdocumento":4749,"Ġpis":4750,"Ġciclo":4751,"Ġverranno":4752,"ĠSecondo":4753,"ĠGermania":4754,"Ġlie":4755,"scono":4756,"Ġnato":4757,"ĠÐ":4758,"tarie":4759,"mentale":4760,"Ġforze":4761,"attenzione":4762,"Ġdimensione":4763,"mella":4764,"Ġaltra":4765,"Ġcontrario":4766,"bur":4767,"Ġsolle":4768,"ĠLin":4769,"tile":4770,"Ġimb":4771,"âĢĻ,":4772,"Ġprogrammi":4773,"Ġappartamento":4774,"Ġobbliga":4775,"gici":4776,"Ġmarketing":4777,"Ġscelte":4778,"ĠFestival":4779,"Ġversa":4780,"Ġfiloso":4781,"rli":4782,"rur":4783,"Sa":4784,"zioso":4785,"renza":4786,"Ġscrive":4787,"fficienza":4788,"%.":4789,"Ġfia":4790,"Ġpremio":4791,"onalitÃł":4792,"estate":4793,"27":4794,"Ġaumento":4795,"Ġcielo":4796,"Ġmille":4797,"Ġrelazioni":4798,"rno":4799,"ĠEl":4800,"Ġviagra":4801,"Ġromanzo":4802,"diti":4803,"Ġiniziato":4804,"Ġlontano":4805,"rona":4806,"Ġscari":4807,"logica":4808,"ĠlÃł":4809,"Ġaccade":4810,"vando":4811,"Ġdimin":4812,"Ġprivato":4813,"licazione":4814,"Ġviss":4815,"ĠCorte":4816,"AT":4817,"Ġfemminile":4818,"ĠCe":4819,"tensione":4820,"Ġoperatori":4821,"Ġtecnologie":4822,"Ġspirito":4823,"Ġsimili":4824,"ĠopportunitÃł":4825,"gendo":4826,"roga":4827,"Ġdovranno":4828,"Ġaggiungere":4829,"Ġarea":4830,"Ġrisposte":4831,"Ġingresso":4832,"utato":4833,"Ġprocessi":4834,"Ġtratto":4835,"Ġ90":4836,"vedÃ¬":4837,"erare":4838,"Ġgol":4839,"Ġpresa":4840,"Ġdobbiamo":4841,"missioni":4842,"Ġsel":4843,"istico":4844,"ĠMer":4845,"Ġconcetto":4846,"vello":4847,"Ġpossano":4848,"lack":4849,"Ġflu":4850,"dienti":4851,"Ġsucce":4852,"Ġcombina":4853,"tani":4854,"Ġtrib":4855,"Ġricevere":4856,"Fi":4857,"ppone":4858,"Ġsottop":4859,"Ġridurre":4860,"ĠSar":4861,"gento":4862,"les":4863,"Ġautore":4864,"Ġpiatti":4865,"ĠPietro":4866,"Ġtutela":4867,"21":4868,"Ġsingolo":4869,"ĠSicilia":4870,"Ġaccogli":4871,"Ġaumentare":4872,"Ġevidente":4873,"Ġprossima":4874,"nitÃł":4875,"Ġfarsi":4876,"Ġristruttura":4877,"Ġricorda":4878,"Ġultimo":4879,"Ġcompetenze":4880,"zano":4881,"mpre":4882,"Ġana":4883,"ĠAL":4884,"Ġsosp":4885,"Ġfabb":4886,"ĠTh":4887,"ĠAi":4888,"Ġmetter":4889,"ĠNord":4890,"Ġgiuri":4891,"Ġspiaggia":4892,"gore":4893,"Ġnorme":4894,"Ġallena":4895,"siamo":4896,"Ġrichiede":4897,"tÃ²":4898,"Ġinser":4899,"ĠFe":4900,"Ġoli":4901,"ĠAcqu":4902,"Ġtradizionale":4903,"Ġpiattaforma":4904,"log":4905,"Ġ80":4906,"Ġorganizzato":4907,"Ġpopolo":4908,"CE":4909,"Ġmorbi":4910,"Ġfacili":4911,"Ġsmartphone":4912,"trai":4913,"Ġsposa":4914,"fre":4915,"Ġmede":4916,"ĠVin":4917,"Ġcontrolla":4918,"Ġcancella":4919,"Ġbenessere":4920,"Ġsuccessivo":4921,"Ġaccessori":4922,"stro":4923,"ĠAcc":4924,"Ġcampionato":4925,"ĠBri":4926,"Ġottimi":4927,"ood":4928,"Ġmigliaia":4929,"Ġnumerose":4930,"\":":4931,"ĠPos":4932,"ĠLega":4933,"Ġcaval":4934,"Ġfai":4935,"Ġpasta":4936,"Ġmone":4937,"Ġstrade":4938,"Ġappuntamento":4939,"ĠPalermo":4940,"Ġampio":4941,"arla":4942,"Ġnessuna":4943,"vante":4944,"Ġterza":4945,"dows":4946,"nata":4947,"Ġmobile":4948,"inge":4949,"bia":4950,"Ġesplo":4951,"liano":4952,"sio":4953,"Ġassistenza":4954,"Ġspecifica":4955,"Ġiniziare":4956,"ĠLA":4957,"Ġ..":4958,"Ġeuropeo":4959,"Ġprovenienti":4960,"29":4961,"Ġparco":4962,"Ġattrib":4963,"Ġdomani":4964,"cs":4965,"Ġpagare":4966,"erimento":4967,"viene":4968,"Ġreddi":4969,"raneo":4970,"Ġclassico":4971,"Ġtrasparen":4972,"Ġpromozione":4973,"ĠSvi":4974,"33":4975,"ĠâĢ¢":4976,"Ġcast":4977,"Ġprofonda":4978,"Ġimpegno":4979,"im":4980,"talmente":4981,"ĠMen":4982,"ttive":4983,"Ġcostre":4984,"verÃł":4985,"ffe":4986,"ĠCons":4987,"Ġrelativa":4988,"Ġbocca":4989,"Ġcookie":4990,"Ġpropon":4991,"ndo":4992,"organizzazione":4993,"arma":4994,"Ġracc":4995,"tron":4996,"Ġtenuto":4997,"Ġulteriori":4998,"US":4999,"tch":5000,"ĠMod":5001,"Ġspecifiche":5002,"Ġnormale":5003,"van":5004,"ĠQuindi":5005,"Ġdipendenti":5006,"Ġbilancio":5007,"ĠFerra":5008,"Ġprotagonisti":5009,"Ġprocedura":5010,"Ġbos":5011,"Ġpreventi":5012,"Ġseguente":5013,"Ġsogno":5014,"Ġmina":5015,"andi":5016,"Ġperso":5017,"ĠCA":5018,"ĠTos":5019,"inizia":5020,"Ġarchi":5021,"gnare":5022,"Ġvecchio":5023,"od":5024,"vel":5025,"Ġdan":5026,"Ġsoffer":5027,"ffico":5028,"Ġpatrimonio":5029,"Ġporte":5030,"Ġrispetti":5031,"Ġdena":5032,"Ġpreval":5033,"ĠPaesi":5034,"ĠRego":5035,"Ġpezzi":5036,"Ġspecifico":5037,"ĠStudi":5038,"ĠTeatro":5039,"vvi":5040,"Ġalcoli":5041,"Ġumana":5042,"Ġ45":5043,"Ġvoci":5044,"ĠInternet":5045,"lizzati":5046,"ggiato":5047,"Ġvantaggio":5048,"Ġpunta":5049,"Ġprincipi":5050,"Ġvinci":5051,"Ġsullo":5052,"pie":5053,"Ġpenso":5054,"Ġprescri":5055,"Ġcomunica":5056,"Ġza":5057,"Ġfunzionamento":5058,"ĠMinistero":5059,"grazione":5060,"Ġrinno":5061,"Ġcostruire":5062,"giche":5063,"Ġgestire":5064,"Ġimpianto":5065,"Ġteatro":5066,"form":5067,"Ġvoto":5068,"Ġsinto":5069,"ĠChia":5070,"Ġpurtroppo":5071,"gure":5072,"fine":5073,"Ġgener":5074,"Ġlimiti":5075,"Ġricevuto":5076,"egli":5077,"Ġnucle":5078,"mine":5079,"ombar":5080,"Ġpens":5081,"dustria":5082,"ergia":5083,"Ġnord":5084,"Ġcontribu":5085,"duti":5086,"denze":5087,"ot":5088,"rietÃł":5089,"ĠTerra":5090,"Ġprofon":5091,"Ġpresentare":5092,"Ġdar":5093,"Ġgaranzia":5094,"stitui":5095,"Ġedifici":5096,"Ġfissa":5097,"Ġpronto":5098,"Ġmembri":5099,"Ġrespi":5100,"nali":5101,"...]":5102,"tola":5103,"Ġimprendi":5104,"merica":5105,"Ġmangiare":5106,"dor":5107,"Ġdura":5108,"Ġscoperta":5109,"Ġnomi":5110,"Ġtv":5111,"Ġprogettazione":5112,"mori":5113,"Ġparche":5114,"Ġarte":5115,"Ġmedicina":5116,"tena":5117,"grafica":5118,"Ġalcuna":5119,"Ġvene":5120,"Ġritor":5121,".[":5122,"intera":5123,"osizione":5124,"ĠSud":5125,"Ġartigi":5126,"economia":5127,"Ġfaccio":5128,"offerta":5129,"lesc":5130,"ciata":5131,"Ġmancanza":5132,"Ġchiamato":5133,"Ġprincipio":5134,"imento":5135,"Ġdispositivo":5136,"nia":5137,"ĠDani":5138,"Ġmanutenzione":5139,"MI":5140,"ĠPorno":5141,"Ġtratti":5142,"Ġbatta":5143,"EC":5144,"viamo":5145,"Ġdover":5146,"lanti":5147,"osci":5148,"Ġattorno":5149,"Ġsfida":5150,"Ġcontiene":5151,"Ġindiri":5152,"75":5153,"rvi":5154,"Ġvivo":5155,"35":5156,"Ġaiutare":5157,"Ġdistru":5158,"ggiata":5159,"Ġgiocatori":5160,"Ġrisa":5161,"Ġpolizia":5162,"Ġfenomeno":5163,"Ġrimb":5164,"Ġincontrare":5165,"Ġpersonaggio":5166,"Ġmarchio":5167,"Ġclima":5168,"itato":5169,"Ġpul":5170,"Ġguard":5171,"Ã¡":5172,"Ġcorte":5173,"Ġinserire":5174,"gene":5175,"Ġimpedi":5176,"Ġwith":5177,"Ġconi":5178,"unt":5179,"Ġfotografia":5180,"Ġspiri":5181,"associazione":5182,"ormi":5183,"Ġtaglia":5184,"Ġacquista":5185,"Ġconsiderazione":5186,"stre":5187,"entali":5188,"sistenti":5189,"Ġqualunque":5190,"Ġsentenza":5191,"Ġpertanto":5192,"Ġpermesso":5193,"Ġrispondere":5194,"Ġfle":5195,"ĠGeno":5196,"ĠCamp":5197,"Ġ500":5198,"Ġviolenza":5199,"Ġpena":5200,"int":5201,"Ġobiettivo":5202,"Ġsuppor":5203,"Ġcosta":5204,"roid":5205,"Ġampia":5206,"detta":5207,"Ġcosid":5208,"ĠCamera":5209,"Ġumi":5210,"Ġcanale":5211,"mpia":5212,"ĠMuseo":5213,"ĠFondazione":5214,"Ġvini":5215,"ĠBr":5216,"Ġrilascia":5217,"aff":5218,"fr":5219,"Ġsorta":5220,"informa":5221,"siva":5222,"ĠdisponibilitÃł":5223,"Ġcambiamento":5224,"Ġafferma":5225,"Ġaiuto":5226,"Ġcarriera":5227,"Ġazione":5228,"Ġpreparazione":5229,"Ġextra":5230,"PA":5231,"Ġmaggioranza":5232,"Ġdefinizione":5233,"Ġcontinuare":5234,"Ġindipendente":5235,"Fa":5236,"ong":5237,"ĠCina":5238,"Ġtavolo":5239,"ĠLeggi":5240,"Co":5241,"Ġsape":5242,"Ġvisitare":5243,".)":5244,"BI":5245,"Ġcorrente":5246,"Ġsorri":5247,".âĢĿ":5248,"Ġtour":5249,"Ġvenne":5250,"Ġrecupero":5251,"Ġtorn":5252,"Ġambientale":5253,"Ġdichiarato":5254,"Ti":5255,"ĠFu":5256,"ĠSport":5257,"Ġinteressanti":5258,"sile":5259,"ĠFoto":5260,"Ġcollezione":5261,"iniziativa":5262,"Ġdidatti":5263,"ĠProvincia":5264,"analisi":5265,"Ġlum":5266,"assa":5267,"ĠComp":5268,"Ġimmediatamente":5269,"Ġcena":5270,"Ġsufficiente":5271,"Ġsequ":5272,"Ġristorante":5273,"Ġaumen":5274,"tiamo":5275,"talitÃł":5276,"ĠKa":5277,"quisiti":5278,"Ġdet":5279,"ĠGri":5280,"Ġclini":5281,"coin":5282,"Ġricco":5283,"erata":5284,"erire":5285,"ill":5286,"ĠcaffÃ¨":5287,"Ġ*":5288,"ĠðŁ":5289,"Ġtraffico":5290,"ssero":5291,"Ġguardare":5292,"zzate":5293,"ĠTV":5294,"Ġconsumo":5295,"Ġcondanna":5296,"erop":5297,"Ġcircon":5298,"Ġcompagni":5299,"Ġguarda":5300,"ĠItaliana":5301,"Ġnetwork":5302,"Ġparlato":5303,"Ġgrave":5304,"guire":5305,"Ġ2006":5306,"Ġdesiderio":5307,"Ġlatte":5308,"Ġprospetti":5309,"onata":5310,"mbia":5311,"Ġesterno":5312,"ĠSpagna":5313,"Ġindos":5314,"Ġriserva":5315,"ossibile":5316,"ĠPie":5317,"Ġattuale":5318,"Ġattualmente":5319,"load":5320,"Ġbordo":5321,"ĠAuto":5322,"Ġbassa":5323,"umere":5324,"Ġconsider":5325,"Ġsino":5326,"Ġricord":5327,"Ġracconto":5328,"Ġconsiderato":5329,"Ġepiso":5330,"Ġemail":5331,"ĠSh":5332,"ĠBanca":5333,"asse":5334,"Ġassociazioni":5335,"Ġrientra":5336,"Ġstelle":5337,"edono":5338,"Ġcritica":5339,"Ġine":5340,"librio":5341,"Ġlava":5342,"Ġscala":5343,"Ġcapace":5344,"Ġcru":5345,"Ġperse":5346,"monte":5347,"Ġistituzioni":5348,"bella":5349,"Ġaccetta":5350,"Ġfurono":5351,"Ġaccedere":5352,"Ġdenaro":5353,"ED":5354,"Ġdettaglio":5355,"ttivitÃł":5356,"Ġstar":5357,"ĠOltre":5358,"Ġdistur":5359,"Ġfondi":5360,"Ġlimite":5361,"Ġschia":5362,"Ġsfo":5363,"Ġocca":5364,"Ġcosci":5365,"parti":5366,"eek":5367,"Ġperman":5368,"ĠGian":5369,"accesso":5370,"eserci":5371,"Ġriduzione":5372,"Ġpubblicazione":5373,"Ġintende":5374,"Ġfrutto":5375,"Ġpreoccupa":5376,"Ġottenuto":5377,"rom":5378,"Ġcalo":5379,"Ġmotiva":5380,"Ġmail":5381,"Ġcamp":5382,"Ġcalda":5383,"Ġricordare":5384,"Ġperfettamente":5385,"pito":5386,"Ġvacanze":5387,"apos":5388,"gliamento":5389,"Ġscarpe":5390,"Ġirri":5391,"ezione":5392,"ĠÃ":5393,"Ġfonte":5394,"Ġaggiunge":5395,"Ġchilometri":5396,"bin":5397,"ud":5398,"Ġcomun":5399,"Ġgenerazione":5400,"Ġpolitici":5401,"ĠCliente":5402,"bus":5403,"ĠMA":5404,"Ġripren":5405,"ZA":5406,"ĠCultura":5407,"Ġriscal":5408,"umu":5409,"Ġaffida":5410,"Ġelemento":5411,"king":5412,"ĠMusi":5413,"forman":5414,"Ġvento":5415,"ĠContinua":5416,"inisce":5417,"crizione":5418,"Ġlasciato":5419,"Ġdele":5420,"ĠlunedÃ¬":5421,"Ġtranquil":5422,"wer":5423,"tamenti":5424,"alti":5425,"ficata":5426,"Ġmonito":5427,"Ġspos":5428,"Ġuscita":5429,"ĠPari":5430,"Ġopini":5431,"Ġcollabora":5432,"Ġmusicale":5433,"Ġmalattie":5434,"Ġgiustizia":5435,"sign":5436,"Ġrit":5437,"Ġprevisti":5438,"isci":5439,"ĠGruppo":5440,"contra":5441,"bini":5442,"ĠBen":5443,"ĠEr":5444,"Ġforno":5445,"Ġbuono":5446,"Ġopzioni":5447,"ĠCampi":5448,"dal":5449,"ĠAbbiamo":5450,"intervento":5451,"Ġspagno":5452,"Ġsarebbero":5453,"MO":5454,"ĠâĢĻ":5455,"Ġdoppio":5456,"Ġbusiness":5457,"Ġcerta":5458,"Ġarrivato":5459,"Ġstiamo":5460,"Ġvogliamo":5461,"inti":5462,"ĠSpi":5463,"Ġprese":5464,"derlo":5465,"Ġimmagine":5466,"prio":5467,"Ġpercen":5468,"Ġdecen":5469,"sÃ¬":5470,"Ġpranzo":5471,"ĠAma":5472,"Ġofferta":5473,"cli":5474,"Ġrelativo":5475,"Ġapplicazione":5476,"appro":5477,"Ġcondividere":5478,"TU":5479,"Ġimposta":5480,"gando":5481,"estero":5482,"Ġrea":5483,"ologia":5484,"tional":5485,"TER":5486,"ĠSolo":5487,"LO":5488,"ĠServizio":5489,"--------":5490,"Ġsignificato":5491,"Ġdiscussione":5492,"eme":5493,"Ġdiba":5494,"Ġbrand":5495,"Ġindicato":5496,"ĠQuesti":5497,"Ġsolida":5498,"Ġprofessionali":5499,"Ġtessuto":5500,"arli":5501,"bbene":5502,"Ġfondamentali":5503,"Ġognuno":5504,"ĠOri":5505,"Ġbanche":5506,"ces":5507,"Ġage":5508,"gionale":5509,"Ġindu":5510,"ĠSul":5511,"ficati":5512,"Ġcrema":5513,"Ġlegale":5514,"dra":5515,"fri":5516,"rini":5517,"Ġministro":5518,"Ġconosce":5519,"ÂŃ":5520,"rima":5521,"Ġ2000":5522,"2018":5523,"Ġvicenda":5524,"Ġdico":5525,"Ġavviene":5526,"Ġrifiuti":5527,"Ġmura":5528,"48":5529,"ore":5530,"Ġgenti":5531,"ĠGrande":5532,"Oggi":5533,"Ġplu":5534,"Ġproposito":5535,"ttime":5536,"Ġfiglia":5537,"Ġrosa":5538,"ĠfarÃł":5539,"Ġmedie":5540,"Ġdistribuzione":5541,"Ġintelli":5542,"Ġconfli":5543,"Unione":5544,"Ġgiudizio":5545,"ggiamento":5546,"Ġagri":5547,"tÃ¹":5548,"we":5549,"Ġvorrei":5550,"Ġanticipa":5551,"ĠMario":5552,"Ġcopertura":5553,"En":5554,"Ġvetro":5555,"ĠZa":5556,"onti":5557,"Ġegli":5558,"arono":5559,"Ġfonti":5560,"Ġlunghezza":5561,"Ġmeravigli":5562,"ves":5563,"ller":5564,"ĠSocietÃł":5565,"bor":5566,"bano":5567,"ja":5568,"tevi":5569,"ĠTren":5570,"ĠStefano":5571,"Dal":5572,"ĠSiamo":5573,"ppon":5574,"ANO":5575,"rem":5576,"Ġpromos":5577,"Ġspalle":5578,"Ġneanche":5579,"hn":5580,"zzera":5581,"intero":5582,"ĠTuttavia":5583,"Ġapplicazioni":5584,"Ġlinguaggio":5585,"Ġrisolvere":5586,"dico":5587,"Ġinterni":5588,"ĠCir":5589,"Ġscia":5590,"Ġcommento":5591,"Ġcoltiva":5592,"Ġprogressi":5593,"Ġpopolare":5594,"Ġsperanza":5595,"Ġaria":5596,"Ġmira":5597,"Ġtrovi":5598,"Ġconfermare":5599,"Ġaggi":5600,"Ġcirco":5601,"Ġuscire":5602,"otti":5603,"top":5604,"mosfera":5605,"Ġpotrai":5606,"cord":5607,"Ġdollari":5608,"Ġemozioni":5609,"Ġfelice":5610,"ĠValle":5611,"Ġcosi":5612,"Ġaprire":5613,"ctor":5614,"Ġmetro":5615,"Ġradica":5616,"Ġraggiunto":5617,"Ġdovrebbero":5618,"formance":5619,"Ġnecessari":5620,"ttu":5621,"Ġcoppie":5622,"Ġcollega":5623,"vocato":5624,"erali":5625,"Ġlegger":5626,"Ġsottoscri":5627,"Ġdispositivi":5628,"lico":5629,"voca":5630,"Ġpiante":5631,"Ġestremamente":5632,"ĠlocalitÃł":5633,"Ġposiziona":5634,"Ġinvestimenti":5635,"Ġsguardo":5636,"ence":5637,"Ġprove":5638,"ĠNove":5639,"Ġ36":5640,"Ġporto":5641,"ĠFili":5642,"gos":5643,"Ġirre":5644,"ĠUniversitÃł":5645,"mes":5646,"Ġistru":5647,"Ġfisico":5648,"ĠYork":5649,"lizia":5650,"ĠLavoro":5651,"ĠRoberto":5652,"Ġgiun":5653,"MEN":5654,"ĠMatte":5655,"Ġcomprendere":5656,"done":5657,"ĠAssi":5658,"dute":5659,"Ġtop":5660,"Ġavendo":5661,"Ġ300":5662,"Ġcarte":5663,"De":5664,"cona":5665,"vatore":5666,"chezza":5667,"ĠMis":5668,"Ġugu":5669,"Ġbici":5670,"Ġnormativa":5671,"Ġceleb":5672,"Ġapre":5673,"arco":5674,"uol":5675,"Ġmanca":5676,"enico":5677,"Ġripet":5678,"Istituto":5679,"xi":5680,"Ġcaccia":5681,"mbolo":5682,"mag":5683,"ĠPers":5684,"Ġschermo":5685,"ast":5686,"Ġcompli":5687,"Ġchiuso":5688,"ĠQual":5689,"Ġstorica":5690,"Ġlegisla":5691,"Ġcusto":5692,"Ġrichie":5693,"Ġsvolta":5694,"Ġcompito":5695,"onamento":5696,"Ġpropor":5697,"Ġvege":5698,"Ġ195":5699,"Ġcentina":5700,"Ġcambi":5701,"Ġcondiziona":5702,"Ġprevista":5703,"Grazie":5704,"Ġabitanti":5705,"Ġscio":5706,"ustria":5707,"Ġriporta":5708,"ĠWindows":5709,"Ġere":5710,"Ġriba":5711,"gnora":5712,"Ġretro":5713,"Ġ[...]":5714,"ade":5715,"Ġ;":5716,"Ġsposta":5717,"Ġaccer":5718,"ppiamo":5719,"ĠfunzionalitÃł":5720,"onia":5721,"Ġproto":5722,"tenze":5723,"Ġindicazioni":5724,"Ġpercorsi":5725,"DO":5726,"Ġriforma":5727,"Ġcommenti":5728,"applicazione":5729,"Ġcommercio":5730,"Ġdiscorso":5731,"SS":5732,"Ġrifer":5733,"Ġprovato":5734,"Ġtaglio":5735,"Ġtelevisi":5736,"Ġabbiano":5737,"ssegna":5738,"mate":5739,"Ġnata":5740,"ĠMor":5741,"Ġdramma":5742,"wit":5743,"enato":5744,"Ġcertamente":5745,"Ġpossesso":5746,"Ġmercati":5747,"Ġquarto":5748,"Ġrealizzata":5749,"Ġraccom":5750,"Ġcopia":5751,"Ġindietro":5752,"Ġdomin":5753,"Ġingredienti":5754,"Ġasciu":5755,"tia":5756,"Ġanalizza":5757,"gori":5758,"ingresso":5759,"Ġricer":5760,"Ġrecupera":5761,"coledÃ¬":5762,"Li":5763,"Ġsemb":5764,"Ġstazione":5765,"Ġidro":5766,"Ġcanti":5767,"indirizzo":5768,"ĠGoverno":5769,"%,":5770,"Ġmatura":5771,"Ġpubbliche":5772,"Ġscambio":5773,"Ġragioni":5774,"Ġsuperiori":5775,"ĠPadova":5776,"Ġgratuita":5777,"Ġdifferenti":5778,"mblea":5779,"ĠNero":5780,"deva":5781,"ĠBol":5782,"stina":5783,"Ġpezzo":5784,"Ġesistono":5785,"Ġsettori":5786,"Ġem":5787,"unno":5788,"Ġsimpa":5789,"Ġsotti":5790,"Ġcerco":5791,"Ġaggiunto":5792,"Ġoccorre":5793,"nella":5794,"Ġgradu":5795,"rescia":5796,"ĠCodice":5797,"Ġcategorie":5798,"Ġcrescere":5799,"Ġmana":5800,"Ġoper":5801,"ismi":5802,"orld":5803,"uova":5804,"Ġgiallo":5805,"Ġpane":5806,"impresa":5807,"ttivi":5808,"ĠEmilia":5809,"Ġritar":5810,"Ġmetodi":5811,"Ġquotidiana":5812,"cenze":5813,"Ġbon":5814,"hop":5815,"ĠMedia":5816,"Ġreligi":5817,"Ġpaga":5818,"Ġcottura":5819,"Ġpositivo":5820,"Ġpartecipato":5821,"Ġaere":5822,"Ġsegue":5823,"Ġdisegno":5824,"Ġalcolismo":5825,"ĠGenova":5826,"Ġcapp":5827,"ziosi":5828,"ĠpubblicitÃł":5829,"Ġsconfi":5830,"ĠFil":5831,"tedÃ¬":5832,"Ġviva":5833,"ĠInfatti":5834,"hone":5835,"Ġvigi":5836,"pressione":5837,"atte":5838,"del":5839,"Ġesser":5840,"Ġattivo":5841,"Ġslo":5842,"Ġresi":5843,"Ġriconoscimento":5844,"Ġscheda":5845,"ys":5846,"Ġallu":5847,"Ġmoderna":5848,"Ġaltezza":5849,"Ġviaggi":5850,"endario":5851,"Ġzero":5852,"Ġmeccan":5853,"Ġregista":5854,"cel":5855,"olio":5856,"ugia":5857,"nato":5858,"bba":5859,"ĠVI":5860,"Ġaltrimenti":5861,"Inter":5862,"Ġnaturalmente":5863,"Ġsquadre":5864,"Ġacque":5865,"ĠLuigi":5866,"So":5867,"mozione":5868,"Ġanch":5869,"terie":5870,"Ġpiane":5871,"ĠMu":5872,"ĠInforma":5873,"Ġnascon":5874,"wnload":5875,"ÌĢ":5876,"tabile":5877,"zialmente":5878,"Ġsilen":5879,"pole":5880,"ĠCap":5881,"Ġdolci":5882,"artamento":5883,"ellino":5884,"NI":5885,"ĠMaggio":5886,"Ġambienti":5887,"Ġmessaggi":5888,"Ġmeccani":5889,"Ð¾":5890,"ĠNoi":5891,"Ġminima":5892,"Ġindustriale":5893,"Ġinqu":5894,"ĠIL":5895,"ĠRai":5896,"Ġvostre":5897,"leggio":5898,"Ġlegi":5899,"Ġaudio":5900,"Ġelettronica":5901,"ĠEsp":5902,"insta":5903,"ĠSch":5904,"Ġby":5905,"Ġpilo":5906,"Ġpianta":5907,"Ġ2005":5908,"Ġcialis":5909,"Ġassieme":5910,"Ġhttp":5911,"ĠToscana":5912,"tania":5913,"Ġcomposta":5914,"Ġdecisamente":5915,"Ġstanza":5916,"Ġconosciuto":5917,"erebbe":5918,"Ġneo":5919,"ĠParco":5920,"Ġapertura":5921,"entro":5922,"ttito":5923,"Ġfascia":5924,"ĠConf":5925,"Ġzucchero":5926,"Ġinva":5927,"teranno":5928,"ĠBal":5929,"Ġimper":5930,"Ġadatto":5931,"Ġrimanere":5932,"100":5933,"ley":5934,"Ġconven":5935,"degna":5936,"Ġrisolu":5937,"Ġmacchine":5938,"Ġtroviamo":5939,"Ġrefer":5940,"Ġmotori":5941,"Ġcurio":5942,"Ġsostenere":5943,"Ġdelib":5944,"Ġintrodu":5945,"Ġcalore":5946,"ĠLond":5947,"ĠGol":5948,"Ġuffici":5949,"Ġaffas":5950,"Ġ150":5951,"inamento":5952,"ĠMari":5953,"Ġinformazione":5954,"Ġtradizionali":5955,"Ġvenire":5956,"blo":5957,"red":5958,"alta":5959,"Ġdep":5960,"Ġattiva":5961,"Ġfattori":5962,"Ġfrutta":5963,"Ġpaziente":5964,"38":5965,"Ġabili":5966,"Ġsocio":5967,"âĢ¦.":5968,"ach":5969,"Ġferi":5970,"Ġfossero":5971,"Ġaccordo":5972,"Ġtrasmissione":5973,"Ġbere":5974,"Ġelezioni":5975,"minio":5976,"ĠAli":5977,"Ġatle":5978,"prese":5979,"Ġfreddo":5980,"Ġregolamento":5981,"Ġimparare":5982,"vidanza":5983,"06":5984,"toni":5985,"orsi":5986,"ĠLazio":5987,"Ġchirur":5988,"Ġprofu":5989,"Ġ!":5990,"ĠPorto":5991,"Ġcontinuo":5992,"Ġcomportamento":5993,"ĠMos":5994,"PS":5995,"Ġstri":5996,"Ġpasti":5997,"Ġmoderno":5998,"Ġprevenzione":5999,"pedale":6000,"ĠSito":6001,"ĠSignore":6002,"cerca":6003,"sole":6004,"gegn":6005,"Ġsalva":6006,"ĠServizi":6007,"riere":6008,"ĠterrÃł":6009,"lizzare":6010,"Ġsecondi":6011,"Ġammi":6012,"Ġfalli":6013,"ĠLombar":6014,"Ġspre":6015,"ĠEra":6016,"Ġautomatica":6017,"Ġvuol":6018,"gurazione":6019,"Ġverificare":6020,".-":6021,"Ġrequisiti":6022,"Ġcomincia":6023,"sono":6024,"Ġvolto":6025,"Ġaccessi":6026,"Ġscritta":6027,"Ciao":6028,"Ġufficio":6029,"Ġrichia":6030,"Ġfatica":6031,"Ġregime":6032,"EI":6033,"Ġfamiliari":6034,"Ġsuccessivamente":6035,"Ġelettrica":6036,"Ġscaricare":6037,"Abbiamo":6038,"Ġdate":6039,"Ġricca":6040,"ĠLoren":6041,"Ecco":6042,"tono":6043,"back":6044,"Ġlegati":6045,"ĠfinalitÃł":6046,"ĠiP":6047,"Ġpesce":6048,"issima":6049,"Ġeuropei":6050,"ĠOli":6051,"remo":6052,"Ġstrategia":6053,"Ġalbum":6054,"Ġsedi":6055,"andosi":6056,"frica":6057,"ĠPRO":6058,"ziato":6059,"mpianto":6060,"Ġpreviste":6061,"Ġille":6062,"inata":6063,"Ġvecchia":6064,"Ġrichiesto":6065,"Ġcontinui":6066,"Ġfattura":6067,"Ġsuggesti":6068,"ans":6069,"Ġpremia":6070,"volmente":6071,"Ġvedo":6072,"Ġdenomina":6073,"Ġspon":6074,"Ġchiamata":6075,"coltura":6076,"ĠpotenzialitÃł":6077,"ĠBre":6078,"Ġallar":6079,"industria":6080,"Ġgare":6081,"chino":6082,"Ġpresi":6083,"Ġspedizione":6084,"Ġbuoni":6085,"DE":6086,"Ġresistenza":6087,"ĠPiÃ¹":6088,"Ġlaboratorio":6089,"sche":6090,"Ġber":6091,"ĠContro":6092,"Ġscoperto":6093,"Ġfamoso":6094,"nel":6095,"Ġalber":6096,"Ġrealizzati":6097,"Ġquotidiano":6098,"PiÃ¹":6099,"ĠCosa":6100,"ĠPol":6101,"Ġmovimenti":6102,"ĠPiano":6103,"Ġelegante":6104,"ĠRegolamento":6105,"ltÃł":6106,"Ġtasso":6107,"Ġmodifiche":6108,"Ġpromuovere":6109,"05":6110,"Ġocci":6111,"ĠSenza":6112,"Ġarmi":6113,"gramma":6114,"Ġpotrete":6115,"Ġcittadino":6116,"energia":6117,"terra":6118,"Ġvolo":6119,"Ġsvolto":6120,"Ġmodulo":6121,"Ġsintomi":6122,"Ġgall":6123,"arre":6124,"Ġsore":6125,"Ġviso":6126,"Ġ38":6127,"ĠvarietÃł":6128,"Ġcellulare":6129,"Ġpelli":6130,"ritÃł":6131,"ĠBro":6132,"Ġesattamente":6133,"Ġconnessione":6134,"Ra":6135,"Ġsimbolo":6136,"Ġfree":6137,"cchetto":6138,"ance":6139,"Ġstava":6140,"ĠTur":6141,"tatore":6142,"essioni":6143,"Ġgambe":6144,"Ġtedes":6145,"Ġfili":6146,"Ġsingoli":6147,"zare":6148,"Ġtagli":6149,"Ġcomprende":6150,"ceo":6151,"ĠTele":6152,"grafico":6153,"missa":6154,"labria":6155,"tes":6156,"Ġripe":6157,"ĠParti":6158,"Ġaccen":6159,"epi":6160,"rino":6161,"ĠCosti":6162,"Ġbasi":6163,"Ġricorso":6164,"Ġeconomici":6165,"tualitÃł":6166,"ĠAlessandro":6167,"Pu":6168,"gran":6169,"ĠEli":6170,"Ġtotalmente":6171,"Ġterzi":6172,"ĠAlle":6173,"Ġsostan":6174,"Ġcucine":6175,"Ġtransi":6176,"ĠPapa":6177,"ĠHotel":6178,"Ġgravi":6179,"Ġsaper":6180,"ĠHe":6181,"PI":6182,"viste":6183,"Ġono":6184,"Ġaccanto":6185,"Ġ2004":6186,"ĠCittÃł":6187,"Ġdivi":6188,"Ġvice":6189,"Ġcolazione":6190,"utazione":6191,"Ġitalia":6192,"ĠUno":6193,"Ġarrivo":6194,"dom":6195,"Ġkg":6196,"Ġcinese":6197,"Ġpraticamente":6198,"Ġiscritti":6199,"Ġimmer":6200,"Ġminori":6201,"Ġsilenzio":6202,"ĠClub":6203,"ĠSinda":6204,"ĠPd":6205,"Ġsembrano":6206,"Ġvantaggi":6207,"Ġcass":6208,"Ġstraordinaria":6209,"Ġconsoli":6210,"Ġdoppia":6211,"Ġtari":6212,"Ġosta":6213,"Ġnecessarie":6214,"UR":6215,"somma":6216,"Ġpann":6217,"ganismo":6218,"36":6219,"Ba":6220,"vers":6221,"ted":6222,"Ġperformance":6223,"ĠCin":6224,"ĠCia":6225,"Ġinfo":6226,"Ġoriginali":6227,"49":6228,"Ġscene":6229,"ĠautoritÃł":6230,"Ġreti":6231,"%)":6232,"Ġdiventato":6233,"Ġorienta":6234,"egno":6235,"Ðµ":6236,"Ġforum":6237,"Ġesterni":6238,"Ġinsegnanti":6239,"coni":6240,"Ġcorretto":6241,"Ġprocedure":6242,"dori":6243,"Ġband":6244,"Ġsvolge":6245,"rle":6246,"udo":6247,"Ġsinc":6248,"Ġfiscale":6249,"Ġdichiarazione":6250,"Ġgemella":6251,"Ġeduca":6252,"Siamo":6253,"Ġacciaio":6254,"inten":6255,"ĠCOM":6256,"Ġtela":6257,"Ġglobale":6258,"logici":6259,"Ġalimentare":6260,"apertura":6261,"Ġcolpo":6262,"ĠCapo":6263,"Ġgenerico":6264,"46":6265,"Ġinven":6266,"bita":6267,"PO":6268,"Ġsimbo":6269,"Ġgravidanza":6270,"Ġchiunque":6271,"Ġaffin":6272,"Ġerrori":6273,"Ġgoverna":6274,"ĠGratis":6275,"Ġdri":6276,"Ġdando":6277,"Ġmessi":6278,"Ġfungo":6279,"!!!!":6280,"ĠGiorgio":6281,"wi":6282,"Ġsomma":6283,"Ġangolo":6284,"Ġsostanza":6285,"Ġgiornate":6286,"versario":6287,"Ġmontagna":6288,"celli":6289,"Ġfid":6290,"Ġgrafica":6291,"novazione":6292,"canti":6293,"ĠCH":6294,"Ġcontrollare":6295,"Ġdigitali":6296,"Ġfiume":6297,"Ġrischia":6298,"Ġgeo":6299,"Ġinteressati":6300,"lui":6301,"omb":6302,"gamo":6303,"Ġsappiamo":6304,"ĠPubbli":6305,"binieri":6306,"Ġponte":6307,"Ġesten":6308,"Ġesercizio":6309,"Ġsviluppare":6310,"Ġconsapevolezza":6311,"abb":6312,"Ġpalla":6313,"rus":6314,"Ġattua":6315,"Ġcanali":6316,"Ġossia":6317,"ĠApple":6318,"sante":6319,"Ġclub":6320,"Ġrime":6321,"ĠgiovedÃ¬":6322,"Ġaziendale":6323,"Ġtavola":6324,"Ġindisp":6325,"Ġconsenso":6326,"Ġprodurre":6327,"Ġposizioni":6328,"Ġcatto":6329,"ĠAN":6330,"Ġ2003":6331,"Ġpermettono":6332,"Ġy":6333,"Ġout":6334,"Ġtermina":6335,"taly":6336,"ĠFra":6337,"Ġdotato":6338,"Ġcoraggio":6339,"sconi":6340,"Ġvenga":6341,"Ġinde":6342,"Ġcriteri":6343,"Ġvincere":6344,"Ġetc":6345,"ontana":6346,"Ġrivesti":6347,"ĠCes":6348,"ĠBel":6349,"Ġsostanze":6350,"Ġfamiliare":6351,"artista":6352,"Ġpratiche":6353,"Ġvisitatori":6354,"07":6355,"Ġrecenti":6356,"Ġelettro":6357,"Ġdec":6358,"ĠUS":6359,"Ġcane":6360,"ĠNatura":6361,"Ġdiffusione":6362,"Ġcompetenza":6363,"Ġinterro":6364,"Ġportale":6365,"Ora":6366,"Ġfianco":6367,"Ġgioia":6368,"Ġturismo":6369,"ĠPC":6370,"ĠDella":6371,"Ġdisse":6372,"cuni":6373,"Ġopp":6374,"Ġpietra":6375,"ĠDia":6376,"Ġmedici":6377,"Ġsoddisfare":6378,"Ġscrittura":6379,"Ġidone":6380,"Ġpulizia":6381,"Ġiper":6382,"Ġsuperare":6383,"ĠNess":6384,"Ġtenuta":6385,"Ġrapidamente":6386,"Ġbatteria":6387,"',":6388,"etterÃł":6389,"Ġdispone":6390,"Ġconclusione":6391,"ĠMin":6392,"Ġgioi":6393,"collo":6394,"Ġstili":6395,"Ġscompar":6396,"arrivo":6397,"effetto":6398,"Ġria":6399,"ĠScri":6400,"ĠBari":6401,"metro":6402,"Ġanda":6403,"Ġstorici":6404,"Ġcontatta":6405,"archi":6406,"onimo":6407,"ĠGar":6408,"Ġvinto":6409,"Ġbattaglia":6410,"Ġinau":6411,"mentali":6412,"Ġfasi":6413,"Ġfasci":6414,"ĠLegge":6415,"Ġannunciato":6416,"Ġsentito":6417,"Ġaccol":6418,"Ġesercizi":6419,"dinanza":6420,"ĠEuropea":6421,"Ġnarra":6422,"01":6423,"47":6424,"Ġinsi":6425,"gger":6426,"Ġsocc":6427,"ĠCiÃ²":6428,"Ġescort":6429,"ĠDue":6430,"Ġdicono":6431,"Ġimpossibile":6432,"Ġconcerto":6433,"Ġcompreso":6434,"cidi":6435,"ĠSanto":6436,"Ġpredisp":6437,"erati":6438,"cur":6439,"Ġappli":6440,"Ġfirma":6441,"Ġinfluenza":6442,"armi":6443,"Ġgradi":6444,"interesse":6445,"Ġraccontare":6446,"Ġavvicina":6447,"pt":6448,"Ġcani":6449,"ĠpersonalitÃł":6450,"Ġbuone":6451,"Ġeviden":6452,"Ġaffitto":6453,"Ġdialogo":6454,"cesi":6455,"Ġaltrettan":6456,"Ġregioni":6457,"Ġrappresentano":6458,"px":6459,"Ġ<":6460,"Ġimprov":6461,"Secondo":6462,"Ġalternativa":6463,"ttrice":6464,"erno":6465,"Ġvittime":6466,"Ġinterven":6467,"Ġsensazione":6468,"Ġdecidere":6469,"aspetto":6470,"Na":6471,"lismo":6472,"Ġparere":6473,"Ġclassica":6474,"Ġresponsabili":6475,"Ġbraccia":6476,"Ġriuscire":6477,"32":6478,"ling":6479,"Ġmagistra":6480,"Ġdeterminato":6481,"Ġdiam":6482,"Ġandato":6483,"Ġcontributi":6484,"Ġlaurea":6485,"sias":6486,"Ġweek":6487,"Ġvalutare":6488,"ĠTrib":6489,"dizioni":6490,"ĠNell":6491,"Ġcorretta":6492,"ĠClau":6493,"blioteca":6494,"Ġricerche":6495,"Ġevol":6496,"Ġnov":6497,"Ġtasto":6498,"Ġeccessi":6499,"OLO":6500,"Ġsanno":6501,"Ġandata":6502,"giu":6503,"Ġcolpa":6504,"Ġ32":6505,"Ġgiocatore":6506,"Ġconseguenze":6507,"ĠWil":6508,"Ġauten":6509,"Ġnuovamente":6510,"Ġcentinaia":6511,"Â´":6512,"ĠCerca":6513,"ioren":6514,"ziamo":6515,"Ġvecchi":6516,"Ġrinnova":6517,"Ġpronti":6518,"Ġeffettuato":6519,"Ġrisparmia":6520,"Ġcoscienza":6521,"Ġfatte":6522,"Ġesterna":6523,"Ġaugu":6524,"eroporto":6525,"insegna":6526,"vegno":6527,"cialmente":6528,"Ġdisposizioni":6529,"Ġoccup":6530,"biti":6531,"Ġbir":6532,"uscita":6533,"simi":6534,"Ġfla":6535,"ĠFla":6536,"Ġspiegato":6537,"importanza":6538,"Ġted":6539,"ĠES":6540,"trimoniale":6541,"ĠItaliano":6542,"Ġquartiere":6543,"ĠAndroid":6544,"amministrazione":6545,"je":6546,"ness":6547,"terali":6548,"Ġnews":6549,"Ġporti":6550,"Ġentu":6551,"Ġbianca":6552,"ĠRussia":6553,"ĠMatteo":6554,"ganti":6555,"Ġstai":6556,"Ġavver":6557,"Ġfigure":6558,"Ġpartite":6559,"Ġlegato":6560,"Ġriuscito":6561,"ttando":6562,"ĠSardegna":6563,"CC":6564,"tarsi":6565,"ĠSiste":6566,"nare":6567,"Ġprivacy":6568,"laritÃł":6569,"Ġinsomma":6570,"Ġappassionati":6571,"EM":6572,"Ġavrebbero":6573,"eziona":6574,"Â®":6575,"Ġtrattare":6576,"cciano":6577,"Ġvolete":6578,"Ġminore":6579,"Ġprivata":6580,"Ġdimostrato":6581,"Ġfacciamo":6582,"Ġshow":6583,"Ġcammino":6584,"ens":6585,"Ġricette":6586,"ĠCami":6587,"Ġrisponde":6588,"archite":6589,"cursi":6590,"Ġsacco":6591,"bole":6592,"logiche":6593,"Ġrendono":6594,"Ġgarantis":6595,"Ġtentativo":6596,"Ġrichiedere":6597,"Ġgene":6598,"Ġparlando":6599,"Ġappo":6600,"ĠParlamento":6601,"Ġdefinire":6602,"Ġprepara":6603,"08":6604,"ave":6605,"Ġverdu":6606,"Ġtedesco":6607,"vviamente":6608,"Ġpista":6609,"antica":6610,"Ġriflessione":6611,"Ġpoesia":6612,"pposizione":6613,"03":6614,"geno":6615,"Ġmole":6616,"Ġsacri":6617,"Ġamericano":6618,"Ġbur":6619,"Ġsecoli":6620,"Ġterapia":6621,"Ġles":6622,"ĠLei":6623,"Ġcucchia":6624,"Ġspecifici":6625,"Ġgratuitamente":6626,"Ġlago":6627,"tele":6628,"ĠBru":6629,"lusconi":6630,"ĠDiri":6631,"Ġnavigazione":6632,"Ġceri":6633,"mosi":6634,"Ġposteriore":6635,"Ġimportanza":6636,"resta":6637,"attuale":6638,"Ġuniversi":6639,"Ġultima":6640,"Ġtardi":6641,"Ġdanne":6642,"Ġsupp":6643,"ĠStre":6644,"ĠTru":6645,"ĠBon":6646,"ĠBos":6647,"urtroppo":6648,"ĠProg":6649,"ĠSole":6650,"Ġiniziale":6651,"Ġelettorale":6652,"cell":6653,"Ġmul":6654,"toritÃł":6655,"VO":6656,"ãģ":6657,"Ġaccon":6658,"Ġulteriore":6659,"Ġeliminare":6660,"cari":6661,"Ġ37":6662,"Ġgiudice":6663,"Ġvissuto":6664,"Ġfinestra":6665,"Ġorganizzata":6666,"Ġpiacevole":6667,"Ġalco":6668,"Ġcause":6669,"ĠNor":6670,"ĠSant":6671,"Ġgiornalista":6672,"Ġproposto":6673,"ĠMondo":6674,"2017":6675,"Ġamministrazione":6676,"Ġristoranti":6677,"Ġdin":6678,"arta":6679,"Ġpersino":6680,"ĠVir":6681,"Ġcapitolo":6682,"aming":6683,"Ġprocedere":6684,"Ġcompresa":6685,"EA":6686,"âĢĻ.":6687,"ĠCine":6688,"Ġgrasso":6689,"ĠMassimo":6690,"Ġtitolare":6691,"Ġinviare":6692,"esistenza":6693,"pori":6694,"Ġallesti":6695,"deranno":6696,"Ġdecide":6697,"Ġadolesc":6698,"ĠDurante":6699,"atta":6700,"ĠSol":6701,"ĠEs":6702,"ĠIndi":6703,"Ġciocco":6704,"IT":6705,"ĠPra":6706,"asto":6707,"Ġcollegamento":6708,"ĠLondra":6709,"Du":6710,"gerÃł":6711,"ire":6712,"trale":6713,"ĠTran":6714,"Ġtanta":6715,"Ġminuto":6716,"Ġoccasioni":6717,"Ġrivista":6718,"Ġoperativo":6719,"Ġstress":6720,"Ġplastica":6721,"Ġdipende":6722,"III":6723,"Ġindispensa":6724,"Ġappren":6725,"Ġsospen":6726,"Ġscrittore":6727,"tern":6728,"Ġpiede":6729,"Ġvigore":6730,"Ġdocenti":6731,"essero":6732,"ĠSala":6733,"Ġtipologia":6734,"Ġassoluto":6735,"500":6736,"Ġcassa":6737,"Ġavesse":6738,"ĠmartedÃ¬":6739,"Ġchiari":6740,"Ġinfini":6741,"Ġconver":6742,"Ġfate":6743,"Ġproduttori":6744,"impegno":6745,"Ġmorti":6746,"ĠFranco":6747,"Ġfornisce":6748,"ĠParigi":6749,"Ð°":6750,"Ġdesid":6751,"Ġved":6752,"ologico":6753,"Ġdoveva":6754,"Ġbenefici":6755,"Ġsegnali":6756,"Ġargomenti":6757,"geni":6758,"tili":6759,"Ġinna":6760,"ĠNu":6761,"Ġcoopera":6762,"Ġpsico":6763,"Ġsessuale":6764,"Roma":6765,"ecc":6766,"Ġcerte":6767,"ĠVerona":6768,"Ã³":6769,"estione":6770,"Ġfarina":6771,"Ġprecisa":6772,"ipo":6773,"Ġcaro":6774,"Ġprincipalmente":6775,"ĠCastel":6776,"lizzate":6777,"Ġbellissimo":6778,"ttuale":6779,"Ġprio":6780,"quali":6781,"ttino":6782,"ĠProte":6783,"Ġcompati":6784,"Ġregionali":6785,"Ġdestinazione":6786,"Ġinteramente":6787,"Ġpiscina":6788,"ĠSerie":6789,"Ġcambiamenti":6790,"Ġproi":6791,"Ġidra":6792,"Ġpreparare":6793,"ĠJohn":6794,"44":6795,"ĠSicu":6796,"Mo":6797,"Ġconferenza":6798,"vamento":6799,"Ġcontatti":6800,"Ġindivid":6801,"Ġveniva":6802,"Ġarricchi":6803,"Ġmorto":6804,"gersi":6805,"Ġtranquilla":6806,"Ġfratello":6807,"ĠLorenzo":6808,"asi":6809,"identi":6810,"ĠMil":6811,"Ġsensibili":6812,"ĠPres":6813,"Ġcercano":6814,"ĠMichele":6815,"Ġsente":6816,"Ġanali":6817,"Ġstaff":6818,"Ġutente":6819,"Ġbas":6820,"ttempo":6821,"ĠComitato":6822,"Ġdisabili":6823,"dotte":6824,"nice":6825,"Ġtradu":6826,"Ġtif":6827,"versale":6828,"Ġbellissima":6829,"Ġpercentuale":6830,"iego":6831,"ĠLombardia":6832,"88":6833,"GI":6834,"fu":6835,"pon":6836,"ufficio":6837,"ult":6838,"Ġamicizia":6839,"ICA":6840,"Ġconquis":6841,"cic":6842,"ticamente":6843,"Ġstudente":6844,"Ġbox":6845,"Ġnotare":6846,"ĠUSA":6847,"Ġaccumu":6848,"Ġguari":6849,"ĠDesign":6850,"Ġstranieri":6851,"Ġsorpren":6852,"Ġfinito":6853,"Ġletteratura":6854,"Ġstrategie":6855,"Ġritra":6856,"ercato":6857,"ONE":6858,"Ġraffor":6859,"blet":6860,"lievi":6861,"rui":6862,"Ġvacc":6863,"Ġfavori":6864,"Ġconiu":6865,"my":6866,"ĠMare":6867,"ĠLun":6868,"Ġpas":6869,"Ġsapore":6870,"Ġosserva":6871,"____":6872,"Ġscolastico":6873,"obbli":6874,"Ġancor":6875,"ĠRenzi":6876,"Ġbassi":6877,"Ġappari":6878,"gliata":6879,"Ġfrattempo":6880,"Ġiniziativa":6881,"Alla":6882,"Mol":6883,"Ġfum":6884,"ttor":6885,"Ġ33":6886,"Ġapproccio":6887,"Ġpareti":6888,"Ġdeten":6889,"Ġlati":6890,"Ġlezioni":6891,"ĠRosa":6892,"stazione":6893,"Ġlive":6894,"stino":6895,"gresso":6896,"2015":6897,"ĠXX":6898,"Ġflessi":6899,"cello":6900,"Ġton":6901,"Ġpato":6902,"ĠNicola":6903,"Ġturno":6904,"Ġpioggia":6905,"Ġpaesaggio":6906,".Â«":6907,"ds":6908,"ola":6909,"xx":6910,"alli":6911,"ĠBea":6912,"ĠNei":6913,"ĠYou":6914,"Ġgenerali":6915,"ĠSU":6916,"Ġmilitari":6917,"impianto":6918,"cili":6919,"utile":6920,"Ġrisoluzione":6921,"Nell":6922,"Ġpone":6923,"Ġacu":6924,"entato":6925,"Ġmuni":6926,"Ġmesco":6927,"dore":6928,"gliano":6929,"neo":6930,"Ġrinun":6931,"ĠEntra":6932,"messe":6933,"Ġvivono":6934,"diali":6935,"Ġpunte":6936,"Ġfarmacia":6937,"Ġsuggeri":6938,"ĠVeneto":6939,"Ġformula":6940,"venza":6941,"Ġclo":6942,"rena":6943,"Ġdisegna":6944,"male":6945,"Ġripresa":6946,"ĠSy":6947,"Ġcompra":6948,"Ġcarb":6949,"cchiere":6950,"untamento":6951,"Ġvelocemente":6952,"lun":6953,"pla":6954,"Ġigno":6955,"vedi":6956,"issimi":6957,"vini":6958,"ĠSP":6959,"ĠArt":6960,"Ġdefinito":6961,"Ġappuntamenti":6962,"Ne":6963,"ĠStoria":6964,"Ġserver":6965,"Ġenorme":6966,"Ġscopri":6967,"Ġcirc":6968,"Ġproduce":6969,"Ġtrasformazione":6970,"Ġnotevole":6971,"04":6972,"alb":6973,"Ġsuddi":6974,"ĠCara":6975,"Ġscarica":6976,"Ġeconomiche":6977,"The":6978,"dentale":6979,"ĠCalabria":6980,"prima":6981,"Ta":6982,"Ġchiaramente":6983,"Ġutilizzata":6984,"Ġsegnale":6985,"Ġriconoscere":6986,"Ġdibattito":6987,"Ġsegni":6988,"Ġperiodi":6989,"Ġmiglioramento":6990,"Ġfaceva":6991,"Ġdeposi":6992,"Ġprosta":6993,"ĠDA":6994,"Ġtrovere":6995,"rt":6996,"ula":6997,"Ġcomfort":6998,"vito":6999,"Ġesse":7000,"Ġviaggia":7001,"Ġsolamente":7002,"Ġrisparmio":7003,"ĠpÃ²":7004,"camera":7005,"Ġdoccia":7006,"Ġgrassi":7007,"Ġtende":7008,"Ġcontratti":7009,"guardia":7010,"Ġimpatto":7011,"Ġpianeta":7012,"Ġestate":7013,"ĠCO":7014,"Ġlettore":7015,"ĠAs":7016,"Ġseria":7017,"Ġaumenta":7018,"teriale":7019,"ux":7020,"ĠArti":7021,"Ġorganizzare":7022,"Ġfavorire":7023,"ny":7024,"ĠComunale":7025,"Ġpiaci":7026,"Ġcomunicare":7027,"Ġtreno":7028,"tologia":7029,"Ġteoria":7030,"ĠsolidarietÃł":7031,"abi":7032,"Ġgon":7033,"Ġmate":7034,"ĠForse":7035,"Ġtrovo":7036,"ĠcreativitÃł":7037,"Ġconsiderare":7038,"Ġregalo":7039,"ĠPorta":7040,"ĠDes":7041,"Ġdivertimento":7042,"pisce":7043,"Ġtiro":7044,"Ġcrede":7045,"ĠMilan":7046,"Ġtrattati":7047,"Ġlingue":7048,"Ġprovinciale":7049,"Ġassegna":7050,"Ġrigi":7051,"ĠPrin":7052,"ĠBit":7053,"giorno":7054,"Ġciascuno":7055,"cir":7056,"gazz":7057,"Ġtesi":7058,"Ġpuntata":7059,"Ġcalendario":7060,"Ġseguendo":7061,"Vo":7062,"ĠPA":7063,"Ġyou":7064,"ĠInternazionale":7065,"opport":7066,"tle":7067,"letto":7068,"Ġpotente":7069,"Ġdivertente":7070,"Ġorganizzazione":7071,"Prima":7072,"Ġsar":7073,"Ġazzur":7074,"Ġsogni":7075,"tanea":7076,"ruzione":7077,"ĠHi":7078,"Ġparcheggio":7079,"scino":7080,"Ġmissione":7081,"Ġsopravvi":7082,"Ġpensieri":7083,"Ġpanorama":7084,"ingere":7085,"Ġbev":7086,"Ġdiplo":7087,"Gio":7088,"Ġdona":7089,"Ġchied":7090,"Ġ400":7091,"ĠRegionale":7092,"Ġaggre":7093,"Ġfratelli":7094,"Ġraccomanda":7095,"Sal":7096,"bel":7097,"Ġconveni":7098,"Ġneve":7099,"Ġantichi":7100,"ennale":7101,"sori":7102,"uogo":7103,"Ġpalazzo":7104,"utore":7105,"ĠMicro":7106,"preso":7107,"Ġcapitali":7108,"Ġvisite":7109,"Ġoffrono":7110,"Ġleggermente":7111,"All":7112,"gar":7113,"Ġsemina":7114,"mea":7115,"Ġ2019":7116,"istici":7117,"Bu":7118,"uovo":7119,"Ġascoltare":7120,"ks":7121,"Ġara":7122,"Ġcresci":7123,"Ġpassati":7124,"Ġdocumentazione":7125,"estri":7126,"visioni":7127,"Ġsexy":7128,"Ġresa":7129,"gnosi":7130,"Ġmilitare":7131,"commer":7132,"Ġbotti":7133,"ĠTutte":7134,"Ġcanzone":7135,"31":7136,"37":7137,"Ġder":7138,"Ġner":7139,"Ġincu":7140,"Ġcredere":7141,"Ġconoscenze":7142,"Ġriempi":7143,"Ġlumin":7144,"Ġessenziale":7145,"ccata":7146,"ĠNuova":7147,"Ġgarantisce":7148,"Ġrassegna":7149,"Ġprofondo":7150,"ĠPremio":7151,"Ġcostruito":7152,"Ġattori":7153,"Ġdiciamo":7154,"Ġtiene":7155,"ĠÂ°":7156,"ĠMarche":7157,"2016":7158,"Ġparete":7159,"Ġcostituisce":7160,"Ġveicoli":7161,"'.":7162,"==":7163,"Ġsento":7164,"low":7165,"colari":7166,"ustra":7167,"ĠParma":7168,"Ġsuccessiva":7169,"Ġchiudere":7170,"df":7171,"Ġuova":7172,"Ġdenti":7173,"erano":7174,"ĠSho":7175,"ĠTorre":7176,"Ġprivile":7177,"ĠCompa":7178,"Ġinserito":7179,"Ġnera":7180,"Ġpartiti":7181,"ĠVita":7182,"hai":7183,"ĠCorso":7184,"Ġpermettere":7185,"Ġsfu":7186,"Ġindividuare":7187,"Ġrivela":7188,"glianza":7189,"Ġusu":7190,"ttente":7191,"Ġlasciando":7192,"partimento":7193,"UT":7194,"Ġmari":7195,"Ġvediamo":7196,"ĠAnna":7197,"Ġmanuale":7198,"Ġaspi":7199,"ĠmercoledÃ¬":7200,"ÃŃ":7201,"Ġlettori":7202,"ĠAir":7203,"Ġmonu":7204,"ĠLeon":7205,"Ġtensione":7206,"cus":7207,"Ġavranno":7208,"Ġfred":7209,"Ġentrambe":7210,"Ġraccolti":7211,"Ġsportivo":7212,"ronaca":7213,"34":7214,"Ġmettendo":7215,"cherÃł":7216,"ĠMana":7217,"Ġdocente":7218,"ttenzione":7219,"hat":7220,"core":7221,"Ġante":7222,"troduzione":7223,"Ġcampione":7224,"bro":7225,"ccando":7226,"Ġsconto":7227,"Ġdenuncia":7228,"ĠidentitÃł":7229,"Ġpassando":7230,"ĠMassa":7231,"09":7232,"Ġbenefi":7233,"por":7234,"ĠFre":7235,"Ġdott":7236,"hotel":7237,"Ġfortemente":7238,"OC":7239,"ĠUomini":7240,"innovazione":7241,"ĠAg":7242,"Ġdubbi":7243,"Ġbandi":7244,"terapia":7245,"ttra":7246,"ĠDante":7247,"Ġnot":7248,"Ġfece":7249,"Ġcostituito":7250,"Ġrecensioni":7251,"loni":7252,"Ġ2001":7253,"Ġcatalogo":7254,"vanza":7255,"Ġpuo":7256,"ansione":7257,"ĠMess":7258,"ttimo":7259,"ĠUmb":7260,"Ġterrori":7261,"ĠCatania":7262,"Ġabbra":7263,"Ġambientali":7264,"Ġproprietario":7265,"Ġtessuti":7266,"peri":7267,"ĠSI":7268,"Ġelen":7269,"Ġdedicati":7270,"Ġfrequenza":7271,"Ġagevo":7272,"Bo":7273,"Ġglu":7274,"cito":7275,"glione":7276,"Ġscorsa":7277,"Ġcontrolli":7278,"aiuto":7279,"Ġinvestimento":7280,"Ġconsulenza":7281,"imm":7282,"ĠperciÃ²":7283,"ost":7284,"Ġrecord":7285,"Ġtappa":7286,"Ġtappe":7287,"Ġcarcere":7288,"nu":7289,"wser":7290,"Ġcondotta":7291,"Ġvasta":7292,"Ġportati":7293,"Ġgeneri":7294,"Ġtendenza":7295,"Ġdichiara":7296,"Ġdiscre":7297,"Ġconsiste":7298,"Ġpala":7299,"trutture":7300,"Ġfinire":7301,"her":7302,"vest":7303,"Ġsai":7304,"Ġaccusa":7305,"edizione":7306,"ĠRadio":7307,"Ġmaggiormente":7308,"verai":7309,"equi":7310,"Ġalte":7311,"Ġriven":7312,"soft":7313,"pad":7314,"Ġvoler":7315,"Ġerrore":7316,"escovo":7317,"Ġfantasia":7318,"ĠaffinchÃ©":7319,"Inoltre":7320,"ning":7321,"Ġpasto":7322,"ĠCommer":7323,"Ġ48":7324,"faccia":7325,"Ġscientifica":7326,"orzio":7327,"ĠSette":7328,"Ġ39":7329,"gement":7330,"Ġprecisione":7331,"Ġfinanziaria":7332,"cosa":7333,"pria":7334,"Ġarrivata":7335,"Ġorari":7336,"Ġlegate":7337,"ĠprofessionalitÃł":7338,"eta":7339,"even":7340,"Ġsva":7341,"tempo":7342,"ros":7343,"ĠMal":7344,"Ġprimavera":7345,"Ġroma":7346,"pra":7347,"Ġadi":7348,"letta":7349,"Ġintelle":7350,"Ġarrivano":7351,"Ġcrimina":7352,"Ġrimasto":7353,"letti":7354,"Ġfestival":7355,"ĠIII":7356,"terior":7357,"Ġassor":7358,"Ġorganizzazioni":7359,"Ġsorpresa":7360,"ĠPuglia":7361,"Ġeseguire":7362,"Ġinfras":7363,"Tutti":7364,"Ġesprimere":7365,"Ġsplendida":7366,"ĠBlack":7367,"ĠFri":7368,"Ġbenissimo":7369,"Ġdiffuso":7370,"Ġinteressato":7371,"Ġaggiornamento":7372,"Ġsv":7373,"Ġdigni":7374,"Ġaccura":7375,"ĠcuriositÃł":7376,"ward":7377,"lette":7378,"ERA":7379,"Ġpesante":7380,"ĠTecni":7381,"gomento":7382,"dosso":7383,"Ġconsentire":7384,"Ġdimenticare":7385,"Ġaccettare":7386,"Ġacquisti":7387,"02":7388,"âĢ¢":7389,"zzante":7390,"ĠUl":7391,"Ġveloci":7392,"ĠBerlusconi":7393,"Ġenergetica":7394,"ĠMentre":7395,"66":7396,"Ġricordi":7397,"2013":7398,"ĠGenerale":7399,"como":7400,"ttata":7401,"ĠUr":7402,"Ġpensione":7403,"Ġregolare":7404,"Ġcinemato":7405,"arente":7406,"Durante":7407,"messa":7408,"elenco":7409,"tudini":7410,"Ġreca":7411,"ducazione":7412,"Ġges":7413,"ĠSha":7414,"Ġlettere":7415,"ĠAR":7416,"Ġfamosi":7417,"Ġlogica":7418,"esame":7419,"Ġcomunicato":7420,"Ġappartamenti":7421,"lex":7422,"mbiente":7423,"Ġmodificare":7424,"ziosa":7425,"Ġghia":7426,"Ġcazzo":7427,"ccati":7428,"ĠContra":7429,"Ġproteine":7430,"Ġgrosso":7431,"acco":7432,"cido":7433,"ĠCrea":7434,"Ġader":7435,"forte":7436,"Ġ34":7437,"Ġmolta":7438,"ccade":7439,"Ġbuio":7440,"Ġquadri":7441,"Ġcondomin":7442,"55":7443,"atmosfera":7444,"Ġcontrasto":7445,"Ġcambiato":7446,"Ġcaratteristica":7447,"inna":7448,"Ġove":7449,"issione":7450,"ĠPonte":7451,"Ġhard":7452,"nea":7453,"Ġqualora":7454,"Ġimpresa":7455,"ĠValen":7456,"Ġditta":7457,"unni":7458,"dis":7459,"Ġstadio":7460,"Ġlook":7461,"ĠUsa":7462,"Ġstupi":7463,"ensore":7464,"quo":7465,"Ġseduta":7466,"ĠAS":7467,"Ġvendere":7468,"Ġsalvare":7469,"ticitÃł":7470,"Ġja":7471,"witter":7472,"vino":7473,"Ġasc":7474,"ĠMac":7475,"Ġscopa":7476,"Ġelenco":7477,"ellini":7478,"Ġsvolgere":7479,"Ġscegli":7480,"Ġindustriali":7481,"Ġprovvedimento":7482,"let":7483,"Ġcoer":7484,"zionario":7485,"Ġvertica":7486,"Ġscadenza":7487,"Ġarrivati":7488,"Ġregistrato":7489,"esercizio":7490,"Oltre":7491,"erta":7492,"cipe":7493,"Ġipotesi":7494,"ãĥ":7495,"Ġsh":7496,"landa":7497,"word":7498,"atto":7499,"Ġbis":7500,"Ġfila":7501,"ĠAnti":7502,"Ġcolleghi":7503,"Ġscienza":7504,"Ġriscaldamento":7505,"Ġpene":7506,"tas":7507,"Ġdebole":7508,"Ġsalvo":7509,"Ġrapido":7510,"angelo":7511,"Ġsviluppato":7512,"Ġesempi":7513,"Ġprogrammazione":7514,"Ġfornito":7515,"Ġreddito":7516,"Ġcircolazione":7517,"ban":7518,"zon":7519,"liamo":7520,"Ġscorre":7521,"Ġsinte":7522,"Ġsintesi":7523,"entono":7524,"].":7525,"Ġincor":7526,"Ġrestitui":7527,"gliari":7528,"ĠRicerca":7529,"Ġonda":7530,"Ġalimenti":7531,"ado":7532,"Ð¸":7533,"Ġamiche":7534,"giano":7535,"ĠMauri":7536,"Ġtrovate":7537,"SE":7538,"nio":7539,"mora":7540,"Ġlunghi":7541,"berg":7542,"Ġriuscita":7543,"Ġcomponente":7544,"Ġtel":7545,"Ġcoi":7546,"Ġstreaming":7547,"Ġfilosofia":7548,"pli":7549,"iali":7550,"Ġantico":7551,"Ġantica":7552,"ttorio":7553,"Ġragi":7554,"BA":7555,"fono":7556,"ÑĤ":7557,"ars":7558,"Ġsuono":7559,"moto":7560,"Ġmature":7561,"Ġtutt":7562,"Ġintero":7563,"gram":7564,"ggiate":7565,"Ġbrani":7566,"Ġmembro":7567,"Ġperde":7568,"ĠAni":7569,"vecchia":7570,"Ġorizz":7571,"Ġsostitu":7572,"Ġapr":7573,"malmente":7574,"Ġaro":7575,"ettando":7576,"Ġsettiman":7577,"Ġalimentari":7578,"Ġsuccessivi":7579,"Ġeventualmente":7580,"ministra":7581,"ĠâĢĿ":7582,"Ġlimone":7583,"Ġblocco":7584,"Cos":7585,"itali":7586,"port":7587,"Ġespon":7588,"informazione":7589,"ĠAmerica":7590,"ĠmobilitÃł":7591,"Ġcostu":7592,"Ġcalcolo":7593,"appartamento":7594,"Ġvicin":7595,"Ġdenun":7596,"Ġesame":7597,"Ġfrequenta":7598,"tene":7599,"Ġup":7600,"Ġposse":7601,"Ġpesca":7602,"Ġscientifico":7603,"Ġdisegni":7604,"ĠSin":7605,"Ġmix":7606,"ash":7607,"Ġcercato":7608,"Ġlingu":7609,"Ġmusicali":7610,"ĠprofonditÃł":7611,"goro":7612,"Ġtasti":7613,"ĠDipartimento":7614,"Ġconcessione":7615,"Ġavrei":7616,"Ġindagini":7617,"Ġconquista":7618,"Ġaffascin":7619,"98":7620,"bis":7621,"arle":7622,"Ġregis":7623,"Ġproporre":7624,"Ġtrasferimento":7625,"Ġattrezza":7626,"ĠPiemonte":7627,"ji":7628,"ĠBus":7629,"ccante":7630,"ĠHome":7631,"Ġ75":7632,"pponese":7633,"ĠRegno":7634,"Ġattivi":7635,"Ġtrasfer":7636,"Ġvuoto":7637,"las":7638,"ĠIni":7639,"ĠTale":7640,"Ġlavorato":7641,"Ġoperazione":7642,"Ġcapaci":7643,"espon":7644,"Ġdemocrazia":7645,"Ġconflitto":7646,"Home":7647,"xt":7648,"Ġdici":7649,"Ġbando":7650,"mbro":7651,"alizzazione":7652,"Ġsoddisfazione":7653,"Ġborsa":7654,"Ġvoti":7655,"ĠOnline":7656,"Ġconservazione":7657,"Ġdesideri":7658,"Ris":7659,"cchetti":7660,"parto":7661,"OT":7662,"htt":7663,"inale":7664,"Ġ65":7665,"Ġdichiarazioni":7666,"ĠMaster":7667,"tuni":7668,"Ġesor":7669,"ĠAlberto":7670,"ĠPier":7671,"Ġfinali":7672,"Ġmasch":7673,"Ġderiva":7674,"Ġcostantemente":7675,"Ġarche":7676,"essori":7677,"Ġartigian":7678,"ric":7679,"Ġcongi":7680,"Ġmorale":7681,"ĠMarina":7682,"Ġpotenziale":7683,"Ġpreferito":7684,"obbligo":7685,"tz":7686,"Ġdanza":7687,"rola":7688,"Ġpole":7689,"Ġagenti":7690,"Ġferma":7691,"Ġsegreto":7692,"ĠStudio":7693,"Ġminaccia":7694,"teriormente":7695,"eva":7696,"ĨĴ":7697,"Ġmg":7698,"mobile":7699,"ĠDalla":7700,"LIA":7701,"ĠQU":7702,"Ġinstallazione":7703,"ZIONI":7704,"Ġrappresentanti":7705,"opportunitÃł":7706,"Ogni":7707,"mal":7708,"altezza":7709,"ĠCosto":7710,"chiesta":7711,"Ġattuali":7712,"Ġlunghe":7713,"Ġorigini":7714,"ccupazione":7715,"ĠFederico":7716,"Dis":7717,"dget":7718,"Ġreazione":7719,"Ġtubo":7720,"Ġassenza":7721,"Ġrivolto":7722,"Ġriportato":7723,"bru":7724,"eto":7725,"oli":7726,"Ġvite":7727,"âĢĿ:":7728,"ĠFabio":7729,"Ġsituato":7730,"Ġconsumatori":7731,"IV":7732,"Ġoma":7733,"Ġeco":7734,"ĠâĢĶ":7735,"Ġbrano":7736,"ey":7737,"euro":7738,"Ġdicendo":7739,"mendo":7740,"Ġmag":7741,"ĠAss":7742,"Ġindicare":7743,"Ġfamosa":7744,"ĠPDF":7745,"Ġfidanza":7746,"Bi":7747,"Ġstamp":7748,"ĠOpera":7749,"ĠQueste":7750,"Ġdestino":7751,"Ġcioccolato":7752,"Av":7753,"ortare":7754,"venuto":7755,"Ġimpos":7756,"cusa":7757,"Ġperson":7758,"Ġvendite":7759,"Ġmisteri":7760,"Ġcompagno":7761,"Ġprofessionista":7762,"Ġstraordinario":7763,"Ġenergetico":7764,"Ġcerimonia":7765,"ption":7766,"Ġran":7767,"tativo":7768,"ĠOtto":7769,"Ġ55":7770,"Ġproduttore":7771,"Ġsconosci":7772,"Ġrivoluzione":7773,"Ġistruzioni":7774,"tuniten":7775,"GA":7776,"trin":7777,"Ġtipologie":7778,"Ġraccogliere":7779,"Ġdescrizione":7780,"Ġesterne":7781,"Ġcellule":7782,"Ġautomaticamente":7783,"dele":7784,"Ġconvi":7785,"Ġmilano":7786,"Ġprivate":7787,"Ġcredi":7788,"Ġparametri":7789,"ottima":7790,"Ġvul":7791,"Ġang":7792,"dei":7793,"ĠBrescia":7794,"ghiera":7795,"Ġpresentata":7796,"Ġartistico":7797,"Ġbattu":7798,"ĠiPhone":7799,"ĠStar":7800,"ĠSky":7801,"trico":7802,"ziamento":7803,"derci":7804,"ĠPadre":7805,"Ġannuncio":7806,"Ġbril":7807,"issÃł":7808,"marsi":7809,"Ġbina":7810,"Ġspessore":7811,"Ġprestazione":7812,"Ġbrowser":7813,"cno":7814,"granti":7815,"Ġdimag":7816,"esterno":7817,"Ġpresentano":7818,"Ġdiffon":7819,"Ġavvenuto":7820,"Ġannuale":7821,"anzitutto":7822,"Ġselva":7823,"ĠSE":7824,"Ġversioni":7825,"Ġaccel":7826,"Ġfrase":7827,"aller":7828,"Ġequilibrio":7829,"donna":7830,"ĠRomano":7831,"Ġopinioni":7832,"matici":7833,"Ġportano":7834,"ĠPara":7835,"Ġquestioni":7836,"Ġutilizzate":7837,"Ġmanifestazioni":7838,"77":7839,"95":7840,"Ġrec":7841,"Ġedificio":7842,"ĠandrÃł":7843,"Ġagire":7844,"Ġdormi":7845,"Ġdista":7846,"Ġlenta":7847,"Ġarro":7848,"Ġfunzion":7849,"Ġagrico":7850,"Ġdetermin":7851,"Ġarchitett":7852,"Ġamo":7853,"ĠCerto":7854,"Ġconsentono":7855,"Ġlegata":7856,"Ġlarga":7857,"impa":7858,"onate":7859,"ĠFar":7860,"Ġgover":7861,"Ġaspettare":7862,"Ġfinanziamento":7863,"Ġfabbrica":7864,"grado":7865,"Ġrock":7866,"Ġflusso":7867,"ĠSvizzera":7868,"Ġspo":7869,"Ġparro":7870,"Ġmarcia":7871,"Ġmarchi":7872,"Ġleggero":7873,"Ġsvolgimento":7874,"Ġdefinitiva":7875,"Ġrecentemente":7876,"Ġstudiare":7877,"Ġprocura":7878,"Ġtrattamenti":7879,"Ġdecisioni":7880,"Ġproblematiche":7881,"ĠSalvatore":7882,"Ġespresso":7883,"Ġattacco":7884,"65":7885,"Ġpon":7886,"Ġmuro":7887,"Ġsur":7888,"ĠAmici":7889,"ĠLan":7890,"Ġarma":7891,"ĠScienze":7892,"Ġprospettiva":7893,"Ġritmo":7894,"ĠReggio":7895,"stron":7896,"ĠPla":7897,"Ġvicina":7898,"tane":7899,"ĠSegre":7900,"Ġcervello":7901,"Ġdiceva":7902,"Ġterritori":7903,"Ġresidenti":7904,"Ġmaschile":7905,"ĠFilm":7906,"For":7907,"smi":7908,"Ġemi":7909,"Ġquegli":7910,"doro":7911,"ĠPan":7912,"Ġcattura":7913,"Ġstatuniten":7914,"ĠPala":7915,"Ġrealizzate":7916,"Ġvalle":7917,"Ġfotografie":7918,"Ġespressa":7919,"Ġferrovia":7920,"Ġepisodi":7921,"Ġ120":7922,"zionato":7923,"Ġlusso":7924,"Ġtelefoni":7925,"Ġreligione":7926,"Ġsepol":7927,"ĠRA":7928,"Ġtetto":7929,"Ġindicati":7930,"annun":7931,"argomento":7932,"Ġpresc":7933,"onario":7934,"Ġbirra":7935,"stante":7936,"ĠPlay":7937,"ttoli":7938,"conda":7939,"Ġmandato":7940,"Ġrelax":7941,"Ġassumere":7942,"Ġlancia":7943,"Imp":7944,"Ġmuseo":7945,"Ġallun":7946,"ĠRomagna":7947,"Ġdifferenze":7948,"ship":7949,"Ha":7950,"Te":7951,"ĠAve":7952,"guono":7953,"Ġcolonna":7954,"ĠSarÃł":7955,"Ġdegu":7956,"vide":7957,"Ġvicen":7958,"Ġtrading":7959,"utati":7960,"Ġfattore":7961,"rdo":7962,"reria":7963,"enna":7964,"Ġcasu":7965,"ĠImma":7966,"Ġconcerti":7967,"Ġgodere":7968,"gino":7969,"Ġger":7970,"Ġstabile":7971,"Ġcomprom":7972,"ĠKi":7973,"Ġcominciare":7974,"Ġtemperature":7975,"met":7976,"Ġdebito":7977,"Ġcomposizione":7978,"Ġmaterie":7979,"Ġinterne":7980,"illu":7981,"Ġpronta":7982,"Ġeffettivamente":7983,"Ġerotici":7984,"Ġassoluta":7985,"Ġmattino":7986,"Ġriconosciuto":7987,"Ãĥ":7988,"ĠPuoi":7989,"Ġconsegui":7990,"origine":7991,"Ġfresco":7992,"ĠScopri":7993,"Ġprenotazione":7994,"ĠNovembre":7995,"85":7996,"tinera":7997,"Ġsembrava":7998,"Ġchiedo":7999,"Ġciascun":8000,"ĠVincen":8001,"FF":8002,"Ġesce":8003,"tions":8004,"Ġvicini":8005,"Ġvolontaria":8006,"Ġcolpito":8007,"ĠTribunale":8008,"Agenzia":8009,"kin":8010,"Ġamma":8011,"ĠWal":8012,"Ġfunzionale":8013,"Ġesecuzione":8014,"Ġtipici":8015,"agenzia":8016,"Ġmaestro":8017,"Ġaccre":8018,"Ġvolevo":8019,"Ġamericana":8020,"idth":8021,"arne":8022,"ccome":8023,"Ġportando":8024,"Ġagen":8025,"Ġavviso":8026,"Ġpru":8027,"ĠPisa":8028,"Ġfasti":8029,"Ġliberi":8030,"Ġchiara":8031,"Ġlegame":8032,"Ġsingola":8033,"Ġcomportamenti":8034,"MS":8035,"enz":8036,"tail":8037,"Ġintui":8038,"ĠIV":8039,"inea":8040,"ĠAltri":8041,"Ġtradizioni":8042,"nero":8043,"Ġmappa":8044,"Ġservono":8045,"Ġtriste":8046,"Ġtipico":8047,"denzi":8048,"Ġsil":8049,"Ġlavorazione":8050,"Ġordini":8051,"ĠBergamo":8052,"Ġsportiva":8053,"Ġespressione":8054,"Ġconforte":8055,"Ġdisturbi":8056,"occhio":8057,"pino":8058,"Ġcanto":8059,"Ġdio":8060,"Ġetiche":8061,"sogna":8062,"Ġrealmente":8063,"vori":8064,"ĠInfine":8065,"2014":8066,"Ġcivili":8067,"ĠprobabilitÃł":8068,"ĠOp":8069,"Ġapprovato":8070,"della":8071,"lon":8072,"lotto":8073,"ĠNum":8074,"Ġserio":8075,"Ġulteriormente":8076,"Ġcroci":8077,"Ro":8078,"Ġiner":8079,"org":8080,"Ġcondotto":8081,"cie":8082,"uiti":8083,"ney":8084,"Ġabbond":8085,"ĠWorld":8086,"Ġsostiene":8087,"tava":8088,"Ġconvo":8089,"Ġcommissa":8090,"Ġmenu":8091,"ĠData":8092,"Ġconfermato":8093,"Ġparassi":8094,"Ġrapida":8095,"Ġvalido":8096,"ĠGuida":8097,"maco":8098,"Ġriass":8099,"Ġcommissione":8100,"Ġcaduta":8101,"Ġdestinato":8102,"Ġresidenza":8103,"Ġritardo":8104,"Ġalluminio":8105,"Ġcomando":8106,"Ġfrutti":8107,"Ġsegretario":8108,"ĠClassi":8109,"Ġalberi":8110,"Ġriguardano":8111,"Ġsostenibile":8112,"Ġindirizzi":8113,"43":8114,"TRA":8115,"Ð½":8116,"Ġdating":8117,"Ġtablet":8118,"Ġesposi":8119,"Ġsostituzione":8120,"Ġanziani":8121,"Ġbiglietto":8122,"Ġgeneralmente":8123,"trica":8124,"ĠNO":8125,"Ġneppure":8126,"lancio":8127,"Ġmusici":8128,"Ġartistica":8129,"Ġpreciso":8130,"Ġstabilito":8131,"Ġgiudizia":8132,"sibile":8133,"asci":8134,"orrere":8135,"sazioni":8136,"cha":8137,"Ġsex":8138,"Ġcifra":8139,"Ġconfine":8140,"Ġcomodo":8141,"Ã¼":8142,"Ġridi":8143,"osamente":8144,"Ġrendendo":8145,"Ġtrasparenza":8146,"Ġprevalentemente":8147,"Scri":8148,"cabile":8149,"ĠFI":8150,"ĠNelle":8151,"box":8152,"Ġsalto":8153,"Ġsicuri":8154,"Ġconteni":8155,"Ġclassici":8156,"Ġvoleva":8157,"ĠInsomma":8158,"Ġesemp":8159,"Ġsottolinea":8160,"Ġrecensione":8161,"Ġcanzoni":8162,"Sul":8163,"ganza":8164,"ggiano":8165,"ĠOs":8166,"Ġdovuta":8167,"ĠGala":8168,"Ġrappresentare":8169,"Ġaffatto":8170,"Au":8171,"ĠQuello":8172,"Ġpolvere":8173,"ĠGiappone":8174,"Ġcastello":8175,"ĠSindaco":8176,"PU":8177,"ĠMani":8178,"Ġcandidati":8179,"Ġveicolo":8180,"'s":8181,"Ġconsiderata":8182,"keca":8183,"ĠDirettore":8184,"Ġrecuperare":8185,"UE":8186,"ici":8187,"Ġgesto":8188,"tube":8189,"ĠRossi":8190,"ttate":8191,"Ġintervenire":8192,"Ġvedi":8193,"Ġmarca":8194,"Ġterritoriale":8195,"Ġrimuo":8196,"bli":8197,"shop":8198,"Ġmatch":8199,"ficiale":8200,"Ġsolare":8201,"Ġdiventata":8202,"Ġbraccio":8203,"Ġdocumen":8204,"Ġovunque":8205,"Ġindividuale":8206,"Ġcelebre":8207,"Ġassai":8208,"risti":8209,"Ġspero":8210,"Ġincom":8211,"Ġlancio":8212,"Ġusati":8213,"Ġela":8214,"Ġinver":8215,"grafo":8216,"Ġpulito":8217,"Ġinaugu":8218,"Ġinedi":8219,"Ġriesco":8220,"Ġcittadinanza":8221,"Tor":8222,"retto":8223,"ĠOne":8224,"Ġelettrico":8225,"ennio":8226,"ĠClaudio":8227,"Ġdecine":8228,"erai":8229,"lanza":8230,"Ġaperti":8231,"Ġcondivisione":8232,"Ġlanciato":8233,"Ġsforzo":8234,"Ġentusias":8235,"Tro":8236,"affi":8237,"bol":8238,"width":8239,"iner":8240,"matiche":8241,"Ġconfini":8242,"Ġpopolari":8243,"Ġfarmaco":8244,"vente":8245,"Ġsignora":8246,"ĠNON":8247,"ficate":8248,"Ġautomatico":8249,"Ġfinanziari":8250,"Ġcombattere":8251,"Ġsorella":8252,"cÃ²":8253,"Ġesistenti":8254,"ettati":8255,"Ġescursi":8256,"fficienti":8257,"Ġdifficili":8258,"Ġaltrettanto":8259,"Ġindispensabile":8260,"rei":8261,"inqu":8262,"Ġfinisce":8263,"Ġmatrimoniale":8264,"Ġcatena":8265,"pping":8266,"Ġpittura":8267,"veranno":8268,"Ġcerchi":8269,"Ġassisti":8270,"Ġgiornale":8271,"assessore":8272,"ĠAngel":8273,"installazione":8274,"fun":8275,"tivali":8276,"bert":8277,"ĠNews":8278,"Ġdiagnosi":8279,"Ġaccount":8280,"Ġvolontari":8281,"Tutto":8282,"schi":8283,"sivi":8284,"Ġripri":8285,"cologia":8286,"ĠCivi":8287,"Ġassis":8288,"Ġargomento":8289,"Mar":8290,"ampia":8291,"plici":8292,"ĠMinistro":8293,"ĠVis":8294,"Ġappre":8295,"endosi":8296,"ĠComple":8297,"Ġcorrettamente":8298,"Ġufficiali":8299,"Ġvillaggio":8300,"uch":8301,"Ġripi":8302,"ettata":8303,"Ġ42":8304,"Ġmetallo":8305,"Ġdeposito":8306,"ĠAri":8307,".....":8308,"Ġradici":8309,"Ġwork":8310,"Ġsugger":8311,"68":8312,"lavoro":8313,"Ġcimi":8314,"Ġdisplay":8315,"Ġspettacoli":8316,"Ġeventuale":8317,"Ġprosegue":8318,"Ġusando":8319,"gibile":8320,"tanni":8321,"grafiche":8322,"estici":8323,"Ġbit":8324,"prile":8325,"Ġgusti":8326,"ĠJe":8327,"ĠFami":8328,"Ġfantastico":8329,"Ġvirtuale":8330,"42":8331,"Cre":8332,"ĠDra":8333,"ĠstabilitÃł":8334,"Ġcrista":8335,"Ġmedica":8336,"Ġaggiornato":8337,"Ġmetropoli":8338,"ĠBitcoin":8339,"!)":8340,"ĠSto":8341,"Ġrece":8342,"ĠItaly":8343,"ranto":8344,"erito":8345,"Ġgira":8346,"gliate":8347,"Ġprofessione":8348,"Ġ2002":8349,"Ġconsecu":8350,"Ġcittadina":8351,"Ġpubblicata":8352,"Ġinvestire":8353,"gricoltura":8354,"Ġspagnolo":8355,"67":8356,"ml":8357,"inca":8358,"Ġfrui":8359,"Ġcodi":8360,"ĠHol":8361,"ĠRicor":8362,"ĠGiulia":8363,"Ġschiena":8364,"Ġbiglietti":8365,"Ġbonus":8366,"esponsa":8367,"telo":8368,"ziano":8369,"Ġnetto":8370,"mage":8371,"ĠStan":8372,"Ġrom":8373,"ĠBasi":8374,"usei":8375,"Ġesami":8376,"rerÃł":8377,"entare":8378,"Ġredazione":8379,"Ġposa":8380,"Ġesibi":8381,"Ġmona":8382,"Ġgiunta":8383,"Ġfarci":8384,"Ġsaputo":8385,"Ġanimale":8386,"Ġstomaco":8387,"ground":8388,"41":8389,"ony":8390,"sive":8391,"logio":8392,"Ġconvegno":8393,"Ġcocco":8394,"Ġesperto":8395,"Ġcuri":8396,"Ġultra":8397,"Ġcostituiscono":8398,"Ġspecialmente":8399,"ervi":8400,"Ġantiche":8401,"ĠInsta":8402,"Ġonde":8403,"Ġcontattare":8404,"Ġufficialmente":8405,"plo":8406,"ub":8407,"vani":8408,"yer":8409,"Ġeuropee":8410,"Ġscorsi":8411,"Ġsomministra":8412,"Ġsfruttare":8413,"Ġfabbri":8414,"lterra":8415,"plica":8416,"Ġster":8417,"ĠCosta":8418,"Ġprete":8419,"Ġlogo":8420,"Ġaiu":8421,"Ġvedre":8422,"Ġassume":8423,"2012":8424,"Ġsuccede":8425,"ĠModena":8426,"ise":8427,"ĠgiÃ¹":8428,"ĠComo":8429,"gnos":8430,"edificio":8431,"Ġeffettuata":8432,"Ġvalida":8433,"landese":8434,"Ġriprodu":8435,"Uno":8436,"pÃł":8437,"tell":8438,"info":8439,"Ġnoleggio":8440,"umanitÃł":8441,"Ġatmos":8442,"Ġtrattato":8443,"ginale":8444,"Ġdiventano":8445,"msung":8446,"Ġinevita":8447,"ĠSistema":8448,"ab":8449,"ĠAda":8450,"Ġpregi":8451,"Ġsoffi":8452,"Ġtira":8453,"Ġfoglie":8454,"Ġamanti":8455,"Ġistituti":8456,"assistenza":8457,"Ġcelebra":8458,"Ġreplica":8459,"gy":8460,"sy":8461,"terraneo":8462,"Ġpreli":8463,"stano":8464,"ĠHD":8465,"Ġdovere":8466,"Ġbrev":8467,"Ġgiornalisti":8468,"destra":8469,"Ġacquistato":8470,"ĠNuovo":8471,"architettura":8472,"tio":8473,"ziali":8474,"Ġcontare":8475,"Ġmamme":8476,"Ġtracce":8477,"Ġavvol":8478,"Ġelettrici":8479,"Ġopportuno":8480,"Ġaspettative":8481,"Ġconsentito":8482,"Ġpassegg":8483,"Ġtifosi":8484,"Dom":8485,"evoluzione":8486,"Ġvittima":8487,"conomi":8488,"Ġconcer":8489,"ONA":8490,"ĠSara":8491,"Ġintenso":8492,"Ġesclusiva":8493,"ĠBruno":8494,"Ġgentile":8495,"Ġtroverete":8496,"hei":8497,"terale":8498,"Ġpoveri":8499,"Ġtocca":8500,"Ġriposo":8501,"Ġsicura":8502,"ĠMedio":8503,"Ġspiegare":8504,"Ġprocedimento":8505,"Ġriescono":8506,"ink":8507,"inci":8508,"right":8509,"ĠConta":8510,"Ġleggera":8511,"RIA":8512,"Ġrub":8513,"Ġconcluso":8514,"Ġfelici":8515,"97":8516,"Is":8517,"zer":8518,"Ġzo":8519,"pacitÃł":8520,"esecuzione":8521,"Ġelevato":8522,"Ġgenerazioni":8523,"Ġstretto":8524,"Ġospita":8525,"cerdo":8526,"ĠTour":8527,"Ġturisti":8528,"Ġorologi":8529,"Ġcomunali":8530,"ĠMaurizio":8531,"elet":8532,"Ġpoch":8533,"ĠGI":8534,"Ġcha":8535,"Ġcalcia":8536,"ĠUnghie":8537,"ĠPicco":8538,"Ġcurare":8539,"Ġcoinvolti":8540,"Ġcertificato":8541,"ĠPartito":8542,"Ġsussi":8543,"ĠMO":8544,"polo":8545,"gire":8546,"Ġrispettare":8547,"Ġpenale":8548,"edele":8549,"Ġunici":8550,"Ġincenti":8551,"Ġeconomia":8552,"Ġnasc":8553,"Ġcandidato":8554,"commerce":8555,"Ġvicende":8556,"web":8557,"Ġomo":8558,"Ġcel":8559,"Ġalunni":8560,"Ġcomposi":8561,"Ġsuolo":8562,"ĠQuali":8563,"Ġrichiesti":8564,"Ġalimentazione":8565,"Ġavvicin":8566,"Ġcomplessivo":8567,"Ġdominio":8568,"Ġdiso":8569,"loro":8570,"ĠSor":8571,"ĠIde":8572,"Ġculo":8573,"strada":8574,"Ġgiapponese":8575,"Ġintegrato":8576,"Ġmoderni":8577,"Ġterape":8578,"Ġcostretto":8579,"Ġatleti":8580,"Ġingegn":8581,"Ġvide":8582,"goli":8583,"goglio":8584,"Ġ600":8585,"Ġcinqu":8586,"Ġpomo":8587,"Ġperche":8588,"inati":8589,"ventus":8590,"ĠSergio":8591,"cinio":8592,"ĠEnrico":8593,"Ġrispettivamente":8594,"Ġsottile":8595,"Ġsoccorso":8596,"posto":8597,"Ġgino":8598,"ĠMc":8599,"manu":8600,"Ġrender":8601,"Ġsentimenti":8602,"aumento":8603,"ĠRagazze":8604,"Ġmeccanismo":8605,"Ġpuni":8606,"dibili":8607,"Ġmilli":8608,"inistri":8609,"Ġaffian":8610,"Ġapplicare":8611,"INA":8612,"Ġconclude":8613,"Ġcompresi":8614,"Ġcampagne":8615,"importante":8616,"Ġpulsante":8617,"ye":8618,"teni":8619,"ulto":8620,"Ġricchi":8621,"ĠSei":8622,"ologica":8623,"Ġ1999":8624,"Ġaccompagnato":8625,"Ġfirmato":8626,"Ġbicicle":8627,"Ġnottur":8628,"96":8629,"dette":8630,"Ġconversa":8631,"Ġconverti":8632,"Ġrimar":8633,"Ġstima":8634,"ĠMore":8635,"Ġsbagliato":8636,"Ġchiude":8637,"Ġfenomeni":8638,"Ġsonno":8639,"ccademia":8640,"ĠSA":8641,"ĠSenato":8642,"Ġandre":8643,"ĠIstituto":8644,"Ġtrama":8645,"ascia":8646,"Ġofferto":8647,"Ġintegrazione":8648,"Ġrestare":8649,"Ġelettronico":8650,"VE":8651,"Ġped":8652,"Ġministero":8653,"Ġscusa":8654,"Ġessenziali":8655,"Ġpresu":8656,"Ġregolarmente":8657,"Ġcentrali":8658,"Ġrilass":8659,"ĠCampania":8660,"Ġagenzie":8661,"Ġdebu":8662,"Ġfascino":8663,"Ġpacchetto":8664,"Ġaut":8665,"Ġbrevi":8666,"Ġdimostrare":8667,"Ġmetalli":8668,"Ġincredibile":8669,"Ġprestigi":8670,"fis":8671,"ii":8672,"angolo":8673,"enafil":8674,"ĠRimini":8675,"Ġpassata":8676,"Ġandando":8677,"Ġ250":8678,"Ġminimi":8679,"Ġrivolu":8680,"Ġamericani":8681,"Ġnecessariamente":8682,"Ġburro":8683,"Ġseri":8684,"Ġato":8685,"lam":8686,"tecni":8687,"Ġmentale":8688,"Ġsimu":8689,"das":8690,"Ġbatte":8691,"Ġbasato":8692,"Ġriscontra":8693,"Ġpeccato":8694,"Ġraggiunge":8695,"ĠCastello":8696,"ĠfelicitÃł":8697,"Ġapprofondire":8698,"Ġdeca":8699,"ĠAff":8700,"PerchÃ©":8701,"Ġforniti":8702,"Ġsingole":8703,"Ġrappresentato":8704,"Ġciascuna":8705,"Ġdiametro":8706,"identitÃł":8707,"Me":8708,"posta":8709,"Ġamb":8710,"Ġvisti":8711,"Ġlezione":8712,"Ġmaglia":8713,"ĠAT":8714,"Ġparlano":8715,"sson":8716,"Ġmito":8717,"ferenza":8718,"Ġmolteplici":8719,"ĠGuar":8720,"Ġscenario":8721,"Ġpalco":8722,"ÑĢ":8723,"Ġridotto":8724,"Ġrisal":8725,"minati":8726,"Ġtorta":8727,"Ġvisibile":8728,"ĠMondiale":8729,"ĠPubblica":8730,"Ġtestimonianza":8731,"raele":8732,"ĠSS":8733,"ppare":8734,"Ġviti":8735,"Ġrall":8736,"Ġcore":8737,"Ġdischi":8738,"Ġuscito":8739,"Ġinviato":8740,"ĠDirezione":8741,"aperto":8742,"Ġmedesimo":8743,"dando":8744,"ĠAttenzione":8745,"eratore":8746,"Ġpapa":8747,"zzetta":8748,"Ġvolumi":8749,"torni":8750,"Ġosservare":8751,"Ġmerce":8752,"Ġnegativo":8753,"Ġcristiani":8754,"Ġscomparsa":8755,"cune":8756,"Ġcera":8757,"Ġrilievo":8758,"Ġgrafico":8759,"gliamo":8760,"Ġporn":8761,"ĠGabri":8762,"Ġiscrizione":8763,"Ġconvinto":8764,"Ġconcorrenza":8765,"ag":8766,"oggi":8767,"Ġocchia":8768,"Ġbom":8769,"Ġcavi":8770,"ĠFA":8771,"Ġcornice":8772,"Ġelevata":8773,"Ġconsigliere":8774,"Ġrappresentazione":8775,"Ġfinanziario":8776,"Ġinnamo":8777,"Ġattrezzature":8778,"lire":8779,"Ġdebba":8780,"Ġparenti":8781,"ĠUN":8782,"ĠBamb":8783,"Ġefficaci":8784,"Ġusate":8785,"way":8786,"FI":8787,"Ġpall":8788,"ventura":8789,"Ġrossa":8790,"Ġmancano":8791,"ĠAlcuni":8792,"ĠSpor":8793,"Ġdecenni":8794,"pet":8795,"Ġodi":8796,"ĠCentra":8797,"ĠPRE":8798,"base":8799,"Ġvedono":8800,"gnor":8801,"ĠGiunta":8802,"Poi":8803,"Ġcircuito":8804,"mocra":8805,"Ġtasse":8806,"ghilterra":8807,"Ġfinora":8808,"Ġbisogni":8809,"Ġcertificazione":8810,"Ġtalvolta":8811,"ĠCostituzione":8812,"Ġpetro":8813,"zzina":8814,"Ġtogliere":8815,"Ġcarre":8816,"ĠMovimento":8817,"Ġquaran":8818,"Ġapprofi":8819,"Ġaziendali":8820,"ĠCalcio":8821,"ĠPolizia":8822,"ĠRosso":8823,"Ġimmobiliari":8824,"Ġpreventivo":8825,",.":8826,"Ġsana":8827,"reen":8828,"day":8829,"Ġmigranti":8830,"Ġtrasfor":8831,"Ġimprenditori":8832,"fero":8833,"ĠFia":8834,"dum":8835,"Ġcoe":8836,"Ġtosc":8837,"Ġvermi":8838,"cciare":8839,"Ġprofessore":8840,"Ġguer":8841,"Ġricercatori":8842,"Ġabiti":8843,"Ġrivolta":8844,"ĠdignitÃł":8845,"sal":8846,"fisi":8847,"ĠTwitter":8848,"Ġabitua":8849,"Ġsuccessive":8850,"Ġproprietari":8851,"ĠsensibilitÃł":8852,"Ġrilascio":8853,"Ġmontaggio":8854,"ĠðŁĺ":8855,"sen":8856,"Ġlavorando":8857,"Ġesecu":8858,"Ġtrend":8859,"Ġsessuali":8860,"Ġpilota":8861,"Ġcere":8862,"Ġsbar":8863,"ĠAmministrazione":8864,"riamente":8865,"Qual":8866,"Ġdipendenza":8867,"Ġlaboratori":8868,"fran":8869,"Ġpressi":8870,"Ġaffermato":8871,"ĠSvilu":8872,"endi":8873,"Ġimbo":8874,"ostro":8875,"ĠAssociazione":8876,"ĠfacoltÃł":8877,"ĠEner":8878,"Ġavversa":8879,"Ġdirigenti":8880,"Ġtrenta":8881,"Ġmanager":8882,"ude":8883,"Ġeva":8884,"PR":8885,"TRO":8886,"teli":8887,"Ġarra":8888,"entazione":8889,"Ġtenendo":8890,"Ġincro":8891,"Ġtematiche":8892,"Ġsegreti":8893,"Ġabbigliamento":8894,"fin":8895,"mestre":8896,"oggetto":8897,"Ġrial":8898,"Ġpartendo":8899,"ĠSalerno":8900,"Ġgrigio":8901,"Ġnucleo":8902,"UO":8903,"mona":8904,"ĠGlo":8905,"Ġdownload":8906,"Ġcora":8907,"Ġvoli":8908,"ĠLea":8909,"ĠVittorio":8910,"ĠNonostante":8911,"Ġoccidentale":8912,"ipotesi":8913,"Lgs":8914,"jo":8915,"Ġigi":8916,"ĠSti":8917,"pper":8918,"perto":8919,"Ġformare":8920,"Ġriparti":8921,"Ġcurato":8922,"Ġcominciato":8923,"Ġcaratterizzato":8924,"ĠvirtÃ¹":8925,"Pubbli":8926,"sura":8927,"ĠPsi":8928,"Ġreato":8929,"Ġrisposto":8930,"Ġscal":8931,"ĠMiglio":8932,"Ġfuga":8933,"Ġrelativamente":8934,"ĠXV":8935,"ĠPuÃ²":8936,"Ġriusciti":8937,"Ġavventura":8938,"Ġlarghezza":8939,"solo":8940,"Ġcami":8941,"Ġumane":8942,"ĠPrezzo":8943,"ĠFigura":8944,"Ġtelevisione":8945,"Ġfermo":8946,"Ġaperte":8947,"Ġdifferenzia":8948,"Ġinnovazione":8949,"Ġsorriso":8950,"Ġrisparmiare":8951,"Ġinno":8952,"Ġaltamente":8953,"Ġespressi":8954,"cetta":8955,"vina":8956,"Ġebbe":8957,"ĠIM":8958,"Ġintervista":8959,"Ġtocco":8960,"ĠQuest":8961,"quila":8962,"ĠArchi":8963,"ĠBianco":8964,"Ġpreparato":8965,"Ġintito":8966,"em":8967,"hanno":8968,"Ġsano":8969,"Ġseg":8970,"Ġfacebook":8971,"Ġricchezza":8972,"tton":8973,"Ġquote":8974,"Ġassociazione":8975,"Ġcavallo":8976,"ondi":8977,"Ġleggenda":8978,"ĠUniversi":8979,"Ġmostrato":8980,"Ġdiffusa":8981,"Ġrimborso":8982,"Ġrimedi":8983,"mino":8984,"desi":8985,"mber":8986,"Ġcreando":8987,"Ġgatto":8988,"Ġcarro":8989,"Ġstipu":8990,"busti":8991,"zionista":8992,"dge":8993,"size":8994,"Ġmorire":8995,"Ġlicen":8996,"Ġback":8997,"zionalitÃł":8998,"Ġchitar":8999,"Quindi":9000,"ĠDigi":9001,"interpre":9002,"âĢĿ.âĢľ":9003,"ĠForum":9004,"Ġattacchi":9005,"Ġspirituale":9006,"circa":9007,"ama":9008,"cane":9009,"Ġamica":9010,"esposizione":9011,"Ġperaltro":9012,"Ġesseri":9013,"Ġsabbia":9014,"Ġossi":9015,"tismo":9016,"Ġsolitamente":9017,"ĠDove":9018,"Ġstradale":9019,"Ġfisiche":9020,"Ġmoderne":9021,"Ġprosegui":9022,"Ġassicurare":9023,"Ð¾Ð":9024,"SER":9025,"Ġvor":9026,"Ġover":9027,"ĠCana":9028,"ĠAra":9029,"Ġduro":9030,"Ġverb":9031,"Ġconsumi":9032,"Ġboni":9033,"Ġlevi":9034,"ĠResponsa":9035,"ulta":9036,"ssolu":9037,"Ġpassaggi":9038,"ĠBatti":9039,"Ġevidenzi":9040,"Ġ:)":9041,"Ġbianchi":9042,"Ġpubblicati":9043,"Ġmoduli":9044,"Ġcomunicazioni":9045,"RL":9046,"To":9047,"zine":9048,"camere":9049,"vidu":9050,"ĠEss":9051,"ĠWa":9052,"Ġviolazione":9053,"Ġdeterminazione":9054,"Ufficio":9055,"ica":9056,"Ġpp":9057,"Ġpresid":9058,"Ġpreghiera":9059,"ĠBan":9060,"ĠEro":9061,"ettiamo":9062,"Ġsosta":9063,"Ġparadi":9064,"ĠStampa":9065,"Ġdomici":9066,"osso":9067,"Ġregia":9068,"ĠFesta":9069,"Ġdotata":9070,"stizia":9071,"Ġriceve":9072,"Ġcontribuire":9073,"Ġcompetente":9074,"poni":9075,"due":9076,"Ġarmoni":9077,"Ġsapori":9078,"ĠRaccon":9079,"Ġentrata":9080,"Ġsfide":9081,"Ġimmaginare":9082,"Ġpermanente":9083,"Ġlesbi":9084,"GB":9085,"ttuali":9086,"Ġml":9087,"ditore":9088,"ĠAM":9089,"ĠFondo":9090,"cket":9091,"Ġprecipi":9092,"Ġcroce":9093,"Ġproseguire":9094,"Ġanticipo":9095,"Ġristrutturazione":9096,"ĠChiara":9097,":.":9098,"BB":9099,"pto":9100,"Ġï¿½":9101,"Ġcala":9102,"Ġpredi":9103,"ccano":9104,"Ġmezza":9105,"ĠmenÃ¹":9106,"Ġbarca":9107,"Ġaccordi":9108,"Ġvisualizzare":9109,"Ġpromosso":9110,"92":9111,"Ġrestitu":9112,"ĠRes":9113,"intervista":9114,"Ġaffetti":9115,"Ġ800":9116,"Ġannuncia":9117,"appuntamento":9118,"Ġprecedenza":9119,"Ġofferti":9120,"Ġvincitore":9121,"Ġverdure":9122,"ĠMessina":9123,"ĠVincenzo":9124,"gelo":9125,"erÃ²":9126,"Ġmagazz":9127,"ĠMel":9128,"Ġcibi":9129,"Ġsacerdo":9130,"essuali":9131,"tring":9132,"ĠTempo":9133,"Ġsuperato":9134,"ĠImpa":9135,"ranei":9136,"Ġospe":9137,"ttenimento":9138,"ĠDavid":9139,"ĠciviltÃł":9140,"Ġdestinati":9141,"Ġdivul":9142,"ĠSpirito":9143,"Ġcantiere":9144,"Ġgomma":9145,"Ġsucco":9146,"ĠAggiun":9147,"Ġnapole":9148,"Ġcantante":9149,"ĠProprio":9150,"Ġcure":9151,"Ġdirigente":9152,"Ġgeom":9153,"Ġturistico":9154,"Ġprobabile":9155,"Ġcandida":9156,"\":\"":9157,"Ġevoluzione":9158,"Ġsubi":9159,"Ġ1000":9160,"Ġvivi":9161,"Ġtassa":9162,"Ġoperare":9163,"ĠâĨĴ":9164,"Ġvalorizzazione":9165,"Ġombre":9166,"ĠCroce":9167,"Ġimmobiliare":9168,"ĠGroup":9169,"eld":9170,"ziare":9171,"ĠPen":9172,"china":9173,"Ġprezioso":9174,"Ġtraduzione":9175,"tant":9176,"Ġdovesse":9177,"Ġdomes":9178,"Ġriflettere":9179,"Ġriservato":9180,"Ġproponiamo":9181,"Ġmonitoraggio":9182,"Ġdelibera":9183,"Ġprofumo":9184,"disce":9185,"Ġletti":9186,"Ġprolun":9187,"Ġesserci":9188,"ficazioni":9189,"Ġcorrere":9190,"Ġmonte":9191,"Ġpubblicare":9192,"viare":9193,"Ġpotesse":9194,"Ġrifu":9195,"FA":9196,"Gu":9197,"zziamo":9198,"lita":9199,"Ġneuro":9200,"Ġ47":9201,"Ġaffari":9202,"ĠsvolgerÃł":9203,"ĠNegli":9204,"Ġfronti":9205,"Ġcoinci":9206,"Ġritiene":9207,"Ġcompetizione":9208,"ĠMicrosoft":9209,"utica":9210,"ĠpapÃł":9211,"Ġcritiche":9212,"Ġvince":9213,"Articolo":9214,"Ġsalire":9215,"Ġdimagrire":9216,"cultura":9217,"deter":9218,"ĠIS":9219,"ficando":9220,"ĠaltresÃ¬":9221,"Ġconseguente":9222,"Ġaggiornamenti":9223,"Ġsingles":9224,"Ġbritanni":9225,"ĠJuventus":9226,"Ġusufr":9227,"bs":9228,"Ġzi":9229,"Ġcroni":9230,"Ġvere":9231,"ospedale":9232,"Ġprevisioni":9233,"ĠBio":9234,"Ġpuro":9235,"Ġcotone":9236,"grafici":9237,"ĠCampo":9238,"Ġcircolare":9239,"Ġtantissimi":9240,"Ġricarica":9241,"Ġriservata":9242,"Ver":9243,"letter":9244,"ĠAm":9245,"bby":9246,"unity":9247,"cipro":9248,"Ġoffri":9249,"ĠParte":9250,"Ġdeterminare":9251,"set":9252,"ggono":9253,"Ġpover":9254,"luenza":9255,"Ġcoda":9256,"Ġcertezza":9257,"Ġmarche":9258,"Ġsalvati":9259,"ĠMonti":9260,"Ġpellicola":9261,"pina":9262,"tipo":9263,"Ġdita":9264,"Ġfinis":9265,"Ġapparente":9266,"vallo":9267,"Ġcontinuano":9268,"Ġmassaggio":9269,"Ġeccellente":9270,"Col":9271,"loso":9272,"zzazioni":9273,"golare":9274,"Ġvenuto":9275,"cciato":9276,"Ġconcessi":9277,"Ġmistero":9278,"Ġraccontato":9279,"Ġfinita":9280,"ĠPrimo":9281,"infanzia":9282,"ate":9283,"gola":9284,"ttezza":9285,"ĠAllora":9286,"Ġcantina":9287,"Ġconcetti":9288,"Ġfinestre":9289,"Hotel":9290,"Ġpoeta":9291,"ezioni":9292,"gor":9293,"uore":9294,"Ġspecchio":9295,"Ġstrano":9296,"Ġricostrui":9297,"Ġdisagio":9298,"Ġriunione":9299,"cera":9300,"Ñģ":9301,"Ġrito":9302,"ĠPagina":9303,"trÃ²":9304,"ĠCoppa":9305,"Ġraccoglie":9306,"ĠFerrari":9307,"introduzione":9308,"ĠBur":9309,"Ġchiese":9310,"ENTI":9311,"Ġsconfitta":9312,"Ġweekend":9313,"Lu":9314,"ĠCD":9315,"Ġcavo":9316,"Ġ(âĢľ":9317,"ĠFal":9318,"Ġsfuma":9319,"Ġpronuncia":9320,"ĠcontinuitÃł":9321,"Ġospedali":9322,"%),":9323,".:":9324,"ĠSAL":9325,"ĠMI":9326,"Ġest":9327,"Ġenergie":9328,"Ġinvita":9329,"Ġinstallare":9330,"integrazione":9331,"ĠabilitÃł":9332,"arvi":9333,"Ġbron":9334,"Ġbatter":9335,"Ġtossi":9336,"ĠReal":9337,"Ġstoriche":9338,"Ġedili":9339,"Ġfornitori":9340,"ossibilitÃł":9341,"Ġaccaduto":9342,"Ġinclude":9343,"ĠElena":9344,"Ġpetto":9345,"Ġmuta":9346,"ĠPelle":9347,"Ġmagne":9348,"Ġtramon":9349,"ĠPatri":9350,"Ġsceglie":9351,"Ġamministrazioni":9352,"Ġfresca":9353,"ĠCity":9354,"Ġstor":9355,"Ġefficienza":9356,"ĠConte":9357,"Ġseno":9358,"Ġuniversale":9359,"ĠSamsung":9360,"orrei":9361,"Ġsportivi":9362,"Ġraffred":9363,"osser":9364,"Ġsig":9365,"Ġrecipro":9366,"Ġspendere":9367,"alimentazione":9368,"Ġallontana":9369,"anato":9370,"ĠRed":9371,"Ġfretta":9372,"Ġpositiva":9373,"Ġpesanti":9374,"Ġlegali":9375,"font":9376,"Ġcarabinieri":9377,"ĠMolto":9378,"GG":9379,"Ġprossime":9380,"terio":9381,"Ġmax":9382,"Ġparziale":9383,"ĠFino":9384,"Ġviaggiare":9385,"Ġterreni":9386,"Ġcicli":9387,"Ġgalleria":9388,"insieme":9389,"zato":9390,"ĠMy":9391,"Ġreci":9392,"Ġtassi":9393,"Ġmancato":9394,"cker":9395,"ĠpermetterÃł":9396,"Ġparag":9397,"Ġrimasta":9398,"Nei":9399,"ãĤ":9400,"Ġreparto":9401,"ĠGRA":9402,"Ġcresce":9403,"ĠporterÃł":9404,"Ġdiretti":9405,"Ġfrasi":9406,"Ġ05":9407,"Ġdifendere":9408,"Ġdiscutere":9409,"Ġindividui":9410,"wood":9411,"Ġtoni":9412,"ĠLet":9413,"Ġpopoli":9414,"ĠFree":9415,"ccessi":9416,"ccol":9417,"Ġverti":9418,"ĠDati":9419,"Ġfornitura":9420,"entrata":9421,"Ġsanitario":9422,"Ġautonomia":9423,"Ġmoneta":9424,"Ġsospensione":9425,"64":9426,"Ai":9427,"ara":9428,"Ġvani":9429,"Ġteso":9430,"ĠMai":9431,"Ġcrediti":9432,"Ġevidenza":9433,"utunno":9434,"ĠTito":9435,"Ġcomprensione":9436,"Ġobblighi":9437,"Ġimprovvisa":9438,"immo":9439,"mas":9440,"gale":9441,"Ġvecchie":9442,"ĠRete":9443,"Ġorario":9444,"RIS":9445,"Ġsangui":9446,"belli":9447,"Ġ$":9448,"ĠComunitÃł":9449,"ĠPerugia":9450,"ĠSimone":9451,"ĠCivile":9452,"\",\"":9453,"Ġcrescente":9454,"ĠconformitÃł":9455,"Ġsottolineare":9456,"Ġpiattaforme":9457,"ĠMusica":9458,"ĠSulla":9459,"ĠMax":9460,"Ġsapi":9461,"ĠQua":9462,"Ġpasseggiata":9463,"Ġconsiderando":9464,"arch":9465,"Ġproie":9466,"ĠPI":9467,"Ġdisposto":9468,"gnando":9469,"Ġtener":9470,"ĠFabri":9471,"imposta":9472,"Ġmostrare":9473,"the":9474,"Ġinsa":9475,"iscrizione":9476,"Ġsezioni":9477,"Ġchiusa":9478,"Ġporre":9479,"Ġnatali":9480,"urata":9481,"Ġscambia":9482,"Ġservire":9483,"Ġcalcola":9484,"ĠSotto":9485,"carlo":9486,"Ġottiene":9487,"turba":9488,"Ġsanitaria":9489,"Ġconcreto":9490,"Ġclinica":9491,"Ġintelligente":9492,"Ġdose":9493,"cazioni":9494,"Ġrigoro":9495,"ĠSce":9496,"isse":9497,"uolo":9498,"Ġrazzi":9499,"Ġtalmente":9500,"ĠAlb":9501,"Ġstrato":9502,"ĠArri":9503,"Ġamministrativa":9504,"Ġidentifica":9505,"Ġcostituita":9506,"Ġpersonalmente":9507,"Ġpregiudi":9508,"Amministrazione":9509,"Ġsanti":9510,"inverno":9511,"temi":9512,"ospi":9513,"ĠPrato":9514,"ĠTen":9515,"Ġcolpe":9516,"ssemblea":9517,"giosi":9518,"Ġsfondo":9519,"Ġcombinazione":9520,"Ġomaggio":9521,"Ġlav":9522,"ttati":9523,"Ġaddetti":9524,"ĠMadonna":9525,"Ġtabella":9526,"Ġconcreti":9527,"ĠTrans":9528,"ĠprioritÃł":9529,"impatto":9530,";-":9531,"bsp":9532,"etre":9533,"Ġhi":9534,"gas":9535,"Ġarbi":9536,"Ġmancare":9537,"ggiati":9538,"ĠKo":9539,"Ġartista":9540,"Ġtrascorrere":9541,"Fin":9542,"ĠMona":9543,"ĠIstitu":9544,"ĠSempre":9545,"Ġcompletare":9546,"ERE":9547,"Ġcapol":9548,"Ġinizialmente":9549,"Ġbalcone":9550,"Ġsottolineato":9551,"sera":9552,"Ġstella":9553,"latore":9554,"lite":9555,"Ġneri":9556,"Ġinta":9557,"ĠSanti":9558,"Ġideali":9559,"Ġprendendo":9560,"Ġimpegni":9561,"Ġstrettamente":9562,"Ġraccolto":9563,"Ġaggressi":9564,"Ġhttps":9565,"Ġprescrizione":9566,"Ġpannelli":9567,"cm":9568,"ciando":9569,"Ġmagia":9570,"Ġmassimi":9571,"ĠLascia":9572,"Ġverdi":9573,"ĠSiena":9574,"resto":9575,"Ġconfezione":9576,"Ġlimitata":9577,"Ġcinesi":9578,"Ġselezionare":9579,"fortun":9580,"Ġliquido":9581,"Sta":9582,"Ġpc":9583,"ramento":9584,"ĠOvviamente":9585,"ttone":9586,"ggiamenti":9587,"Ġautomobili":9588,"Ġeccezione":9589,"Ġriguardanti":9590,"93":9591,"Ass":9592,"aa":9593,"inÃ²":9594,"Ġmt":9595,"Ġob":9596,"ĠSlo":9597,"ĠMessi":9598,"Ġpausa":9599,"Ġcitato":9600,"ĠOro":9601,"Ġnave":9602,"essato":9603,"Ġroton":9604,"ĠDimen":9605,"Ġchiamati":9606,"ĠPotre":9607,"Ġcontenute":9608,"Ġscienzia":9609,"ĠCristi":9610,"Ġusata":9611,"Ġappartenenti":9612,"HA":9613,"aeroporto":9614,"Ġac":9615,"Ġquarta":9616,"chine":9617,"ĠMessa":9618,"erita":9619,"piÃ¹":9620,"stati":9621,"Ġsatelli":9622,"Ġ46":9623,"Ġchiamare":9624,"Ġlegitti":9625,"Ven":9626,"Ġecolo":9627,"chat":9628,"Ġdotati":9629,"Ġesposizione":9630,"2010":9631,"Ġpotevano":9632,"Ġvestiti":9633,"Ġdidattica":9634,"Ġmatematica":9635,"TS":9636,"amici":9637,"Ġsonda":9638,"curi":9639,"pedia":9640,"Ġveder":9641,"ĠAncora":9642,"Ġriconosce":9643,"Ġguidata":9644,"Ġconsultare":9645,"Ġspecializzata":9646,"ĠDomenica":9647,"darsi":9648,"foni":9649,"uisce":9650,"Ġocchio":9651,"chestra":9652,"ĠUfficio":9653,"Ġcolor":9654,"Ġcorto":9655,"Ġpossiede":9656,"Ġricordato":9657,"Ġsentiero":9658,"Ġfisso":9659,"Ġimpegnati":9660,"Ġcollaboratori":9661,"Ġslot":9662,"Ġfrazione":9663,"Ġperdite":9664,"now":9665,"ĠPon":9666,"Ġpizza":9667,"Ġpag":9668,"para":9669,"Ġimporta":9670,"Ġtorino":9671,"ĠSocial":9672,"Ġproteggere":9673,"Ġdelicato":9674,"Ġmeridi":9675,"Ġesclusivo":9676,"cellona":9677,"%).":9678,"pal":9679,"usc":9680,"xel":9681,"Ġ@":9682,"Ġintenzione":9683,"nei":9684,"Ġcorpi":9685,"Ġvenivano":9686,"Ġincidente":9687,"Ġdinamica":9688,"ĠDaniele":9689,"Ġrinunciare":9690,"Ġcra":9691,"Ġcompleanno":9692,"Ġraggiungimento":9693,"Ġguide":9694,"Ġmantenimento":9695,"Ġvorrebbe":9696,"Ġalternative":9697,"onisti":9698,"Ġago":9699,"Ġagis":9700,"Ġinutile":9701,"gliati":9702,"Ġtroverai":9703,"ĠAlta":9704,"cchieri":9705,"cciono":9706,"ghese":9707,"Ġkit":9708,"zionalmente":9709,"Ġautonoma":9710,"ĠCE":9711,"Ġsalve":9712,"Ġmisce":9713,"ĠRaffa":9714,"Ġpresentati":9715,"ANA":9716,"ĠZe":9717,"INI":9718,"Ġsportive":9719,"Ġprofili":9720,"Ġemerge":9721,"ĠGrecia":9722,"ticano":9723,"teche":9724,"ĠSO":9725,"ĠSand":9726,"moro":9727,"ĠRon":9728,"Ġlomb":9729,"Ġimpro":9730,"ĠCagliari":9731,"reste":9732,"minata":9733,"Ġcapita":9734,"Ġpienamente":9735,"Ġstudiato":9736,"Ġprotocollo":9737,"Ġsembrare":9738,"Ġtelaio":9739,"UA":9740,"cena":9741,"tipi":9742,"Ġefficiente":9743,"zzarsi":9744,"Ġ180":9745,"Ġritiro":9746,"ĠProgetto":9747,"ĠLeonardo":9748,"Cosa":9749,"Ġq":9750,"endum":9751,"Ġanale":9752,"Ġcontraddi":9753,"Ġ95":9754,"uth":9755,"Ġimmi":9756,"vise":9757,"ĠAlex":9758,"Ġefficacia":9759,"Ġgastron":9760,"Ġbancario":9761,"Ġprestito":9762,"Ġconsumatore":9763,"Ġepisodio":9764,"Ġfredda":9765,"Ġsrl":9766,"talo":9767,"aldo":9768,"Ġrisc":9769,"ĠSC":9770,"Ġbanda":9771,"Ġvirus":9772,"ĠEu":9773,"guria":9774,"uscola":9775,"Questi":9776,"avan":9777,"Ġsmettere":9778,"Ġteatrale":9779,"Ġpercepi":9780,"Ġcontemporaneamente":9781,"investi":9782,"Ġnetta":9783,"Ġrevisione":9784,"Ġpoteri":9785,"Ġpavimento":9786,"ĠFeli":9787,"ĠNA":9788,"universitÃł":9789,"ĠHar":9790,"ĠProgramma":9791,"ĠsemplicitÃł":9792,"Ġportafo":9793,"Ġavevamo":9794,"âĢľ.":9795,"Ġfondata":9796,"Ġbarba":9797,"Ġcontinuamente":9798,"Ġvariabile":9799,"Ġurban":9800,"eventuale":9801,"Ġistitui":9802,"Ġborse":9803,"Ġsottra":9804,"ĠFun":9805,"Ġcomplica":9806,"ĠSoli":9807,"importo":9808,"Ġlocation":9809,"Ġtrasformare":9810,"prendo":9811,"Ġsalita":9812,"ĠSicurezza":9813,"GO":9814,"petto":9815,"vang":9816,"Ġimple":9817,"ĠPerÃ²":9818,"ĠLiber":9819,"Ġsignificativo":9820,"Ġtrasporti":9821,"ĠBarba":9822,"Ġestrema":9823,"indagine":9824,"Ġsofferenza":9825,"vet":9826,"Ġsinistro":9827,"Ġdig":9828,"Ġmetal":9829,"Ġappa":9830,"Ġprimaria":9831,"Ġassunto":9832,"2011":9833,"Ġsorge":9834,"Ġindividuali":9835,"Ġmemori":9836,"Noi":9837,"Ġcristiana":9838,"58":9839,"Sco":9840,"Ġscendere":9841,"fficiale":9842,"Ġchiarezza":9843,"Ġrichied":9844,"Ġinsu":9845,"Ġprotetto":9846,"Ġvalorizzare":9847,"Ġstabilire":9848,"Ġselezionati":9849,"Ġmodificati":9850,"Ġsvaria":9851,"Ġconfortevole":9852,"78":9853,"Qui":9854,"ela":9855,"ies":9856,"Ġare":9857,"ditori":9858,"chel":9859,"Ġneu":9860,"Ġattraversa":9861,"Ġstanze":9862,"ĠTipo":9863,"Ġlavorano":9864,"Ġsangu":9865,"ĠTrieste":9866,"ĠCerco":9867,"ĠDELLA":9868,"Ġalcool":9869,"Ġstatunitense":9870,"::":9871,"ĠPO":9872,"Ġfame":9873,"zionare":9874,"ttina":9875,"ĠGiÃł":9876,"color":9877,"ĠDott":9878,"Ġparall":9879,"Ġnormali":9880,"Ġdedicate":9881,"Ġtalento":9882,"Ġvariazioni":9883,"Ġesprime":9884,"Ġprofondamente":9885,"ĠFerrara":9886,"Ġgradua":9887,"Ġevidenzia":9888,"Ġalter":9889,"ĠPurtroppo":9890,"Ġsepp":9891,"ĠAmore":9892,"ĠAttivitÃł":9893,"giato":9894,"Ġmancata":9895,"viazione":9896,"tuazione":9897,"Ġospite":9898,"ĠBern":9899,"Ġistituzionale":9900,"ĠIsraele":9901,"ĠTrento":9902,"Ġuguale":9903,"Ġintre":9904,"ĠSÃ¬":9905,"ttico":9906,"tent":9907,"ĠTom":9908,"ĠVan":9909,"ascol":9910,"Ġvergo":9911,"Ġnazi":9912,"ĠVisi":9913,"Ġpermetter":9914,"enzialmente":9915,"Ġpratico":9916,"ggiornamento":9917,"Ġromanzi":9918,"Ġprovvedimenti":9919,"Ġadolescenti":9920,"UL":9921,"tea":9922,"ĠCali":9923,"Ġpreca":9924,"ĠRO":9925,"ggire":9926,"ĠLibri":9927,"ĠCarta":9928,"Ġmeraviglioso":9929,"ĠUSB":9930,"Ġaffascinante":9931,"anese":9932,"sito":9933,"Ġriper":9934,"ĠMia":9935,"Ġresistente":9936,"Ġraffi":9937,"pati":9938,"stia":9939,"Ġimporto":9940,"lleri":9941,"Ġanime":9942,"Ġindicate":9943,"Ġinvitati":9944,"Ġavvenuta":9945,"burgo":9946,"lor":9947,"vre":9948,"mali":9949,"ĠDie":9950,"ĠInte":9951,"Ġclicca":9952,"Ġdiventando":9953,"esito":9954,"Ġlimitato":9955,"Ġtipica":9956,"Ġincontrato":9957,"Ġriparazione":9958,"Ġinfrastrutture":9959,"mensi":9960,"ĠAssocia":9961,"Ġvigente":9962,"Ġvengano":9963,"ĠvisibilitÃł":9964,"artiene":9965,"Ġdiagnos":9966,"CHE":9967,"Ġamare":9968,"tic":9969,"Ġrientro":9970,"Ġmilione":9971,"Ġorientale":9972,"Ġcreata":9973,"Ġdefinitivamente":9974,"Ġpubblicazioni":9975,"Ġdesigner":9976,"mbara":9977,"Ġaggiu":9978,"DS":9979,"win":9980,"Ġinto":9981,"Ġincora":9982,"Ġfiore":9983,"Ġcommi":9984,"Ġcompor":9985,"ĠCorpo":9986,"Ġpreoccup":9987,"Ġcurva":9988,"Ġtariffe":9989,"funzione":9990,"giamo":9991,"ucci":9992,"Ġsessione":9993,"Ġbea":9994,"uori":9995,"entata":9996,"fatto":9997,"viato":9998,"ĠuniversitÃł":9999,"hoto":10000,"Ġpositivi":10001,"Ġmodificato":10002,"Ġospitare":10003,"Ġtornato":10004,"Ġtestimonia":10005,"Ġschema":10006,"Ġsmalti":10007,"Ġgiardini":10008,"Ġchiamate":10009,"Ġmuove":10010,"ĠMolti":10011,"Ġucciso":10012,"Ġvasca":10013,"padding":10014,"Ġparassiti":10015,"ĠBasilica":10016,"Ex":10017,"loghi":10018,"Ġsov":10019,"ĠEU":10020,"ĠProcura":10021,"ĠArticolo":10022,"stem":10023,"Ġ1998":10024,"ĠGiacomo":10025,"Ġassegnato":10026,"ĠLeague":10027,"lto":10028,"ĠPlus":10029,"Ġ(+":10030,"Ġmilan":10031,"Ġgeno":10032,"Ġ41":10033,"ĠSop":10034,"Ġpresentate":10035,"reak":10036,"Ġcompiti":10037,"Ġpercezione":10038,"ĠElisa":10039,"Ġonore":10040,"Ġsettimanale":10041,"Ġrighe":10042,"ĠCard":10043,"Ġparliamo":10044,"Ġgirare":10045,"Ġcreativo":10046,"Ġamatoriali":10047,"Ġsomme":10048,"annuncio":10049,"Ġsli":10050,"less":10051,"dol":10052,"ĠDecreto":10053,"Ġgestito":10054,"Ġsanzioni":10055,"Ġimpiego":10056,"Ġconcentrazione":10057,"clusione":10058,"Ġpalestra":10059,"Ġriferisce":10060,"ĠCinema":10061,"Ġpatologie":10062,"cing":10063,"Ġresp":10064,"Ġdottore":10065,"Ġrisultano":10066,"Ġbambina":10067,"Ġottime":10068,"Ġaggra":10069,"ĠAttra":10070,"Ġappositamente":10071,"Ġeccellenza":10072,"Ġmettono":10073,"Ġflui":10074,"dala":10075,"ĠEgli":10076,"mbri":10077,"Ġ360":10078,"sseto":10079,"Ġfumo":10080,"Ġrumore":10081,"Ġconosciuta":10082,"ĠFilippo":10083,"Ġammirare":10084,"Ġverticale":10085,"Fran":10086,"bet":10087,"fino":10088,"organismo":10089,"ĠPunta":10090,"Ġsoglia":10091,"ĠBeni":10092,"gitto":10093,"ĠContin":10094,"tribuzione":10095,"Ġnormalmente":10096,"ĠSalute":10097,"Ġtrasmettere":10098,"Ordine":10099,"iorentina":10100,"asta":10101,"Ġafri":10102,"ĠPio":10103,"Ġresti":10104,"Ġreper":10105,"Ġregno":10106,"spa":10107,"Ġparru":10108,"Ġattimo":10109,"Ġrichiedono":10110,"ĠTuri":10111,"TORI":10112,"Ġutilizzano":10113,"Ġfiscali":10114,"Ġinvito":10115,"Ġcoinvolto":10116,"Ġintrapren":10117,"out":10118,"onna":10119,"Ġpertin":10120,"ald":10121,"Ġmassi":10122,"Ġscende":10123,"Ġcompar":10124,"Ġavverti":10125,"Ġindice":10126,"Ġrotta":10127,"Ġcancro":10128,"Ġsollievo":10129,"Ġfram":10130,"Ġinferiori":10131,"Ġallenamento":10132,"innastica":10133,"CosÃ¬":10134,"PER":10135,"Ġoccu":10136,"ĠLE":10137,"Ġraggi":10138,"Ġargento":10139,"bola":10140,"Ġdisper":10141,"Ġmarina":10142,"Ġluna":10143,"ĠSabato":10144,"Ġfinanziarie":10145,"Ġnecessita":10146,"ĠGiar":10147,"Ġincluso":10148,"Ġspiagge":10149,"Ġsostituire":10150,"----------------":10151,"PE":10152,"yn":10153,"Ġesistenza":10154,"ĠCel":10155,"Ġpoca":10156,"ĠEN":10157,"ĠEsc":10158,"Ġrisarci":10159,"enatore":10160,"omeo":10161,"Ġaccogliere":10162,"Ġavrete":10163,".âĢĵ":10164,"Ġdono":10165,"ĠSel":10166,"Ġvent":10167,"assenza":10168,"Ġampli":10169,"Ġlargo":10170,"Ġdistingu":10171,"Ġconduce":10172,"Ġdefinisce":10173,"Ġpensando":10174,"Ġlegislativo":10175,"cursione":10176,"ĠSviluppo":10177,"fal":10178,"put":10179,"Ġsfa":10180,"inse":10181,"rolo":10182,"Ġprosp":10183,"Ġcadere":10184,"ĠAna":10185,"uil":10186,"Ġcorro":10187,"Ġorto":10188,"Ġesplici":10189,"Ġscritti":10190,"ĠModa":10191,"Ġpecu":10192,"Ġintegrale":10193,"Ġrestano":10194,"Ġeducazione":10195,"Men":10196,"evo":10197,"vetta":10198,"enni":10199,"ĠCiao":10200,"Ġpropa":10201,"ĠAsia":10202,"Ġhome":10203,"duci":10204,"Ġscanda":10205,"ington":10206,"Ġversi":10207,"Ġfondatore":10208,"Ġnude":10209,"Ġruota":10210,"Ġcompiere":10211,"Ġinseriti":10212,"ĠMediterraneo":10213,"Ġconfigurazione":10214,"ĠvedrÃł":10215,"educazione":10216,"Ġintanto":10217,"Ġpotenti":10218,"onari":10219,"ĠDei":10220,"Ġspar":10221,"ĠLaura":10222,"entamento":10223,"Ġromana":10224,"impiego":10225,"feo":10226,"opini":10227,"Allo":10228,"glienza":10229,"ĠIr":10230,"Ġgiri":10231,"Ġospedale":10232,"ĠintensitÃł":10233,"Ġcontribuito":10234,"Ġruote":10235,"Ġgiovanile":10236,"Ġistituzionali":10237,"ĠTerme":10238,"Ġcostruzioni":10239,"Ġaccogliente":10240,"Ġanalizzare":10241,"America":10242,"utico":10243,"varsi":10244,"Ġsiccome":10245,"ĠAfrica":10246,"ĠDell":10247,"tretto":10248,"Ġcanta":10249,"Ġcontenere":10250,"pubbli":10251,"Ġterrazza":10252,"Ġiscritto":10253,"Ġritrova":10254,"ĠAmazon":10255,"Acc":10256,"fere":10257,"sei":10258,"voce":10259,"ĠLos":10260,"initÃł":10261,"Ġracchi":10262,"Ġromani":10263,"Ġcardio":10264,"Ġ64":10265,"Ġfuturi":10266,"ĠbensÃ¬":10267,"ĠManu":10268,"Ġisole":10269,"drome":10270,"ĠCesare":10271,"Ġorizzon":10272,"Ã¶":10273,"bbo":10274,"ccardo":10275,"ĠfinchÃ©":10276,"Ġstipen":10277,"ENZA":10278,"Ġsegnalare":10279,"Ġindicata":10280,"Ġpadrone":10281,"ĠAngelo":10282,"Ġottimale":10283,"Ġredditi":10284,"ject":10285,"ool":10286,"pio":10287,"sk":10288,"Ġ00":10289,"ray":10290,"Ġinfor":10291,"ĠSet":10292,"bit":10293,"ficante":10294,"ffo":10295,"Ġfinanziamenti":10296,"Ġdipendente":10297,"Ġamplia":10298,"Ġfedeli":10299,"Ġarchitettura":10300,"Ġriprese":10301,"Ġsignore":10302,"Ġsicili":10303,"ĠGal":10304,"ĠTel":10305,"ĠFis":10306,"Ġgrazia":10307,"Ġrisorsa":10308,"Ġnazione":10309,"Ġscale":10310,"ĠFrancesca":10311,"Ġincari":10312,"Ġprecedentemente":10313,"Ġurbano":10314,"Ġtrasparente":10315,"Ġcondizionata":10316,"var":10317,"Ġgr":10318,"Ġquinto":10319,"devole":10320,"Ġnemico":10321,"venna":10322,"ettate":10323,"ĠMarzo":10324,"finito":10325,"cose":10326,"ĠGiochi":10327,"Ġmanifes":10328,"ĠBuon":10329,"Ġculture":10330,"http":10331,"sano":10332,"Ġdiale":10333,"Ġsoppor":10334,"Ġtab":10335,"esempio":10336,"ĠAnzi":10337,"ttini":10338,"Ġscatola":10339,"Ġprogettato":10340,"Ġorale":10341,"ĠRocca":10342,"Ġdefinita":10343,"Ġlavoratore":10344,"Ġregistrare":10345,"Ġcoinvolgimento":10346,"Ġmuscolare":10347,"Ġcondominio":10348,"ange":10349,"ĠAC":10350,"Ġpagato":10351,"Ġnotato":10352,"universo":10353,"ĠOut":10354,"Ġscritte":10355,"ĠSociale":10356,"Ġrendimento":10357,"Ġconsiderati":10358,"Ġraccolte":10359,"Ġattento":10360,"Ġcontemporaneo":10361,"Ġpassword":10362,"Ġeffettuati":10363,"ĠCampionato":10364,"attacco":10365,"ĠProtezione":10366,"94":10367,"Acqu":10368,"RAN":10369,"Sp":10370,"lone":10371,"ualitÃł":10372,"Ġemissioni":10373,"Ġmesti":10374,"orge":10375,"Ġfaranno":10376,"ssio":10377,"ĠEse":10378,"Ġbagni":10379,"Ġappartiene":10380,"Ġscopi":10381,"ediamo":10382,"Ġcalci":10383,"Ġutilizz":10384,"Ġnormative":10385,"......":10386,"ĠVerde":10387,"Ġschede":10388,"Ġeseguito":10389,"amm":10390,"emo":10391,"visto":10392,"Ġdorso":10393,"inc":10394,"Ġchef":10395,"ĠMini":10396,"Ġpatate":10397,"Ġspet":10398,"Ġucc":10399,"Ġ43":10400,"ĠWe":10401,"Ġnipo":10402,"Ġregistrati":10403,"Ġcomplessiva":10404,"ĠProfessi":10405,"Ġobbligatoria":10406,"ustralia":10407,"Ġcodificazione":10408,"Ġhe":10409,"Ġaran":10410,"Ġsebbene":10411,"ĠBat":10412,"Ġnozze":10413,"Ġvario":10414,"Ġindimenti":10415,"ĠDice":10416,"haha":10417,"ĠLive":10418,"Ġsostenuto":10419,"Ġcaratterizzata":10420,"Ġinnovative":10421,"Ġpreferiti":10422,"Ġabusi":10423,"Ġpanoramica":10424,"vese":10425,"Ġing":10426,"Ġsecca":10427,"erate":10428,"ĠGall":10429,"Ġdodici":10430,"ĠchissÃł":10431,"Ġfarla":10432,"Ġformati":10433,"bbigliamento":10434,"ĠBarcellona":10435,"Ġmostre":10436,"ĠTrova":10437,"Ġapprezzato":10438,"Ġbasata":10439,"Ġrilasciato":10440,"Ġalberghi":10441,"tona":10442,"Ġinverno":10443,"ccini":10444,"Ġavrai":10445,"Ġcorrenti":10446,"Ġagenzia":10447,"ĠQuo":10448,"Ġmerita":10449,"Ġletteralmente":10450,"vieto":10451,"Ġtestimonianze":10452,"Ġripeti":10453,"Ġlentamente":10454,"Ġriusc":10455,"Ġprevenire":10456,"Ġusi":10457,"ĠBorsa":10458,"zzini":10459,"Ġadd":10460,"ĠCatego":10461,"Ġlibere":10462,"ham":10463,"ĠBasta":10464,"try":10465,"ĠChar":10466,"ther":10467,"Ġadatti":10468,"Ġinvestitori":10469,"ĠGuerra":10470,"Ġequipa":10471,"opzione":10472,"ĠCamilleri":10473,"sm":10474,"Ġdic":10475,"Ġflo":10476,"ombra":10477,"quale":10478,"Ġallievi":10479,"ĠHai":10480,"laborazione":10481,"Ġ1990":10482,"Ġrimasti":10483,"Ġborgo":10484,"Ġaffidabile":10485,"Ġreferendum":10486,"bruzzo":10487,"ĠNumero":10488,"86":10489,"LU":10490,"onio":10491,"Ġdivano":10492,"Ġnaso":10493,"Ġdispia":10494,"ĠWar":10495,"tativi":10496,"Ġcritico":10497,"Ġfragi":10498,"Ġscienze":10499,"Â».Â«":10500,"ĠâĦ":10501,"Ġcopertina":10502,"Ġuscite":10503,"image":10504,"Ġami":10505,"Ġamato":10506,"tagna":10507,"âĢĺ":10508,"Ġod":10509,"ĠAgri":10510,"Ġsping":10511,"uite":10512,"ĠVio":10513,"ĠConos":10514,"ĠHanno":10515,"Ġ57":10516,"Infine":10517,"Ġsvizz":10518,"ĠUnito":10519,"Arte":10520,"Ġinnovativo":10521,"Ġimmediato":10522,"Ġguadagnare":10523,"****":10524,"omicidio":10525,"Ġaccoglienza":10526,"ĠTrump":10527,"Des":10528,"dar":10529,"tete":10530,"Ġlabbra":10531,"ĠEppure":10532,"Ġmore":10533,"Ġvolti":10534,"Ġcomplessa":10535,"Ġstatistiche":10536,"Ġrilassa":10537,"Ġcostituzione":10538,"Ġsanitari":10539,"Ġmeccanismi":10540,"BO":10541,"Ġesistente":10542,"ĠnÃ¨":10543,"cea":10544,"âĢĿ)":10545,"ĠUE":10546,"Ġ67":10547,"tuario":10548,"Ġsentirsi":10549,"Ġperfino":10550,"Ġamministrativo":10551,"Ġturistica":10552,"Ġadempi":10553,"Ġemergenza":10554,"Ġpremier":10555,"Ġusufruire":10556,"avanguardia":10557,"Ġpreziosi":10558,"ficano":10559,"Ġmete":10560,"Ġmensile":10561,"Ġstup":10562,"Ġabitudini":10563,"Ġcondiviso":10564,"Ġcasal":10565,"Ġballo":10566,"Ġderivanti":10567,"ĠGiornata":10568,"MENTO":10569,"Ġdormire":10570,"ZZ":10571,"Ġdivisione":10572,"entieri":10573,"ĠOre":10574,"atch":10575,"Ġcalde":10576,"ttenti":10577,"Ġruoli":10578,"Ġculto":10579,"Ġquotidianamente":10580,"Ġprescin":10581,"Ġdomicilio":10582,"],":10583,"sma":10584,"Ġpel":10585,"Ġdiss":10586,"Ġpop":10587,"Ġtrage":10588,"Ġmeda":10589,"zzanti":10590,"Ġpura":10591,"Ġimplica":10592,"pers":10593,"Ġnati":10594,"Ġbudget":10595,"margin":10596,"ĠGiovani":10597,"Ġcomoda":10598,"Ġavviare":10599,"Ġasia":10600,"Ġeso":10601,"ceano":10602,"Ġsolari":10603,"ĠTar":10604,"ĠFare":10605,"Ġdolori":10606,"Ġosteo":10607,"Ġstia":10608,"bete":10609,"ĠFormazione":10610,"Ġesauri":10611,"Ġandava":10612,"gma":10613,"rosso":10614,"ĠRisto":10615,"ĠTO":10616,"Ġtendenze":10617,"ellenza":10618,"ĠMoto":10619,"avvio":10620,"ĠDomenico":10621,"Ġtedesca":10622,"album":10623,",...":10624,"87":10625,"GLI":10626,"erio":10627,"Ġattore":10628,"Ġmelo":10629,"ĠDall":10630,"Ġpatto":10631,"Ġpatro":10632,"Ġgigante":10633,"Ġmeteo":10634,"Ġavveni":10635,"ings":10636,"gnori":10637,"Ġgatti":10638,"Ġwi":10639,"Ġsfera":10640,"Ġinserimenti":10641,"ĠTerri":10642,"Ġsplendido":10643,"ĠAcqua":10644,"Ġcomplimenti":10645,"CD":10646,"br":10647,"icon":10648,"nando":10649,"ror":10650,"Ġsuoni":10651,"ĠPhi":10652,"trazione":10653,"ttica":10654,"curo":10655,"Ġbaga":10656,"Ġricom":10657,"Ġscambi":10658,"????":10659,"Ġpesci":10660,"ĠTrasp":10661,"Ġaggiunta":10662,"Ġtrion":10663,"Ġsconti":10664,"Ġcapisce":10665,"Ġpazienza":10666,"Ġpagamenti":10667,"CON":10668,"eco":10669,"Ġaf":10670,"Ġquante":10671,"ĠDE":10672,"ccani":10673,"Ġnew":10674,"Ġfunzionali":10675,"mismo":10676,"Ġcompiuto":10677,"produ":10678,"ganismi":10679,"Ġdescritto":10680,"Ġrappresentante":10681,"Ġpiacerebbe":10682,"Ġmiracolo":10683,"ceri":10684,"Ġpanta":10685,"Ġmerci":10686,"Ġnn":10687,"isca":10688,"ĠFos":10689,"ffet":10690,"assegna":10691,"urocra":10692,"Ġpiacciono":10693,"ĠArte":10694,"Ġoffrendo":10695,"cchiata":10696,"Ġinstallato":10697,"Ġchiedendo":10698,".).":10699,"TR":10700,"effica":10701,"Ġpento":10702,"invio":10703,"Ġmanti":10704,"ĠPom":10705,"Ġmagni":10706,"Ġimpon":10707,"Ġtermo":10708,"gnerÃł":10709,"Ġforesta":10710,"Ġcarto":10711,"valente":10712,"Ġpeda":10713,"Ġrina":10714,"Ġsentimento":10715,"Ġpreferenze":10716,"ĠInstagram":10717,"fetto":10718,"Ġcronaca":10719,"Ġubi":10720,"...)":10721,"Ġrossi":10722,"Ġromano":10723,"ĠSiria":10724,"Ġpenet":10725,"Ġmodella":10726,"Ġcoperto":10727,"Ġscarsa":10728,"Ġtarget":10729,"ĠcomoditÃł":10730,"ĠGreen":10731,"Ġriproduzione":10732,"Ġbosco":10733,"ĠCommercio":10734,"89":10735,"ones":10736,"cam":10737,"Ġcommenta":10738,"dete":10739,"Ġstagioni":10740,"conto":10741,"ĠBella":10742,"Ġmiele":10743,"ĠDay":10744,"Ġviola":10745,"kers":10746,"Ġmuscoli":10747,"inserimento":10748,"Ġurbani":10749,"ĠBrasile":10750,"Ġacquisire":10751,"Ġmorbido":10752,"adegua":10753,"ĠSettembre":10754,"ternitÃł":10755,"sserva":10756,"gole":10757,"gnata":10758,"Ġvenduto":10759,"Ġdirei":10760,"Ġdestro":10761,"ĠArchite":10762,"Ġassum":10763,"Ġscontro":10764,"Ġrileva":10765,"mol":10766,"pini":10767,"Ġdroga":10768,"libri":10769,"quet":10770,"ĠGua":10771,"ĠGestione":10772,"ĠBas":10773,"Ġpriva":10774,"Ġscul":10775,"Ġfiera":10776,"Ġbiblioteca":10777,"Ġfeb":10778,"Ġelevati":10779,"Ġconsigliato":10780,"ANI":10781,"gentina":10782,"Ġimpegnato":10783,"ICO":10784,"Ġritrovare":10785,"Ġgreco":10786,"ĠGrillo":10787,"Ġindossa":10788,"Ġreazioni":10789,"Ġsimboli":10790,"Ġsilenzi":10791,"ĠÎ":10792,"Ġebre":10793,"Ġinfi":10794,"Ġridotta":10795,"Ġriviste":10796,"Ġinterroga":10797,"Ġserra":10798,"foto":10799,"Ġcontenente":10800,"ISCI":10801,"Ġdiscesa":10802,"Ġliberamente":10803,"Ġconnessi":10804,"Ġcostituzionale":10805,"ĠJack":10806,"Ġeccezionale":10807,"Ġavanzata":10808,"Ġsolleci":10809,"Ġmettersi":10810,"Pubblicato":10811,"Gran":10812,"nis":10813,"Ê¼":10814,"ense":10815,"anchi":10816,"Ġincol":10817,"ĠSele":10818,"Ġmaturi":10819,"ĠMadri":10820,"ĠCorriere":10821,"Ġcollettivo":10822,"ĠfacilitÃł":10823,"Ġperiferi":10824,"Ġritenuto":10825,"Ġcoordinamento":10826,"ĠInternational":10827,"pani":10828,"Ġsten":10829,"riano":10830,"ĠPesca":10831,"onore":10832,"Ġprevisione":10833,"hite":10834,"Ġposte":10835,"Ġfiga":10836,"Ġgrammi":10837,"ronto":10838,"Ġassistere":10839,"Ġabitazione":10840,"Ġcostruita":10841,"Ġinclusi":10842,"Ġinsedia":10843,"Ġrifiuto":10844,"Ġinnanzitutto":10845,"Ġtariffa":10846,"mpere":10847,"Ġprimis":10848,"Ġorganismo":10849,"ratter":10850,"Ġlibreria":10851,"Ġscop":10852,"ĠMobile":10853,"Ġstretta":10854,"Ġattendere":10855,"mministratore":10856,"Ġcancellazioni":10857,"ĠCentrale":10858,"ĠpovertÃł":10859,"Ġitinera":10860,"Ġconci":10861,"max":10862,"Ġlenti":10863,"ĠTA":10864,"ĠInvece":10865,"Ġcollina":10866,"Ġrisultare":10867,"Ġcampioni":10868,"Ġautorizzazione":10869,"Ġispirato":10870,"Ġsottoscritto":10871,"Ġcommissario":10872,"ĠRacconti":10873,"Ġantin":10874,"mita":10875,"ĠDar":10876,"polare":10877,"stata":10878,"Ġsara":10879,"Ġtavole":10880,"ille":10881,"Ġvederlo":10882,"Ġ56":10883,"ĠSede":10884,"Ġoperativi":10885,"Ġcollegato":10886,"Ġ01":10887,"Ġportate":10888,"Ġeffettuate":10889,"Ġrimangono":10890,"Ġvirtu":10891,"Ġrinnovo":10892,"Ġsuggerimenti":10893,"&#":10894,"Ed":10895,"rani":10896,"onima":10897,"ĠDol":10898,"ĠDelle":10899,"ĠDOC":10900,"ĠRI":10901,"Ġmill":10902,"Ġgiocato":10903,"urare":10904,"Ġesal":10905,"Ġdiversamente":10906,"ĠGianni":10907,"ĠPremi":10908,"ĠGay":10909,"Ġmantenendo":10910,"Ġintrodotto":10911,"Ġcollegamenti":10912,"Ġvicinanze":10913,"Ġomogene":10914,"Ġsopp":10915,"ttano":10916,"Ġscru":10917,"Ġessenzialmente":10918,"Ġsacra":10919,"pendenza":10920,"ĠPiero":10921,"Ġclick":10922,"ĠBiblioteca":10923,"Ġdisastro":10924,"Ġdinamiche":10925,"Ġpannello":10926,"Ġgioielli":10927,"800":10928,"Negli":10929,"inga":10930,"Ġdiviso":10931,"ĠtÃ¨":10932,"cile":10933,"erei":10934,"Ġmass":10935,"essuale":10936,"Ġtelefon":10937,"Ġrusso":10938,"Ġrilevante":10939,"Ġclientela":10940,"Ġsupple":10941,"ĠOttobre":10942,"opinione":10943,"Cer":10944,"ĠdarÃł":10945,"Ġsis":10946,"tanta":10947,"Ġcoach":10948,"ĠLago":10949,"Ġsuperm":10950,"Ġrestauro":10951,"Ġpensate":10952,"ĠcomplessitÃł":10953,"Ġsperimentazione":10954,"Ġapplicato":10955,"amicizia":10956,"Ġconvenzione":10957,"ĠtonalitÃł":10958,"cione":10959,"Ġbologna":10960,"ceto":10961,"ĠIP":10962,"Ġgrano":10963,"Ġvado":10964,"Ġtavoli":10965,"Ġ44":10966,"Ġtemporale":10967,"Ġprodotta":10968,"Ġattraver":10969,"ĠMonza":10970,"Alle":10971,"Ġfrancesi":10972,"Ġcomprese":10973,"ĠBuona":10974,"ĠTeam":10975,"Ġprovoca":10976,"Ġsepara":10977,"ZIA":10978,"ZZA":10979,"fan":10980,"play":10981,"senza":10982,"stero":10983,"rete":10984,"ressione":10985,"ĠSun":10986,"Ġnonna":10987,"Ġcodici":10988,"Ġterze":10989,"ĠSezione":10990,"cipio":10991,"ĠMontal":10992,"Ġfiltro":10993,"Ġesercitare":10994,"ĠCucina":10995,"Ġincremento":10996,"Ġcollaterali":10997,"Ġboschi":10998,"Ġguardando":10999,"ĠMosca":11000,"Ġaccessibile":11001,"Ġpunteggio":11002,"Ġbrillante":11003,"Ġmilanese":11004,"attore":11005,"lea":11006,"Ġit":11007,"espressione":11008,"Ġvel":11009,"ĠIT":11010,"ericor":11011,"Ġbacino":11012,"Ġattu":11013,"Ġ52":11014,"ĠSeconda":11015,"ĠVito":11016,"Ġambiti":11017,"Ġisla":11018,"2003":11019,"Ġpulita":11020,"Ġcasella":11021,"Ġaiutano":11022,"Ġmedesima":11023,"attesa":11024,"Era":11025,"ĠSua":11026,"Ġbisco":11027,"Ġcomi":11028,"Ġvai":11029,"ath":11030,"Ġmondiali":11031,"Ġauspi":11032,"Ġassur":11033,"Ġrinfor":11034,"Ġseguono":11035,"Ġordinaria":11036,"Ġvestito":11037,"Ġapprendimento":11038,"ciclo":11039,"VER":11040,"Ġponti":11041,"Ġtene":11042,"Ġspinta":11043,"Ġnemici":11044,"Ġcooperazione":11045,"Ġbasse":11046,"Ġsaggio":11047,"Ġallegato":11048,"Quello":11049,"Ġ49":11050,"fferte":11051,"terebbe":11052,"Ġlontani":11053,"Ġcorrispondente":11054,"Ġevidentemente":11055,"83":11056,"Ch":11057,"Ġ]":11058,"aly":11059,"Ġfama":11060,"Ġdovete":11061,"Ġesau":11062,"Ġassociati":11063,"Ġglutine":11064,"Ġrimuovere":11065,"SÃ¬":11066,"UI":11067,"Ġpdf":11068,"Ġintri":11069,"âĢ²":11070,"ĠSare":11071,"ĠPale":11072,"grati":11073,"Ġtasca":11074,"Ġrisca":11075,"bot":11076,"ĠPay":11077,"Ġroves":11078,"Ġabita":11079,"Ġfunzionare":11080,"Ġfotografica":11081,"ĠGiugno":11082,"ĠLibro":11083,"Ġestetica":11084,"zina":11085,"rezzo":11086,"Ġdiscri":11087,"Ġeppure":11088,"zzatore":11089,"Ġdotazione":11090,"mpions":11091,"ames":11092,"ĠBisogna":11093,"Ġimpressi":11094,"ĠBerlino":11095,"Ġadottare":11096,"ĠdisabilitÃł":11097,"Ġdeterminati":11098,"Ġassicurazione":11099,"ĠBenedetto":11100,"ĠtranquillitÃł":11101,"Ġregistro":11102,"Accademia":11103,"Par":11104,"tics":11105,"raeli":11106,"inate":11107,"Ġcogni":11108,"ĠMauro":11109,"grafie":11110,"Ġconoscer":11111,"ĠDavide":11112,"Ġterribile":11113,"ENTE":11114,"Ġabitazioni":11115,"Ġcapisco":11116,"ĠPrivacy":11117,"Ġsottili":11118,"Ġconversione":11119,"mante":11120,"Ã¢":11121,"Ġdoloro":11122,"mbur":11123,"Ġinteriore":11124,"Ġessersi":11125,"perta":11126,"ettano":11127,"Ġsoldati":11128,"ĠCook":11129,"Ġgenerare":11130,"Ġsvolte":11131,"Ġspecializzato":11132,"Ġopinione":11133,"Ġsceneggia":11134,"ĠSALVA":11135,"52":11136,"Due":11137,"dit":11138,"ĠCio":11139,"ĠPRI":11140,"ĠAdi":11141,"Ġucra":11142,"Ġdotate":11143,"Ġgiunto":11144,"Ġlicenza":11145,"neuma":11146,"Ġtermico":11147,"Ġbicchiere":11148,"istituto":11149,"Ġtorneo":11150,"Ġentrato":11151,"Ġimmobile":11152,"Ġmanovra":11153,"Ġriduce":11154,"Ġostacoli":11155,"dera":11156,"Ġlampa":11157,"Ġlacri":11158,"Ġrigen":11159,"Ġsusci":11160,"ĠLuna":11161,"ĠQuanto":11162,"ĠMartino":11163,"Ġsvolgono":11164,"Ġappropria":11165,"Ġesag":11166,"Ġatteggiamento":11167,"Ricor":11168,"Ġsostituito":11169,"Ġestiva":11170,"insegnamento":11171,"Ġcooperativa":11172,"Ġbitcoin":11173,".(":11174,"bino":11175,"cidio":11176,"sore":11177,"ĠSper":11178,"Ġandati":11179,"Ġmali":11180,"Ġcasta":11181,"Ġprega":11182,"Ġville":11183,"ĠRen":11184,"ashi":11185,"Ġtroppi":11186,"ĠCari":11187,"Ġattivare":11188,"Ġsalone":11189,"Ġinfia":11190,"urea":11191,"ĠModer":11192,"Ġserate":11193,"Ġriferimenti":11194,"Ġdifetto":11195,"ddistin":11196,"isizione":11197,"ĠCapitolo":11198,"Ġdiminuzione":11199,"ĠBolzano":11200,"Ġdintorni":11201,"Ġbicicletta":11202,"cuno":11203,"Ġdeco":11204,"ĠPren":11205,"Ġscompa":11206,"ffice":11207,"Ġsaluto":11208,"Ġpopolazioni":11209,"issime":11210,"ĠspecialitÃł":11211,"Ġpiaciuto":11212,"57":11213,"abbiamo":11214,"agricoltura":11215,"Ġ%":11216,"ĠAI":11217,"Ġretti":11218,"gazine":11219,"Ġtette":11220,"Ġaller":11221,"Ġproget":11222,"Continua":11223,"Ġfotografico":11224,"Ġfrequenti":11225,"Ġpancia":11226,"Ġadeguato":11227,"Ġrespira":11228,"background":11229,"ball":11230,"pone":11231,"Ġecci":11232,"Ġpersi":11233,"Ġdeboli":11234,"vocati":11235,"Ġfasce":11236,"ĠCapp":11237,"Ġabbat":11238,"Ġsegnato":11239,"Ġcuocere":11240,"dentali":11241,"Tube":11242,"Ġfatturato":11243,"Ġtedeschi":11244,"Ġlevitra":11245,"Va":11246,"Ġviste":11247,"Ġtono":11248,"soria":11249,"arese":11250,"urato":11251,"Ġconosco":11252,"ĠLiguria":11253,"Ġcontengono":11254,"ghetti":11255,"ĠSalvini":11256,"Ġregala":11257,"Ġelettronici":11258,"Ġriprendere":11259,"Ġapparentemente":11260,"Ave":11261,"FO":11262,"itÃł":11263,"ï»":11264,"Ġmacro":11265,"Ġpietre":11266,"Ġspina":11267,"ĠResta":11268,"Ġscan":11269,"ĠCaro":11270,"ĠConti":11271,"gnome":11272,"ĠVicenza":11273,"ĠTech":11274,"ICI":11275,"Ġobbligo":11276,"Ġbatteri":11277,"Ġautonomo":11278,"Ġsostanzialmente":11279,"Ġaccolto":11280,"Ġsalvezza":11281,"appa":11282,"dd":11283,"nbsp":11284,"Ġpreten":11285,"gatore":11286,"dula":11287,"Ġproposti":11288,"tted":11289,"Ġenormi":11290,"Ġeravamo":11291,"Ġcandele":11292,"Ġconcesso":11293,"ĠMarino":11294,"ĠFederazione":11295,"Ġradicale":11296,"Ġaereo":11297,"Ġbevande":11298,"Ġpresupp":11299,"Utente":11300,"mus":11301,"ĠSani":11302,"ĠIVA":11303,"ĠDEI":11304,"ggiando":11305,"Ġcorruzione":11306,"ronia":11307,"ĠPaul":11308,"Ġsoprav":11309,"Ġbarre":11310,"Ġresidenziale":11311,"ĠCroci":11312,"ĠCarabinieri":11313,"Africa":11314,"El":11315,"ule":11316,"Ġpessi":11317,"Ġisola":11318,"Ġmatri":11319,"Ġpizzi":11320,"Ġcima":11321,"Ġcilin":11322,"ĠBlo":11323,"ĠVai":11324,"Ġcogliere":11325,"inghi":11326,"Ġrisco":11327,"Ġbimbi":11328,"Ġcontraddistin":11329,"Ġeconom":11330,"Ġconsigliamo":11331,"Ġcircostanze":11332,"Ġimpedire":11333,"Ġimpostazioni":11334,"Ġbinarie":11335,"ĠFabrizio":11336,"velo":11337,"Ġgel":11338,"ĠPis":11339,"Ġrabbia":11340,"ĠOl":11341,"Ġchimica":11342,"Ġfunghi":11343,"Ġvisibili":11344,"Ġopzione":11345,"Ġdifferente":11346,"Ġmontagne":11347,"ETTO":11348,"Ġcorrisponde":11349,"assemblea":11350,"ĠWillia":11351,"dese":11352,"ep":11353,"goni":11354,"tage":11355,"Ġmesse":11356,"spru":11357,"Ġtumore":11358,"Ġbakeca":11359,"ders":11360,"ĠRegioni":11361,"Ġconoscono":11362,"Ġfegato":11363,"Ġ99":11364,"ĠFranci":11365,"Ġmetaboli":11366,"Ġpassano":11367,"Ġfedel":11368,"Ġconcepi":11369,"Ġvettura":11370,"ottica":11371,"Ġartigianale":11372,"cero":11373,"miamo":11374,"nello":11375,"voso":11376,"tilitÃł":11377,"Ġdecre":11378,"Ġcomitato":11379,"Ġreati":11380,"Ġpillo":11381,"Ġchiedono":11382,"Ġsensazioni":11383,"Ġ09":11384,"Ġtranne":11385,"Ġrivolgersi":11386,"Ġprevedere":11387,"ĠMedicina":11388,"Ġadeguata":11389,"Ġpadroni":11390,"Ġtribunale":11391,"Ġprospettive":11392,"Ġposizionamento":11393,"Ġconveniente":11394,"Sei":11395,"Via":11396,"agg":11397,"visti":11398,"incre":11399,"rocco":11400,"quio":11401,"ĠCur":11402,"Ġsec":11403,"Ġdottor":11404,"ĠNas":11405,"Ġavval":11406,"ĠMarketing":11407,"Ġcapitano":11408,"gressi":11409,"Ġorganizzati":11410,"cinque":11411,"Ġdestinata":11412,"gorit":11413,"Ġattuazione":11414,"ĠUmbria":11415,"Ġginocchio":11416,"SERISCI":11417,"''":11418,"bine":11419,"mono":11420,"rine":11421,"Ġcenti":11422,"Ġastra":11423,"Ġingiu":11424,"Ġveste":11425,"Ġriquali":11426,"ĠOff":11427,"Ġvenduti":11428,"cciata":11429,"Ġfondato":11430,"Ġossa":11431,"Ġfotovolta":11432,"Ġterritoriali":11433,"Ġentrate":11434,"Ġlavorativa":11435,"Ġequilib":11436,"Ġpericoloso":11437,"Ġcorrispondenza":11438,"ĠCompagnia":11439,"Ġabbondante":11440,"63":11441,"TRI":11442,"Ġdeva":11443,"miti":11444,"ĠFel":11445,"Ġappello":11446,"Ġvende":11447,"fabe":11448,"manda":11449,"cchino":11450,"ologici":11451,"mergenza":11452,"Ġclic":11453,"Ġassun":11454,"ameri":11455,"Ġfornite":11456,"ĠGuarda":11457,"Ġcompagnie":11458,"ï»¿":11459,"vÃ²":11460,"tech":11461,"Ġmusei":11462,"Ġperdono":11463,"Ġbul":11464,"vara":11465,"nate":11466,"ĠFarma":11467,"ĠHer":11468,"ĠComunque":11469,"Ġfusione":11470,"Ġcontrastare":11471,"serci":11472,"Ġimmediata":11473,"ddove":11474,"Ġnegativi":11475,"Ġinsegnante":11476,"Ġsapete":11477,"height":11478,"-)":11479,"celle":11480,"grante":11481,"rgli":11482,"Ġindo":11483,"osteni":11484,"ĠITA":11485,"Ġrazza":11486,"Ġmiti":11487,"ĠVangelo":11488,"Ġnazioni":11489,"Ġfarti":11490,"Ġunita":11491,"Ġassociato":11492,"Ġparlamentare":11493,"ĠsostenibilitÃł":11494,"Ġvedremo":11495,"immobile":11496,"Ġpani":11497,"Ġrigore":11498,"Ġcommedia":11499,"ttorie":11500,"stazioni":11501,"Ġfibre":11502,"Ġindire":11503,"Ġespan":11504,"Ġscaten":11505,"press":11506,"Ġsensori":11507,"ĠGrand":11508,"Ġpaesaggi":11509,"Ġrespiro":11510,"Cor":11511,"vona":11512,"Ġasi":11513,"mentata":11514,"ĠStazione":11515,"istare":11516,"Ġmafia":11517,"Ġvigne":11518,"Ġspalla":11519,"taneo":11520,"patia":11521,"Ġcopie":11522,"Ġintermedia":11523,"Ġcolpisce":11524,"Ġvenuta":11525,"Ġaccettato":11526,"Ġesposti":11527,"Ġscarico":11528,"ĠSembra":11529,"Ġregolazione":11530,"ĠBianca":11531,"Ġtrascorso":11532,"Ġbottiglia":11533,"At":11534,"Ġful":11535,"Ġunisce":11536,"Ġburocra":11537,"ziati":11538,"babilmente":11539,"Ġfoca":11540,"Ġdovuti":11541,"Ġprendono":11542,"ĠPark":11543,"Ġsfio":11544,"Ġtraspor":11545,"Ġgarantito":11546,"ĠClasse":11547,"Ġsperimentare":11548,"Ġnominato":11549,"Ġricordiamo":11550,"Ġescursioni":11551,"54":11552,"XX":11553,"dr":11554,"Ġsha":11555,"Ġabito":11556,"ordi":11557,"etu":11558,"Ġdebb":11559,"Ġpuri":11560,"venuti":11561,"ĠMaestro":11562,"Ġstrati":11563,"ONI":11564,"Ġcollettiva":11565,"Ġedilizia":11566,"Ġminerali":11567,"avventura":11568,"ĠAdesso":11569,"Ġconcludere":11570,"Ġconcorrenti":11571,"ĠCuba":11572,"Ġpluri":11573,"Ġevidenziato":11574,".),":11575,"?âĢĿ":11576,"Ġepoca":11577,"Ġtron":11578,"ĠCra":11579,"Ġdecor":11580,"ĠAprile":11581,"Ġrese":11582,"ĠRena":11583,"animo":11584,"ettiva":11585,"Ġdispon":11586,"Ġscontato":11587,"avvocato":11588,"Ġfisici":11589,"ĠGiustizia":11590,"Ġdescrive":11591,"Ġfalso":11592,"Ġinviata":11593,"Ġsforzi":11594,"Ġconservare":11595,"Ġmeccanica":11596,"Ġocchiali":11597,"Mentre":11598,"Ġinfiamma":11599,"ĠStelle":11600,"tum":11601,"ĠLar":11602,"ĠInf":11603,"Ġtacco":11604,"Ġgestisce":11605,"Ġvincente":11606,"ĠXI":11607,"INSERISCI":11608,"Ġ1992":11609,"Ġdifficilmente":11610,"Ġspettatori":11611,"Ġamatoriale":11612,"Ġdiscipline":11613,"ĠcaritÃł":11614,"onsor":11615,"nalisi":11616,"Ġghiaccio":11617,"ĠResponsabile":11618,"Ni":11619,"py":11620,"carica":11621,"Ġrivi":11622,"Ġribal":11623,"ĠBell":11624,"alia":11625,"grammi":11626,"ĠCase":11627,"Ġspecu":11628,"Ġformativo":11629,"ĠRiccardo":11630,"ĠZo":11631,"Ġfantastica":11632,"Ġgarage":11633,"Ġfacilitare":11634,"Ġmusicisti":11635,"gal":11636,"garsi":11637,"tela":11638,"vic":11639,"Ġseta":11640,"ĠAG":11641,"Ġreda":11642,"Ġpaci":11643,"Ġcipol":11644,"trone":11645,"Ġsituata":11646,"Ġsecondaria":11647,"Ġfissato":11648,"esplo":11649,"2008":11650,"2009":11651,"ĠItaliani":11652,"Ġshopping":11653,"Ġlasciano":11654,"Ġmeravigliosa":11655,"Ġfumetti":11656,"Ġsopravvivenza":11657,"Ġmillimetri":11658,"BS":11659,"Ġfio":11660,"Ġfesti":11661,"ĠSur":11662,"ĠSER":11663,"Ġsignor":11664,"gil":11665,"ĠFan":11666,"Ġprivo":11667,"Ġimpone":11668,"unione":11669,"usse":11670,"iete":11671,"Ġedizioni":11672,"Ġevitando":11673,"Ġguidare":11674,"ĠMeto":11675,"Ġvarianti":11676,"ĠEnti":11677,"Ġbrucia":11678,"Ġpotenziali":11679,"Ġmusul":11680,"ĠGrosseto":11681,"approccio":11682,"Ġluminoso":11683,"Ġintellettuale":11684,"Ġpasseggeri":11685,"Ġprescindere":11686,"ĠMadrid":11687,"apposi":11688,"phi":11689,"onde":11690,"Ġces":11691,"glioni":11692,"Ġrosse":11693,"ĠAnni":11694,"ĠAltezza":11695,"Ġchiare":11696,"TIS":11697,"Ġpsichia":11698,"Ġrappresentanza":11699,"ĠRagazza":11700,"Ġlievi":11701,"Ġreligiosa":11702,"ĠStreet":11703,"Ġleva":11704,"ĠPAR":11705,"ĠMuni":11706,"gilio":11707,"ĠEmanu":11708,"Ġricche":11709,"Ġindis":11710,"Ġconsum":11711,"fore":11712,"Ġtorre":11713,"gioli":11714,"Ġaffidato":11715,"Ġiniziano":11716,"ĠTop":11717,"Ġsensibile":11718,"Ġvariazione":11719,"immagina":11720,"ĠMicha":11721,"Ġvasto":11722,"ĠChampions":11723,"ĠBusiness":11724,"RC":11725,"cerÃł":11726,"Ġsblo":11727,"ĠStore":11728,"very":11729,"Ġcoprire":11730,"Ġvoluta":11731,"ĠAlpi":11732,"Ġformale":11733,"Ġproduzioni":11734,"Ġproduttivo":11735,"Ġki":11736,"Ġeccesso":11737,"Ġprovince":11738,"Ġparlamentari":11739,"Ġispirazione":11740,"Ġcommunity":11741,"Ġcosiddetto":11742,"Ġcirconda":11743,"Ġrifugio":11744,"Man":11745,"gel":11746,"ĠCI":11747,"Ġfibra":11748,"Ġcortile":11749,"Ġfoglio":11750,"elles":11751,"Ġperfeziona":11752,"Ġamministrative":11753,"Ġinterpretazione":11754,"Ġpersegui":11755,"ĠYouTube":11756,"Ġmantiene":11757,"ges":11758,"sul":11759,"Ġmorta":11760,"cade":11761,"ĠSTA":11762,"Ġanteriore":11763,"Ġraggio":11764,"duce":11765,"guendo":11766,"Ġimposte":11767,"ĠCass":11768,"enamento":11769,"Ġeditoriale":11770,"tarlo":11771,"ĠanzichÃ©":11772,"Ġavventure":11773,"Ġstrategica":11774,"Ġipoti":11775,"Ġtranquillo":11776,"Ġpromossa":11777,"Ġcelebrare":11778,"Esp":11779,"San":11780,"tizie":11781,"diche":11782,"ĠStivali":11783,"Ġblack":11784,"ĠDV":11785,"Ġpresenze":11786,"Ġindiffer":11787,"Ġcarbu":11788,"ĠDemocra":11789,"autoritÃł":11790,"ĠTecno":11791,"Ġdifetti":11792,"ĠPolitiche":11793,"Ġscientifiche":11794,"Ġseparazione":11795,"Ġampiamente":11796,"ĠDiritto":11797,"accoglienza":11798,"risto":11799,"ĠPS":11800,"Ġparzialmente":11801,"Ġrate":11802,"Ġaiuti":11803,"andone":11804,"Ġbotte":11805,"Ġbook":11806,"Ġinteso":11807,"Ġfondazione":11808,"ĠForza":11809,"Ġimparato":11810,"ĠGuido":11811,"Ġmorbida":11812,"Ġcostretti":11813,"Ġvincitori":11814,"?)":11815,"loga":11816,"Ġrimozione":11817,"ĠAzienda":11818,"natura":11819,"Ġtratten":11820,"Ġgirone":11821,"Ġmarmo":11822,"Ġfinanza":11823,"trona":11824,"Ġtecnologico":11825,"Ġ1997":11826,"ĠGrandi":11827,"Ġcelebri":11828,"Ġconosciuti":11829,"Ġcombatti":11830,"ĠColore":11831,"Sabato":11832,"Ġpensano":11833,"Ġindossare":11834,"Ġcalorie":11835,"Ġreligioso":11836,"ĠCinque":11837,"amp":11838,"Ġacido":11839,"tite":11840,"erete":11841,"Ġcare":11842,"ĠAD":11843,"Ġraddo":11844,"Ġrisve":11845,"Ġdivertenti":11846,"Ġ68":11847,"ĠLucca":11848,"Nonostante":11849,"assunzione":11850,"orario":11851,"Ġavremo":11852,"Ġgrossi":11853,"ĠRoss":11854,"ĠConsul":11855,"Ġmaschera":11856,"Nelle":11857,"sando":11858,"velli":11859,"Ġsno":11860,"istruzione":11861,"Ġcombusti":11862,"ĠAgenzia":11863,"ĠAustria":11864,"ĠTUT":11865,"Ġavvenire":11866,"ĠOpen":11867,"ĠHy":11868,"Ġpassate":11869,"ĠUnico":11870,"ĠXVI":11871,"Ġmostrano":11872,"Tutte":11873,"Ġriportati":11874,"Ġestratto":11875,"Ġprenotare":11876,"Ġportiere":11877,"italiano":11878,"TTO":11879,"ctive":11880,"gone":11881,"Ġaustria":11882,"disci":11883,"ĠCerti":11884,"ĠSt":11885,"Ġcifre":11886,"ĠNin":11887,"Ġbara":11888,"Ġ350":11889,"Ġverni":11890,"Ġnapoli":11891,"ĠPaola":11892,"ĠLecce":11893,"Ġconfusione":11894,"Ġcalma":11895,"teriali":11896,"Ġsaremo":11897,"Ġlimita":11898,"Ġfrontale":11899,"Ġrivolge":11900,"2006":11901,"Ġmattinata":11902,"ctory":11903,"nellate":11904,"Ġoperano":11905,"Ġtranquillamente":11906,"Ġconquistare":11907,"nutri":11908,"Ġgoverni":11909,"Ale":11910,"sani":11911,"etria":11912,"Ġsecco":11913,"veglianza":11914,"gnolo":11915,"ĠMala":11916,"Ġsereni":11917,"Ġindicazione":11918,"Ġfarmi":11919,"Ġgiudici":11920,"ĠMartin":11921,"Ġpermettendo":11922,"Ġprender":11923,"INE":11924,"Ġdifen":11925,"Ġcemento":11926,"Ġamministratori":11927,"fezione":11928,"Ġdescrivere":11929,"Ġimbar":11930,"Ġincorpo":11931,"Ġconversazione":11932,"Ġinso":11933,"istan":11934,"Ġrecla":11935,"ĠLon":11936,"ĠFlo":11937,"Ġdistruzione":11938,"Ġesposto":11939,"ĠAlto":11940,"Ġripos":11941,"Ġdefiniti":11942,"inglese":11943,"Ġcompetenti":11944,"ORMA":11945,"Ġapprofondimento":11946,"Ġritorna":11947,"Ġmotivazione":11948,"Ġrinnovabili":11949,"Ġavversari":11950,"2000":11951,"Tre":11952,"kea":11953,"Ġbei":11954,"individu":11955,"foro":11956,"Ġ900":11957,"Ġpotremmo":11958,"ĠGazzetta":11959,"ĠSpesso":11960,"Ġdimostrazione":11961,"Ġincarico":11962,"ĠJava":11963,"vernali":11964,"uela":11965,"ĠNessun":11966,"dalafil":11967,"Ġpneuma":11968,"mplice":11969,"Ġprem":11970,"torizzazione":11971,"Ġscuro":11972,"âĢ¦âĢ¦":11973,"omica":11974,"Ġcontemp":11975,"Ġandiamo":11976,"Ġriferito":11977,"cheranno":11978,"Ġspettacolare":11979,"ĠTeresa":11980,"Ġjo":11981,"Ġriportare":11982,"Ġusano":11983,"Ġringrazio":11984,"Ġgiuridica":11985,"Ġcucchiaio":11986,"Ġprostata":11987,"][":11988,"lti":11989,"ziose":11990,"Ġgal":11991,"colato":11992,"Ġpresie":11993,"vedere":11994,"Ġspinge":11995,"Ġtime":11996,"Ġspiegazione":11997,"quadra":11998,"ING":11999,"Ġreport":12000,"erlo":12001,"Ġperno":12002,"quest":12003,"als":12004,"Ġ130":12005,"ulso":12006,"zionati":12007,"gnola":12008,"giata":12009,"ĠSiti":12010,"Ġvitamina":12011,"Ġprofumi":12012,"Ġquindici":12013,"Ġprincipe":12014,"Ġ08":12015,"Ġtantissime":12016,"Ġatteso":12017,"Ġfedele":12018,"Ġavviato":12019,"ĠConsorzio":12020,"esercito":12021,"Ġapparire":12022,"Ġentusiasmo":12023,"56":12024,"ME":12025,"betta":12026,"cto":12027,"kes":12028,"Ġpompa":12029,"sica":12030,"orbi":12031,"ĠLes":12032,"ĠBelle":12033,"ggiante":12034,"Ġform":12035,"ĠLavo":12036,"Ġcolui":12037,"Ġoperatore":12038,"ĠGratui":12039,"Ġpollici":12040,"Ġplay":12041,"2007":12042,"Ġriflessioni":12043,"Ġterremoto":12044,"Ġproveniente":12045,"Ġrisale":12046,"Ġchitarra":12047,"interpretazione":12048,"vangeli":12049,"ĠEscort":12050,"Be":12051,"rex":12052,"any":12053,"locale":12054,"cializzazione":12055,"Ġparl":12056,"Ġvolentieri":12057,"Ġbiblio":12058,"Ġcompletamento":12059,"impasto":12060,"ĠLucia":12061,"ĠGioca":12062,"Ġpreparati":12063,"Ġisraeli":12064,"ĠVoi":12065,"Ġfemminili":12066,"ĠVendita":12067,"Ġasciuga":12068,"ĠGalaxy":12069,"HE":12070,"Â¨":12071,"Ġpanni":12072,"Ġconge":12073,"eting":12074,"molo":12075,"ĠPin":12076,"ttolo":12077,"Ġpittore":12078,"Ġvitale":12079,"Ġrad":12080,"ulum":12081,"ssare":12082,"Ġeleganti":12083,"Ġ07":12084,"Ġinserita":12085,"Ġfacciata":12086,"Ġconfigura":12087,"Ġatmosferi":12088,"Ġautunno":12089,"ĠAttraverso":12090,"CIA":12091,"efficienza":12092,"zona":12093,"Ġdivieto":12094,"antico":12095,"ĠMus":12096,"Ġprede":12097,"ĠLine":12098,"fit":12099,"ĠFrat":12100,"ĠLatina":12101,"Ġaventi":12102,"forni":12103,"Ġvada":12104,"ronta":12105,"Ġpuntare":12106,"ĠdiversitÃł":12107,"ĠMili":12108,"minate":12109,"Ġgiuria":12110,"Ġgustare":12111,"Ġsignificativi":12112,"Ġbarra":12113,"Ġ1994":12114,"Ġilluminazione":12115,"Ġimpiegato":12116,"Ġdeclina":12117,"efficacia":12118,"Â·":12119,"Ġcd":12120,"Ġconsta":12121,"ĠSuo":12122,"chini":12123,"Ġrecin":12124,"gior":12125,"Ġorgoglio":12126,"ĠCommenti":12127,"Ġ53":12128,"Ġfarvi":12129,"Ġpersonalizzato":12130,"Ġunicamente":12131,"ĠMark":12132,"fora":12133,"ghiamo":12134,"Ġaverlo":12135,"Ġsarei":12136,"Ġricevimento":12137,"ĠCasal":12138,"Ġfotografo":12139,"Ġiscrizioni":12140,"Ġfamose":12141,"Ġurbana":12142,"baldi":12143,"Ġestivo":12144,"Ġcappella":12145,"Ġcapoluogo":12146,"Ga":12147,"Ġ).":12148,"Ġpelo":12149,"Ġinden":12150,"Ġinasp":12151,"tuo":12152,"Ġcada":12153,"ĠAtti":12154,"nam":12155,"ccate":12156,"ĠAllo":12157,"Ġscrittori":12158,"troni":12159,"tonio":12160,"Ġcontes":12161,"Ġimmen":12162,"Ġconsapevoli":12163,"Ġappartenenza":12164,"ĠMessico":12165,"ĠMichael":12166,"!âĢĿ":12167,"59":12168,"aggiornamento":12169,"sli":12170,"Ġanelli":12171,"ggendo":12172,"Ġpreco":12173,"dex":12174,"ĠDr":12175,"ĠTv":12176,"pic":12177,"ziata":12178,"ĠLeggere":12179,"Ġchiavi":12180,"ghia":12181,"Ġesigenza":12182,"geranno":12183,"Ġbianche":12184,"Ġinterpretato":12185,"Ġespressamente":12186,"Ġpetrolio":12187,"Ġmagazzino":12188,"occupazione":12189,"Ġstore":12190,"Ġincar":12191,"ĠFanta":12192,"Ġcomparto":12193,"ĠMadre":12194,"ĠIllu":12195,"ologiche":12196,"Ġformaggio":12197,"Ġoperativa":12198,"ĠFiera":12199,"Ġgiovan":12200,"tereo":12201,"Ġbravo":12202,"Ġtecnologica":12203,"Ġguardia":12204,"Ġpoesie":12205,"logy":12206,"umerevoli":12207,"Ġripetere":12208,"Ġtelevisivo":12209,"Ġviaggiatori":12210,"fone":12211,"Ġ....":12212,"Ġpr":12213,"Ġconso":12214,"Ġott":12215,"ĠCN":12216,"ĠPeter":12217,"ĠAffi":12218,"Ġpatologia":12219,"bilita":12220,"ĠIngegn":12221,"Ġtotali":12222,"Ġconfeziona":12223,"ĠProdu":12224,"tuato":12225,"ĠarriverÃł":12226,"Ġcollegati":12227,"Ġcentroca":12228,"esigenza":12229,"Ġiniziata":12230,"Ġconsiderazioni":12231,"Ġparecchio":12232,"Ġampie":12233,"Ġspecializzati":12234,"Ġlumino":12235,"Romagna":12236,"Ġvolontariato":12237,"Ġcontenitore":12238,"Ġrubrica":12239,"Ġseppur":12240,"82":12241,"otto":12242,"zoni":12243,"Ãº":12244,"Ġclan":12245,"Ġalza":12246,"mentati":12247,"ĠSera":12248,"Ġcoro":12249,"Ġfinanzi":12250,"llato":12251,"Ġaffetto":12252,"Ġsistemazione":12253,"costi":12254,"Ġcompare":12255,"Ġguidato":12256,"ĠCassazione":12257,"Ġcolorati":12258,"Ġprovviso":12259,"Ġarrestato":12260,"Ġquartieri":12261,"Ġsorprendente":12262,"600":12263,"oga":12264,"pos":12265,"ugna":12266,"à¸":12267,"Ġdissi":12268,"Ġsogg":12269,"ĠTesta":12270,"ĠUdine":12271,"ĠOppure":12272,"uste":12273,"Ġdistanze":12274,"ĠKe":12275,"Ġerbe":12276,"Ġdelica":12277,"Ġlontana":12278,"Ġoccupazione":12279,"Ġapparecchia":12280,"Ġcookies":12281,"approvazione":12282,"Ġcompatibile":12283,"Ġtramonto":12284,"Ġtragedia":12285,"ÃĢ":12286,"intelli":12287,"Ġmes":12288,"zature":12289,"Ġpatria":12290,"ĠRE":12291,"Ġtempio":12292,"Ġliste":12293,"antici":12294,"Ġparteci":12295,"Ġfarne":12296,"Ġcanna":12297,"Ġtrimestre":12298,"Ġtrovata":12299,"Ġaggiornati":12300,"Ġsindacati":12301,"Ġcolloca":12302,"ĠsanitÃł":12303,"Ġmultimedia":12304,"Ġsoddisfatto":12305,"Ġconcreta":12306,"Ġpianificazione":12307,"Ġesplorare":12308,"Ġcosiddetta":12309,"Ġuguali":12310,"Ġchirurgia":12311,"ĠFriuli":12312,"Ġcostumi":12313,"Ġinvernale":12314,"lgs":12315,"Ġino":12316,"tropo":12317,"tentri":12318,"ĠGB":12319,"ĠTal":12320,"boid":12321,"Ġtenuti":12322,"trerÃł":12323,"Ġcausato":12324,"tyle":12325,"Ġ1996":12326,"Ġcapolavoro":12327,"Ġcaratterizza":12328,"Ġmassaggi":12329,"Ġincidenti":12330,"Ġfurto":12331,"Ġmotivazioni":12332,"ĠInformazioni":12333,"Ġcimitero":12334,"Ġsfumature":12335,"ĠEmanuele":12336,"Ter":12337,"cfr":12338,"emi":12339,"fasci":12340,"ming":12341,"lemme":12342,"Ġgla":12343,"ĠPino":12344,"Ġtraguardo":12345,"Ġmil":12346,"Ġporzione":12347,"ĠCondizioni":12348,"ĠPertanto":12349,"Ġtuttora":12350,"Ġcardia":12351,"Ġtendono":12352,"ĠJames":12353,"Ġinformatica":12354,"Ġfeed":12355,"Ġautobus":12356,"Ġideato":12357,"ordinamento":12358,"Ġaccompagnati":12359,"Ġcavalli":12360,"Ġindipendentemente":12361,"Ġcattolica":12362,"equilibrio":12363,"Ġparrocchia":12364,"ogle":12365,"Ã¤":12366,"racusa":12367,"Ġconsistenza":12368,"cho":12369,"Ġmaestri":12370,"eramente":12371,"Ġsponsor":12372,"gatori":12373,"ĠFol":12374,"eroga":12375,"estazione":12376,"corsi":12377,"Ġgamba":12378,"Ġuniti":12379,"ĠBase":12380,"Ancora":12381,"ĠSalone":12382,"Ġpubblicitari":12383,"Ġidentificare":12384,"Ġquotidiani":12385,"Ġemozion":12386,"Ġispira":12387,"ĠImpre":12388,"Ġimpermea":12389,"Ġpasticc":12390,"ristian":12391,"Ġtesoro":12392,":#":12393,"NE":12394,"ata":12395,"inchiesta":12396,"ĠCru":12397,"ĠSetti":12398,"ĠPet":12399,"cei":12400,"trali":12401,"Ġpatri":12402,"ĠBlog":12403,"Ġraramente":12404,"zzeria":12405,"Ġappai":12406,"pertensione":12407,"ĠPaci":12408,"Ġattravers":12409,"Ġpepe":12410,"imprendi":12411,"Ġseguita":12412,"servi":12413,"Ġricorrere":12414,"Ġraccontano":12415,"Ġvariare":12416,"Ġapparecchi":12417,"Ġpadella":12418,"border":12419,"Ġbandiera":12420,"Ġnascosto":12421,"ratteristiche":12422,"91":12423,"ecce":12424,"fru":12425,"vy":12426,"ontan":12427,"ĠiOS":12428,"Ġinvio":12429,"sistono":12430,"Ġvan":12431,"Ġlatino":12432,"Ġlaterali":12433,"Ġsedia":12434,"Ġcoste":12435,"Ġimpo":12436,"Ġsappia":12437,"fami":12438,"Ġcaldi":12439,"Ġoperai":12440,"stein":12441,"trimoniali":12442,"Ġdeterminata":12443,"ĠGiulio":12444,"Ġattende":12445,"Ġtitolari":12446,"Ġinnovativi":12447,"ĠComunicazione":12448,"ttedrale":12449,"fast":12450,"Ġlaterale":12451,"ĠMulti":12452,"Ġpiene":12453,"pace":12454,"Ġlitri":12455,"Ġinterviste":12456,"botto":12457,"Ġdovute":12458,"Ġgrandezza":12459,"Ġgode":12460,"ĠRocco":12461,"acquisizione":12462,"Ġimpegn":12463,"Ġistruzione":12464,"Ġmaster":12465,"ĠcasinÃ²":12466,"Ġrifiuta":12467,"Ġscolastica":12468,"Ġestetico":12469,"Ġtrucco":12470,"Ġpeculiari":12471,"\")":12472,"Ġcessa":12473,"Ġpisto":12474,"Ġdefici":12475,"ĠPes":12476,"vidi":12477,"ĠLis":12478,"Ġscen":12479,"Ġinteratti":12480,"elemento":12481,"Ġfuture":12482,"Ġarrivando":12483,"Ġcliccando":12484,"Ġfiltri":12485,"Ġclassiche":12486,"Ġamano":12487,"Ġpollo":12488,"Ġinteressate":12489,"Ġvalutazioni":12490,"Ġschiera":12491,"Ġsanitarie":12492,"Ġinglesi":12493,"Ġpercorrere":12494,"Ġcamminare":12495,"ĠFilippi":12496,"Ġfallimento":12497,"abitazione":12498,"Ġtastiera":12499,"boidrati":12500,"300":12501,":-":12502,"URA":12503,"doni":12504,"gol":12505,"ls":12506,"Ġze":12507,"Ġsqu":12508,"tenne":12509,"ĠTomma":12510,"ĠTuscola":12511,"Ġragg":12512,"Ġrassi":12513,"ĠNome":12514,"ĠIntanto":12515,"Queste":12516,"ĠCala":12517,"Ġatmosfera":12518,"ĠAncona":12519,"Ġconsegnato":12520,"Ġdefinitivo":12521,"ĠNike":12522,"Ġconsiglieri":12523,"Ġnarrazione":12524,"ĠBlue":12525,"Ġlieve":12526,"Ġbattuta":12527,"900":12528,"ak":12529,"fonda":12530,"rista":12531,"arbi":12532,"video":12533,"ĠAward":12534,"Ġmega":12535,"fficina":12536,"mmer":12537,"merÃł":12538,"Ġottenuti":12539,"Ġselezionato":12540,"ĠEuropeo":12541,"Ġnucleare":12542,"Ġworkshop":12543,"ving":12544,"ĠCup":12545,"ĠSmart":12546,"Ġsof":12547,"ĠNello":12548,"duca":12549,"bilitazione":12550,"riato":12551,"Ġavvio":12552,"ĠQuad":12553,"Ġtemporanea":12554,"ĠAltre":12555,"Ġstupe":12556,"Ġsentono":12557,"Ġtreni":12558,"Ġinformativa":12559,"ccioli":12560,"andamento":12561,"Ġbanco":12562,"Ġsorte":12563,"Ġbrav":12564,"Ġcausare":12565,"Ġintegrata":12566,"Ġxxx":12567,"Ġscenari":12568,"Ġrivelato":12569,"Ġconvinzione":12570,"ĠTuscolana":12571,"TC":12572,"amico":12573,"ben":12574,"clo":12575,"ring":12576,"Ġplan":12577,"Ġrilan":12578,"ĠSen":12579,"ĠAbb":12580,"mide":12581,"Ġpieni":12582,"ĠBia":12583,"Ġtag":12584,"Ġdirettiva":12585,"Ġsenz":12586,"Ġ85":12587,"ĠTaranto":12588,"Ġrifugia":12589,"Ġgarantendo":12590,"Ġascolta":12591,"Ġscolastici":12592,"Ġindipendenti":12593,"ĠCapitale":12594,"Ġalbergo":12595,"Ġanteprima":12596,"Ġsomministrazione":12597,"SarÃł":12598,"kh":12599,"Ġinvol":12600,"Ġfit":12601,"Ġappi":12602,"ronte":12603,"ĠLeo":12604,"Ġ58":12605,"cchini":12606,"Ġacqui":12607,"Ġtempesti":12608,"Ġimmuni":12609,"ĠGennaio":12610,"Ġscommesse":12611,"view":12612,"ĠBorgo":12613,"ĠprossimitÃł":12614,"Ġsequenza":12615,"Ġodier":12616,"Forse":12617,"Ġtun":12618,"ĠCle":12619,"content":12620,"ĠgravitÃł":12621,"ĠHu":12622,"Ġsalsa":12623,"Ġuniche":12624,"guardi":12625,"Ġcurata":12626,"Ġaggiungendo":12627,"Ġlasciate":12628,"Ġsorprese":12629,"Ġcoinvolgere":12630,"Ġascolto":12631,"Ġtentativi":12632,"Ġabbandonato":12633,"Ġinnumerevoli":12634,"Ġarchivio":12635,"Ġcondannato":12636,"73":12637,"Assemblea":12638,"zan":12639,"left":12640,"Ġferie":12641,"esel":12642,"cao":12643,"Ġveter":12644,"Ġvescovo":12645,"ĠPh":12646,"Ġpoten":12647,"onamenti":12648,"Ġspunti":12649,"uita":12650,"Ġmezz":12651,"medi":12652,"ĠUNI":12653,"Ġvapore":12654,"Ġanniversario":12655,"ĠBig":12656,"Ġtantissimo":12657,"Ġsindacali":12658,"Ġindagine":12659,"Ġfesteggiare":12660,"76":12661,"GE":12662,"lero":12663,"zu":12664,"âĦ":12665,"Ġstatu":12666,"Ġnotti":12667,"Ġgrati":12668,"rendimento":12669,"ĠCatto":12670,"ĠConsu":12671,"bergo":12672,"Ġscelti":12673,"Ġandranno":12674,"Ġprocla":12675,"Ġsegnalazione":12676,"Ġrappresentata":12677,"Ġprecisamente":12678,"Ġdiffusi":12679,"Ġdeterminate":12680,"turismo":12681,"Ġomos":12682,"Ġmuoversi":12683,"Ġfrigori":12684,"ĠManager":12685,"geria":12686,"vana":12687,"Ġcana":12688,"ĠsÃ¨":12689,"Ġandate":12690,"Ġcaus":12691,"Ġcattivo":12692,"Ġstazioni":12693,"Ġsacro":12694,"Ġtagliare":12695,"iler":12696,"formazione":12697,"Ġformazioni":12698,"trino":12699,"Ġapplicata":12700,"Ġcellulari":12701,"Ġaspettiamo":12702,"Ġsfruttamento":12703,"Ġmedievale":12704,"Ġtelevisiva":12705,"Ġacconten":12706,"ĠflessibilitÃł":12707,"Ġagricola":12708,"Domenica":12709,"TM":12710,"gruppo":12711,"riche":12712,"Ġquinta":12713,"Ġrimos":12714,"Ġsignori":12715,"videnza":12716,"dea":12717,"verse":12718,"Ġgiunti":12719,"Ġtoccare":12720,"ĠCongresso":12721,"fazione":12722,"ĠutilitÃł":12723,"Ġpensiamo":12724,"Ġbeneficio":12725,"Ġincen":12726,"Ġprotesta":12727,"Ġbrasili":12728,"ĠCenter":12729,"Ġfavorevole":12730,"Ġalbero":12731,"Ġprovenienza":12732,"Ġelettriche":12733,"Ġdelegato":12734,"ĠTrentino":12735,"Ġtonnellate":12736,"Ġimpostare":12737,"determinato":12738,"ĠScegli":12739,"ericordia":12740,"Azienda":12741,"Servi":12742,"Â²":12743,"Ġmuri":12744,"Ġcolline":12745,"Ġrov":12746,"ĠKm":12747,"Ġfotocamera":12748,"ĠZi":12749,"Ġintendono":12750,"Ġcontinuato":12751,"Ġtrent":12752,"CHI":12753,"Ġriportate":12754,"Ġagricole":12755,"ĠGalleria":12756,"aggiun":12757,"role":12758,"Ġspunto":12759,"Ġstagi":12760,"guento":12761,"Ġcomposti":12762,"Ġavessi":12763,"ĠPavia":12764,"url":12765,"essante":12766,"Ġdisporre":12767,"Ġcervi":12768,"presidente":12769,"improv":12770,"Ġ06":12771,"Ġfermare":12772,"Ġmaschio":12773,"Ġrilevanti":12774,"Ġriconosciuta":12775,"ĠCanale":12776,"Ġfrigo":12777,"Ġsoffre":12778,"Ġscienziati":12779,"sprudenza":12780,"Solo":12781,"Ġsbi":12782,"ĠShi":12783,"ĠTon":12784,"Ġgirl":12785,"urce":12786,"Ġrottura":12787,"ĠRegistra":12788,"ĠAldo":12789,"Ġpolizio":12790,"ĠLuciano":12791,"upon":12792,"Ġordinare":12793,"Ġmanagement":12794,"ĠFamiglia":12795,"Ġmestiere":12796,"Ben":12797,"list":12798,"quando":12799,"disi":12800,"ĠSve":12801,"ĠScola":12802,"ĠArea":12803,"ĠRio":12804,"Ġsonora":12805,"ĠEst":12806,"Ġcompensa":12807,"ĠConcorso":12808,"Ġ54":12809,"Ġ700":12810,"ĠLuglio":12811,"fiamma":12812,"âĢľ,":12813,"Ġperfezione":12814,"Ġintensi":12815,"Ġraccogli":12816,"ĠCostan":12817,"Ġvariabili":12818,"ĠvaliditÃł":12819,"Ġschemi":12820,"Ġaspettano":12821,"Ġcircostante":12822,"Ġschiavi":12823,"fortunio":12824,"uilding":12825,"UM":12826,"eu":12827,"nal":12828,"Ġpin":12829,"Ġebook":12830,"Ġebra":12831,"Ġdecina":12832,"ĠGeo":12833,"ĠVeri":12834,"Ġarco":12835,"ordin":12836,"cktail":12837,"Ġcliccare":12838,"andante":12839,"ĠRock":12840,"ENTO":12841,"accusa":12842,"Ġescluso":12843,"Ġinserimento":12844,"ĠAppro":12845,"Ġinterpretare":12846,"Ġnavigare":12847,"Ġapprezzare":12848,"Ġorientamento":12849,"riculum":12850,"Ġportafoglio":12851,"Ġappaiono":12852,"72":12853,"gru":12854,"off":12855,"Ġinol":12856,"Ġlaser":12857,"Ġopen":12858,"ĠPeso":12859,"Ġcalib":12860,"ĠDona":12861,"Ġspera":12862,"Ġparchi":12863,"âĢĿ;":12864,"Ġmandor":12865,"Ġcerchio":12866,"âĢ¦)":12867,"ĠSanremo":12868,"Ġmoltissimi":12869,"Ġnascono":12870,"Ġintesa":12871,"mula":12872,"Ġadottato":12873,"ciliazione":12874,"Ġdipinto":12875,"Ġbilancia":12876,"Ġpanchina":12877,"Ġabbandonare":12878,"ĠOriente":12879,"ĠMaggiore":12880,"________":12881,"Ġazzurro":12882,"ĠUlti":12883,"Allora":12884,"ĠPescara":12885,"51":12886,"Emi":12887,"brale":12888,"domi":12889,"fet":12890,"gallo":12891,"Ġghi":12892,"pola":12893,"ĠEconomia":12894,"Ġhot":12895,"Ġsottoval":12896,"Ġdomina":12897,"ĠPower":12898,"ccidente":12899,"Ġdivenne":12900,"ĠZona":12901,"Ġamante":12902,"Ġlimitare":12903,"auton":12904,"Ġpubblicate":12905,"Ġdatabase":12906,"Ġstabilimento":12907,"Ġprofitto":12908,"Ġinfermi":12909,"ettatore":12910,"Ġdimenticato":12911,"Ġsottoposto":12912,"Ġgradualmente":12913,"Ġyoutube":12914,"ccessivamente":12915,"On":12916,"plina":12917,"Ġpiste":12918,"sibili":12919,"Ġsuona":12920,"Ġlento":12921,"trato":12922,"ĠTali":12923,"deria":12924,"attrice":12925,"antova":12926,"colore":12927,"Ġaltrove":12928,"appello":12929,"Ġcollaborare":12930,"Ġantipa":12931,"Ġinvitato":12932,"Ġchieder":12933,"Ġgriglia":12934,"Ġaccompagnare":12935,"Ġconcezione":12936,"Ġpromuove":12937,"Ġdecorazione":12938,"lÃ¬":12939,"Ġsmenti":12940,"Ġridere":12941,"sale":12942,"viano":12943,"ggero":12944,"ĠLO":12945,"sport":12946,"ĠTRA":12947,"Ġparlo":12948,"lusso":12949,"Ġcole":12950,"Ġchiusi":12951,"Ġtogli":12952,"Ġvotare":12953,"ĠPass":12954,"landia":12955,"Ġscatti":12956,"Ġspaven":12957,"Ġcollezioni":12958,"Ġfermata":12959,"Ġnascere":12960,"Ġaccoglie":12961,"Ġ1991":12962,"Ġcoperta":12963,"Ġviolenta":12964,"Ġcondurre":12965,"ĠAugu":12966,"Ġfacevano":12967,"Ġsapeva":12968,"grande":12969,"Ġebrei":12970,"62":12971,"getto":12972,"opposizione":12973,"Ġinutili":12974,"mie":12975,"ranee":12976,"cont":12977,"Ġnodi":12978,"ĠCata":12979,"ĠConferenza":12980,"ghetto":12981,"ĠMeta":12982,"Ġsignificativa":12983,"impressione":12984,"Ġtracciato":12985,"Ġristrutturato":12986,"\";":12987,"tibile":12988,"Ġstavolta":12989,"ĠBla":12990,"Ġlire":12991,"user":12992,"Ġnatale":12993,"Ġleggendo":12994,"Ġsolitudine":12995,"Ġammesso":12996,"Ġsciol":12997,"Ġlanciare":12998,"Ġimpegnata":12999,"Ġpreferisce":13000,"Ġacquisito":13001,"Ġcongiun":13002,"Ġdocumentario":13003,"Ġente":13004,"Ġladdove":13005,"ĠSche":13006,"ville":13007,"Ġmagico":13008,"ĠAmeri":13009,"Ġspen":13010,"ĠEserci":13011,"bate":13012,"Ġvertici":13013,"essor":13014,"Ġcarboidrati":13015,"Ġaffres":13016,"Ġpotresti":13017,"ĠCitta":13018,"tandosi":13019,"Ġsoliti":13020,"Ġfermato":13021,"Ġeccle":13022,"ĠdensitÃł":13023,"Ġesclusione":13024,"Ġconsultazione":13025,"Ġassicurato":13026,"Ġdiffondere":13027,"ĠFiat":13028,"Ġsanguigna":13029,"Ġsmar":13030,"orror":13031,"ciliano":13032,"Ġparlar":13033,"inesi":13034,"ullo":13035,"venia":13036,"gnoli":13037,"board":13038,"basti":13039,"atten":13040,"ĠProdotti":13041,"Ġscopre":13042,"Ġunire":13043,"ĠVienna":13044,"ĠNazioni":13045,"monta":13046,"Ġalloggio":13047,"Ġvisitato":13048,"Ġottica":13049,"Ġintegrare":13050,"Ġpelleg":13051,"Ġrilevanza":13052,"====":13053,"Book":13054,"Ġascensore":13055,"adozione":13056,"Ġcostume":13057,"Ġassistito":13058,"Ġsedie":13059,"ssini":13060,"pare":13061,"zzino":13062,"Ġindici":13063,"Ġattive":13064,"Ġformata":13065,"anesimo":13066,"Ġcapitato":13067,"pensa":13068,"ĠFai":13069,"volezza":13070,"ĠChiusura":13071,"Ġpronos":13072,"Ġstop":13073,"Ġinclusa":13074,"Ġinnovativa":13075,"ĠMusic":13076,"ĠValentino":13077,"ĠTitolare":13078,"Ġproiezione":13079,"Ġstupefa":13080,"84":13081,"PRE":13082,"bera":13083,"anu":13084,"ĠStori":13085,"Ġbran":13086,"ĠMostra":13087,"Ġspinto":13088,"Ġcosme":13089,"ettivo":13090,"ĠLau":13091,"nesi":13092,"Ġsapre":13093,"volto":13094,"ĠWest":13095,"Ġcircolo":13096,"Ġregolari":13097,"Ġvalutato":13098,"Ġstradali":13099,"Ġconsulente":13100,"Ġpartnership":13101,"Ġcancellazione":13102,"Ġgiunge":13103,"Ġoccidentali":13104,"emergenza":13105,"ku":13106,"psi":13107,"pul":13108,"Ġrichiamo":13109,"ĠFonte":13110,"ĠInghilterra":13111,"ĠProdotto":13112,"Ġsindrome":13113,"Ġricorrente":13114,"Ġvideogio":13115,"Ġinsetti":13116,"Ġtornata":13117,"Ġtrasformato":13118,"Ġimpiegati":13119,"Ġguadagno":13120,"Ġlievito":13121,"Ġarchitettoni":13122,"Ġfastidio":13123,"Ġcomparsa":13124,"Ġuccelli":13125,"sele":13126,"rage":13127,"mentano":13128,"ĠClo":13129,"ĠCOR":13130,"Ġcompro":13131,"Ġ-.":13132,"ĠInsieme":13133,"Ġchio":13134,"Ġchiamo":13135,"uneo":13136,"Ġoneri":13137,"Ġinformatici":13138,"ĠFiglio":13139,"ppato":13140,"Ġpronun":13141,"sistema":13142,"Ġaffermare":13143,"ĠCredo":13144,"Ġsospetto":13145,"Ġvigilanza":13146,"Ġrivestimento":13147,"Ã³n":13148,"Ġdebutto":13149,"Ġintitolato":13150,"Ġorizzontale":13151,"âĦ¢":13152,"autunno":13153,"rossi":13154,"âĢĭ":13155,"Ġgom":13156,"Ġsuonare":13157,"ĠLED":13158,"Ġvittorie":13159,"Ġspot":13160,"ĠFort":13161,"zionamento":13162,"ĠPace":13163,"giare":13164,"indice":13165,"Ġconferimento":13166,"tative":13167,"ĠBox":13168,"Ġricambio":13169,"Ġattenta":13170,"Ġrisparmi":13171,"Ġresistere":13172,"Ġcresciuto":13173,"fle":13174,"Ġamati":13175,"infer":13176,"Ġetero":13177,"ĠLI":13178,"ficiali":13179,"erica":13180,"grazie":13181,"Ġattenti":13182,"Ġsaluti":13183,"Ġlug":13184,"Ġperiodica":13185,"Ġprevedono":13186,"Ġaffrontato":13187,"Ġpromessa":13188,"Ġtutelare":13189,"Ġtruffa":13190,"Ġcircostanza":13191,"Ġflussi":13192,"Ġpermanenza":13193,"ĠAssistenza":13194,"Ġrafforza":13195,"Ġesponenti":13196,"ĠImmagini":13197,"Ġmetropolitana":13198,":\"":13199,"Ness":13200,"nera":13201,"wei":13202,"Ġequ":13203,"Ġfro":13204,"oss":13205,"Ġdebi":13206,"ters":13207,"ttiti":13208,"Ġstatale":13209,"Ġrami":13210,"gogli":13211,"zzar":13212,"Ġchimici":13213,"ssato":13214,"Ġdisce":13215,"mann":13216,"Ġcomunicati":13217,"ĠRavenna":13218,"fiato":13219,"Ġaffidata":13220,"Ġsopratutto":13221,"Ġ1995":13222,"ĠConsigli":13223,"Ġfirme":13224,"ĠPolitica":13225,"Ġdovremmo":13226,"intento":13227,"Ġverdura":13228,"Ġdiploma":13229,"Ġdomestico":13230,"Ġintraprendere":13231,"Don":13232,"kti":13233,"xelles":13234,"errore":13235,"ary":13236,"argento":13237,"ĠPlan":13238,"damenti":13239,"Ġsem":13240,"Ġcomprato":13241,"bama":13242,"ĠCampa":13243,"Ġgenu":13244,"Ġorganismi":13245,"Ġspari":13246,"Ġcreativa":13247,"ĠZu":13248,"Ġraggiungibile":13249,"Ġterrazzo":13250,"Ġcuori":13251,"Ġstrutturali":13252,"Ġdiffuse":13253,"Ġcoinvolge":13254,"Ġistituto":13255,"ĠparitÃł":13256,"Ġtelefonico":13257,"Ġarredi":13258,"Ġregalare":13259,"Ġpassivo":13260,"Ġmuore":13261,"Ġpreventivi":13262,"ĠManagement":13263,"bottom":13264,"400":13265,"Aquila":13266,"Ġdro":13267,"cida":13268,"checa":13269,"ĠDolo":13270,"ĠEconomi":13271,"Ġmigra":13272,"vengono":13273,"Ġgrafici":13274,"Ġestin":13275,"Ġ51":13276,"ssegnato":13277,"Ġrose":13278,"ĠVice":13279,"cciolo":13280,"Ġblogger":13281,"Ġcoinvolte":13282,"Ġsegreteria":13283,"Ġannulla":13284,"ĠTreviso":13285,"Ġdemocratico":13286,"Ġanticipato":13287,"ĠCircolo":13288,"Ġnasconde":13289,"arredo":13290,"Ġpriori":13291,"taneamente":13292,"Ġbeneficia":13293,"ĠGabriele":13294,"pes":13295,"onante":13296,"Ġple":13297,"retti":13298,"rimento":13299,"roma":13300,"ziana":13301,"side":13302,"Ġbesti":13303,"Ġrestri":13304,"Ġprele":13305,"ĠDen":13306,"Ġstavano":13307,"ccanti":13308,"Ġmela":13309,"Ġaddosso":13310,"Ġprigioni":13311,"vendita":13312,"ĠIndia":13313,"Ġcorse":13314,"ĠCaval":13315,"Ġroom":13316,"Ġ69":13317,"Ġfuma":13318,"Ġdeserto":13319,"usalemme":13320,"ĠTras":13321,"Ġrinuncia":13322,"Ġturistiche":13323,"Ġappassionato":13324,"ĠSilvio":13325,"Ġpreoccupazione":13326,"ĠNovecento":13327,"cellare":13328,"ĠTurchia":13329,"ĠDicembre":13330,"sservatorio":13331,"Ġnere":13332,"Ġriforme":13333,"Ġlegna":13334,"ĠEcc":13335,"Ġadde":13336,"cure":13337,"ĠInfo":13338,"Ġuniforme":13339,"Ġbenzina":13340,"Ġdecisi":13341,"ĠDai":13342,"Ġpedia":13343,"ĠkW":13344,"Ġammon":13345,"ĠGari":13346,"Ġamicizie":13347,"ĠNiente":13348,"Ġvolesse":13349,"Ġnotevolmente":13350,"Ġbrutto":13351,"Ġaccompagnata":13352,"Ġrestando":13353,"Ġthis":13354,"Ġnewsletter":13355,"ĠaiuterÃł":13356,"ĠUniversity":13357,"Ġminis":13358,"Ġflore":13359,"ĠPil":13360,"ĠIscri":13361,"Ġpitto":13362,"uoco":13363,"ĠRenato":13364,"Ġcopri":13365,"Ġliti":13366,"Ġbacio":13367,"Ġarmonia":13368,"ĠIndustri":13369,"Ġcreano":13370,"bat":13371,"Ġattrazioni":13372,"ĠNov":13373,"Ġsentieri":13374,"Ġparagrafo":13375,"influenza":13376,"Ġpsicologico":13377,"Ġottimizzare":13378,"Ġpiloti":13379,"Ġindividuo":13380,"Ġmonumenti":13381,"tecnico":13382,"Ġlesbiche":13383,"Ġsubire":13384,"ĠTurismo":13385,"affer":13386,"ht":13387,"Ð»":13388,"Ġemana":13389,"Ġresidente":13390,"Ġpatente":13391,"news":13392,"Ġnoci":13393,"Ġaiutato":13394,"Ġtroppe":13395,"ĠCondi":13396,"Ġrinoma":13397,"Ġdimostrano":13398,"ttanta":13399,"Ġcertificati":13400,"intesa":13401,"Ġpericolosi":13402,"Ġpsicologica":13403,"Ġgestore":13404,"ĠDimensioni":13405,"Ġrisarcimento":13406,"ĠRistorante":13407,"As":13408,"PC":13409,"Stu":13410,"Ġph":13411,"ingo":13412,"rado":13413,"citi":13414,"Ġmais":13415,"ĠMura":13416,"segre":13417,"ĠFiorentina":13418,"tanei":13419,"Ġallen":13420,"entano":13421,"Ġfood":13422,"eller":13423,"Ġtrovati":13424,"ĠExpo":13425,"Ġcompilazione":13426,"ĠpurchÃ©":13427,"Ġbiologico":13428,"ĠGerusalemme":13429,"ĠPost":13430,"formarsi":13431,"Ġautentica":13432,"ĠUmberto":13433,"Ġhardware":13434,"Ġverbale":13435,"Amore":13436,"ju":13437,"nes":13438,"onismo":13439,"Ġpalle":13440,"ĠISO":13441,"zzatura":13442,"paci":13443,"gusa":13444,"Ġcognome":13445,"ĠQuattro":13446,"Ġprogettare":13447,"istituzione":13448,"Ġtennis":13449,"ĠViene":13450,"Ġmediter":13451,"Ġnudo":13452,"Ġprecise":13453,"Ġbellissime":13454,"Tuttavia":13455,"Ġnotevoli":13456,"ETTI":13457,"Dalla":13458,"amministratore":13459,"fania":13460,"oncino":13461,"ind":13462,"invito":13463,"lista":13464,"Ġdepressione":13465,"ĠPur":13466,"Ġcabina":13467,"ĠTera":13468,"ĠUtili":13469,"Ġvennero":13470,"ĠQualitÃł":13471,"Ġviale":13472,"Ġsaltare":13473,"Ġproduttive":13474,"Ġelevate":13475,"Ġpeper":13476,"ĠPresid":13477,"Ġ110":13478,"INO":13479,"Ġdiete":13480,"trans":13481,"Ġattentamente":13482,"Ġregali":13483,"Ġcostituire":13484,"ĠScarica":13485,"ĠThom":13486,"Ġzampe":13487,"ĠðŁĻ":13488,"binetto":13489,"ĠPersonali":13490,"Ġflash":13491,"Ġdottrina":13492,"Ġassorbi":13493,"Ġcrociera":13494,"Ġgiudiziaria":13495,">>":13496,"pelli":13497,"ttrici":13498,"cast":13499,"Ġol":13500,"Ġsuon":13501,"ĠSia":13502,"bico":13503,"Ġsotter":13504,"ĠDO":13505,"Ġtubi":13506,"Ġterres":13507,"Ġprimarie":13508,"Ġpiazze":13509,"ĠRicci":13510,"Ġmaniche":13511,"Ġlegami":13512,"Ġnuvolo":13513,"ĠTeo":13514,"Ġdifensore":13515,"Ġtipiche":13516,"Ġdistribu":13517,"Ġterapie":13518,"ĠWiki":13519,"Ġarchivi":13520,"Ġcontribuisce":13521,"Ġgiungere":13522,"Ġrimedio":13523,"ĠShow":13524,"Ġjazz":13525,"Ġstipendio":13526,"ĠDVD":13527,"53":13528,"GRA":13529,"Oro":13530,"azia":13531,"Ġcrono":13532,"Ġsteri":13533,"incontri":13534,"Ġdatore":13535,"Ġcade":13536,"Ġstatus":13537,"ĠEssi":13538,"ĠUfficiale":13539,"gela":13540,"rindisi":13541,"Ġbenvenuto":13542,"Ġconclusa":13543,"Ġincontrano":13544,"Ġfornendo":13545,"Ġversamento":13546,"ĠNessuno":13547,"Ġvertice":13548,"71":13549,"glo":13550,"nano":13551,"Ġsomi":13552,"Ġdimissioni":13553,"ĠSingle":13554,"Ġnonno":13555,"Ġstampo":13556,"Ġgiuste":13557,"Ġvotato":13558,"Ġserbato":13559,"Ġmandare":13560,"utata":13561,"Ġgiudica":13562,"Ġdomestici":13563,"Ġinformativo":13564,"ĠFatto":13565,"cendio":13566,"Art":13567,"ensori":13568,"Ġfalsi":13569,"Ġattacca":13570,"Ġpreferite":13571,"Ġfederale":13572,"Ġprenotazioni":13573,"Ġdisturbo":13574,"ĠCHE":13575,"Ġaggiudica":13576,"Ġriqualificazione":13577,"?!":13578,"Certo":13579,"cicli":13580,"ish":13581,"Ġangoli":13582,"Ġmade":13583,"Ġmappe":13584,"Ġcavali":13585,"ĠDuomo":13586,"fornia":13587,"position":13588,"Ġelimin":13589,"Ġnegativa":13590,"Ġriguardante":13591,"Ġdecennio":13592,"Ġinquie":13593,"Ġtrasferta":13594,"soriasi":13595,"Hai":13596,"Spe":13597,"TRE":13598,"pres":13599,"zone":13600,"Ġivi":13601,"cimento":13602,"allar":13603,"ĠSale":13604,"Ġlesioni":13605,"Ġmagica":13606,"uote":13607,"Ġpacchetti":13608,"Ġsposi":13609,"Ġdosi":13610,"ĠLabora":13611,"ĠComi":13612,"ĠQuella":13613,"cciati":13614,"ĠWhat":13615,"ĠWash":13616,"Ġservito":13617,"Ġwa":13618,"Ġcomplesse":13619,"ERO":13620,"gheria":13621,"Sempre":13622,"Ġartificiale":13623,"Ġtrovava":13624,"Ġcapsu":13625,"Ġfrequente":13626,"Ġspecializzazione":13627,"Ġpotenzialmente":13628,"Ġsperimentale":13629,"ĠRagazzi":13630,"ĠLink":13631,"Ġnarrativa":13632,"Ġauguri":13633,"ĠAgosto":13634,"ĠCanada":13635,"Ġimprovvisamente":13636,"Ġsofistica":13637,"Isola":13638,"rs":13639,"stanti":13640,"incon":13641,"esor":13642,"mentazioni":13643,"dove":13644,"Ġriva":13645,"Ġbreak":13646,"Ġmagli":13647,"Ġsperare":13648,"Ġproducono":13649,"Ġvicine":13650,"Ġoccupato":13651,"Ġdipinti":13652,"Ġritengo":13653,"Ġmeraviglia":13654,"Ġculina":13655,"specie":13656,"Ġaggiungete":13657,"Ġconflitti":13658,"lleranza":13659,"ĠVirgilio":13660,"Ġrestituire":13661,"Ġpatrocinio":13662,"69":13663,"gane":13664,"imb":13665,"Ġdanna":13666,"inone":13667,"Ġdelu":13668,"Ġled":13669,"ĠPU":13670,"ĠFit":13671,"Ġadia":13672,"ercati":13673,"ĠConser":13674,"Ġ59":13675,"Ġpersonalizzazione":13676,"Ġcartella":13677,"escovi":13678,"Ġapprossima":13679,"Ġarredamento":13680,"ĠPiacenza":13681,"ĠVaticano":13682,"Ġapposito":13683,"ĠentitÃł":13684,"Ġspostare":13685,"Ġsimpatico":13686,"ĠCialis":13687,"Ġguerre":13688,"Ġprecoce":13689,"GNA":13690,"Ini":13691,"SC":13692,"TEN":13693,"Ġdirlo":13694,"tese":13695,"Ġbr":13696,"dam":13697,"Ġcaute":13698,"Ġtessi":13699,"Ġradice":13700,"zzetto":13701,"luca":13702,"Ġnobile":13703,"zionalizzazione":13704,"gnante":13705,"ONO":13706,"Ġgola":13707,"Ġfilmati":13708,"Ġabitabile":13709,"Ġdelicata":13710,"Ġcucinare":13711,"Ġrilevato":13712,"Ġmutuo":13713,"ĠRossa":13714,"Ġmonete":13715,"Ġminacce":13716,"Ġelettrodom":13717,"ĠBruxelles":13718,"ĠGuardia":13719,"Ġmeridionale":13720,"Ġimmigrati":13721,"ref":13722,"Ġetta":13723,"site":13724,"Ġripreso":13725,"ĠAPP":13726,"ĠME":13727,"ĠGenti":13728,"Ġscu":13729,"perÃł":13730,"Ġvasi":13731,"truzioni":13732,"Ġespansione":13733,"gnese":13734,"ĠfarÃ²":13735,"inismo":13736,"ĠMiche":13737,"Ġmargine":13738,"omito":13739,"Ġdecise":13740,"ĠDocu":13741,"Ġmoltissimo":13742,"Ġconferenze":13743,"Ġgarantiscono":13744,"Milano":13745,"Ġscientifici":13746,"Ġconforme":13747,"Ġconfigu":13748,"Ġpercentuali":13749,"Ġguarire":13750,"Ġseminario":13751,"Buon":13752,"Ġmiscela":13753,"ĠRaffaele":13754,"Ġstereo":13755,"Ġdila":13756,"Ġindeterminato":13757,"Ġlana":13758,"Ġgar":13759,"etnam":13760,"vegni":13761,"ĠDeli":13762,"Ġpavimenti":13763,"ĠTed":13764,"Ġtes":13765,"Ġ2020":13766,"essorato":13767,"inger":13768,"Quanto":13769,"Ġnostal":13770,"Ġdistra":13771,"Ġpersonalizzati":13772,"Ġpiastre":13773,"Ġfutura":13774,"Ġinformato":13775,"ĠRobert":13776,"Ġfornitore":13777,"Ġintensa":13778,"ĠTemp":13779,"Ġgrossa":13780,"Ġappartengono":13781,"Ġgiuridico":13782,"Ġvegetali":13783,"Ġsvuo":13784,"Ġdegustazione":13785,"ĠLettera":13786,"ĠCategoria":13787,"TTI":13788,"inanti":13789,"Ġcomme":13790,"terina":13791,"Ġpovero":13792,"ĠEssa":13793,"ulsione":13794,"Ġavvocato":13795,"Ġsalotto":13796,"Ġorgano":13797,"Ġpuntate":13798,"Ġfogli":13799,"Ġsottostante":13800,"Ġincer":13801,"ĠUnder":13802,"Ġeleganza":13803,"Ġcontento":13804,"ĠZan":13805,"Ġprati":13806,"ĠUnite":13807,"tarne":13808,"Ġstudiosi":13809,"Ġadatte":13810,"Ġsettentri":13811,"ĠINTER":13812,"Ġannul":13813,"Ġregalato":13814,"Ġemergere":13815,"Ġmacchinari":13816,"Ġsovrapp":13817,"ĠSuperiore":13818,"Ġoccupano":13819,"Ġbronzo":13820,"Ġpantaloni":13821,"Austria":13822,"parte":13823,"Ġduo":13824,"Ġdito":13825,"ors":13826,"losa":13827,"Ġpregio":13828,"Ġvigenti":13829,"ĠEventi":13830,"Ġradia":13831,"âĢĿ).":13832,"Ġ--":13833,"Ġdisposti":13834,"pressi":13835,"Ġtentare":13836,"Ġ72":13837,"ĠLou":13838,"Ġagro":13839,"Ġevidenti":13840,"Ġvincoli":13841,"Ġfavola":13842,"Ġsanzione":13843,"ĠEnzo":13844,"ĠCristina":13845,"Ġespressioni":13846,"ĠDisponi":13847,"Ġconvinti":13848,"Ġobbligatorio":13849,"Ġaumentando":13850,"Ġfavorisce":13851,"incarico":13852,"Ġrestituzione":13853,"Scopri":13854,"ascolto":13855,"Ġcarburante":13856,"AC":13857,"Fo":13858,"onista":13859,"Ġimbara":13860,"Ġconsole":13861,"Ġaltern":13862,"Ġcheck":13863,"ĠIRIS":13864,"Ġspettatore":13865,"continua":13866,"bay":13867,"Ġsereno":13868,"ttoni":13869,"Ġscatto":13870,"Infatti":13871,"Ġchiamano":13872,"Ġcreati":13873,"Ġtelecom":13874,"Ġesistere":13875,"Ġblocchi":13876,"Ġdiabete":13877,"ZIO":13878,
[...]
